▁ 100
e 100
a 100
n 100
i 100
o 100
s 100
t 100
r 100
l 100
d 100
ا 100
c 100
u 100
о 100
ل 100
е 100
и 100
m 100
p 100
а 100
н 100
т 100
ي 100
. 100
с 100
h 100
р 100
م 100
, 100
в 100
f 100
g 100
ن 100
ت 100
و 100
л 100
v 100
b 100
ر 100
д 100
é 100
м 100
п 100
ة 100
к 100
y 100
ع 100
د 100
у 100
ب 100
я 100
1 100
0 100
ف 100
ы 100
2 100
ق 100
س 100
q 100
أ 100
г 100
з 100
ه 100
б 100
- 100
ь 100
' 100
C 100
ك 100
ح 100
w 100
ج 100
ч 100
й 100
A 100
х 100
) 100
ó 100
9 100
S 100
的 100
I 100
E 100
( 100
/ 100
ж 100
x 100
3 100
ц 100
5 100
P 100
N 100
j 100
ю 100
4 100
， 100
T 100
، 100
إ 100
ش 100
6 100
ص 100
L 100
M 100
ط 100
D 100
ى 100
R 100
ذ 100
7 100
z 100
k 100
8 100
щ 100
í 100
خ 100
O 100
U 100
ض 100
。 100
à 100
" 100
G 100
和 100
ز 100
ш 100
? 100
á 100
ث 100
ئ 100
: 100
会 100
国 100
F 100
; 100
غ 100
B 100
О 100
H 100
è 100
ф 100
在 100
ء 100
С 100
э 100
一 100
、 100
ظ 100
我 100
Н 100
有 100
П 100
К 100
人 100
是 100
J 100
了 100
! 100
В 100
议 100
W 100
行 100
不 100
А 100
年 100
员 100
V 100
ـ 100
这 100
为 100
以 100
ﻻ 100
你 100
作 100
ً 100
法 100
第 100
Д 100
И 100
М 100
ؤ 100
方 100
合 100
关 100
要 100
Y 100
发 100
ñ 100
定 100
他 100
个 100
对 100
Р 100
于 100
家 100
中 100
其 100
ê 100
提 100
Т 100
Г 100
ú 100
们 100
事 100
ﻷ 100
联 100
到 100
K 100
所 100
大 100
进 100
出 100
动 100
政 100
¿ 100
Е 100
工 100
理 100
地 100
؟ 100
ّ 100
能 100
及 100
委 100
可 100
用 100
约 100
日 100
组 100
权 100
ъ 100
É 100
与 100
利 100
月 100
决 100
生 100
展 100
加 100
١ 100
Б 100
公 100
成 100
问 100
主 100
部 100
> 100
< 100
ُ 100
آ 100
Q 100
题 100
来 100
特 100
全 100
上 100
并 100
报 100
过 100
案 100
； 100
力 100
机 100
务 100
؛ 100
告 100
٩ 100
项 100
保 100
性 100
时 100
经 100
表 100
制 100
面 100
《 100
》 100
际 100
下 100
目 100
些 100
实 100
Э 100
分 100
应 100
各 100
就 100
得 100
重 100
别 100
У 100
民 100
资 100
Я 100
将 100
期 100
助 100
间 100
多 100
建 100
开 100
% 100
同 100
？ 100
条 100
女 100
意 100
安 100
供 100
任 100
该 100
亚 100
通 100
或 100
现 100
斯 100
区 100
非 100
内 100
计 100
[ 100
] 100
么 100
持 100
书 100
： 100
基 100
文 100
织 100
体 100
长 100
后 100
Л 100
本 100
程 100
情 100
说 100
好 100
而 100
立 100
还 100
规 100
处 100
З 100
件 100
平 100
协 100
没 100
自 100
社 100
此 100
支 100
外 100
之 100
当 100
’ 100
据 100
） 100
如 100
（ 100
种 100
َ 100
代 100
调 100
审 100
管 100
次 100
施 100
因 100
构 100
金 100
业 100
包 100
明 100
Ч 100
况 100
取 100
最 100
系 100
那 100
确 100
ç 100
府 100
团 100
道 100
Ф 100
活 100
使 100
受 100
也 100
信 100
者 100
共 100
正 100
前 100
设 100
由 100
拉 100
里 100
强 100
X 100
域 100
数 100
新 100
认 100
ô 100
执 100
续 100
查 100
* 100
ﻹ 100
括 100
号 100
高 100
٢ 100
化 100
交 100
尔 100
指 100
度 100
向 100
需 100
儿 100
ِ 100
٠ 100
办 100
等 100
什 100
统 100
果 100
已 100
入 100
¡ 100
但 100
小 100
秘 100
妇 100
都 100
美 100
标 100
求 100
准 100
请 100
知 100
相 100
论 100
子 100
先 100
领 100
义 100
学 100
Ш 100
解 100
预 100
十 100
采 100
\ 100
被 100
划 100
去 100
至 100
专 100
比 100
Х 100
它 100
巴 100
产 100
必 100
结 100
然 100
教 100
根 100
从 100
起 100
济 100
见 100
点 100
做 100
ё 100
心 100
名 100
想 100
她 100
Ю 100
则 100
缔 100
样 100
举 100
吗 100
Z 100
很 100
护 100
克 100
洲 100
列 100
式 100
律 100
更 100
战 100
٣ 100
源 100
参 100
西 100
童 100
看 100
达 100
款 100
言 100
两 100
措 100
段 100
注 100
物 100
境 100
增 100
何 100
给 100
技 100
效 100
门 100
阿 100
٤ 100
三 100
术 100
级 100
总 100
٥ 100
促 100
界 100
二 100
常 100
尼 100
改 100
维 100
无 100
少 100
核 100
司 100
费 100
治 100
策 100
届 100
算 100
服 100
收 100
回 100
科 100
原 100
接 100
除 100
武 100
责 100
马 100
世 100
反 100
具 100
切 100
口 100
Ц 100
！ 100
席 100
证 100
商 100
署 100
运 100
监 100
犯 100
天 100
害 100
û 100
类 100
视 100
吧 100
局 100
土 100
位 100
着 100
须 100
军 100
只 100
职 100
罪 100
止 100
未 100
元 100
继 100
诉 100
٦ 100
– 100
适 100
布 100
评 100
٨ 100
뗄 100
量 100
٧ 100
息 100
备 100
额 100
育 100
î 100
â 100
影 100
草 100
步 100
导 100
选 100
料 100
示 100
庭 100
援 100
例 100
察 100
环 100
真 100
兰 100
承 100
响 100
器 100
派 100
把 100
球 100
防 100
许 100
照 100
努 100
让 100
研 100
队 100
海 100
纳 100
干 100
À 100
难 100
讨 100
打 100
南 100
话 100
识 100
品 100
易 100
— 100
获 100
官 100
订 100
} 100
五 100
考 100
罗 100
消 100
略 100
减 100
变 100
集 100
院 100
$ 100
训 100
刑 100
四 100
复 100
且 100
电 100
记 100
放 100
再 100
ù 100
每 100
手 100
述 100
œ 100
伊 100
限 100
格 100
ٰ 100
估 100
· 100
{ 100
病 100
致 100
东 100
感 100
财 100
便 100
失 100
º 100
完 100
流 100
究 100
贸 100
坦 100
直 100
德 100
序 100
场 100
塞 100
哥 100
士 100
造 100
死 100
宣 100
单 100
份 100
索 100
空 100
按 100
申 100
裁 100
编 100
充 100
益 100
判 100
存 100
怎 100
附 100
` 100
族 100
欧 100
警 100
架 100
谢 100
即 100
转 100
伙 100
太 100
质 100
虑 100
水 100
传 100
留 100
盟 100
够 100
排 100
Ж 100
范 100
率 100
室 100
边 100
快 100
负 100
价 100
啊 100
离 100
投 100
ï 100
培 100
候 100
Á 100
身 100
突 100
尽 100
Й 100
观 100
装 100
谈 100
威 100
今 100
六 100
首 100
暴 100
测 100
市 100
勒 100
修 100
走 100
住 100
欢 100
极 100
整 100
望 100
击 100
险 100
健 100
咨 100
近 100
几 100
临 100
色 100
担 100
形 100
瓦 100
容 100
待 100
希 100
气 100
卫 100
争 100
网 100
询 100
严 100
推 100
毒 100
危 100
始 100
歧 100
农 100
伴 100
移 100
补 100
愿 100
清 100
禁 100
付 100
框 100
恐 100
帮 100
命 100
否 100
仍 100
普 100
爱 100
诺 100
足 100
涉 100
听 100
带 100
控 100
艾 100
础 100
冲 100
男 100
拟 100
老 100
依 100
找 100
围 100
ꆣ 100
独 100
− 100
语 100
扩 100
万 100
势 100
己 100
跟 100
予 100
营 100
令 100
路 100
另 100
侵 100
顾 100
卡 100
批 100
班 100
伯 100
载 100
才 100
车 100
属 100
孩 100
群 100
占 100
贫 100
林 100
Ы 100
哪 100
Ç 100
优 100
低 100
医 100
称 100
障 100
又 100
著 100
头 100
录 100
拿 100
状 100
杀 100
疾 100
像 100
广 100
免 100
某 100
检 100
뫍 100
夫 100
@ 100
章 100
刚 100
般 100
ْ 100
图 100
鼓 100
验 100
赔 100
星 100
筹 100
捐 100
融 100
呢 100
妈 100
往 100
励 100
印 100
残 100
救 100
劳 100
滋 100
值 100
善 100
缺 100
宪 100
居 100
怖 100
赞 100
革 100
哈 100
享 100
众 100
积 100
迎 100
节 100
俄 100
맺 100
配 100
字 100
康 100
房 100
声 100
象 100
紧 100
尤 100
型 100
越 100
雷 100
托 100
引 100
满 100
督 100
风 100
私 100
均 100
食 100
洋 100
守 100
药 100
养 100
丹 100
介 100
密 100
试 100
显 100
№ 100
束 100
亲 100
签 100
针 100
驻 100
挑 100
模 100
创 100
“ 100
” 100
仅 100
富 100
习 100
写 100
觉 100
违 100
千 100
落 100
初 100
北 100
师 100
牙 100
萨 100
互 100
周 100
英 100
迪 100
苏 100
吁 100
遵 100
午 100
择 100
置 100
믡 100
散 100
绍 100
岛 100
白 100
损 100
素 100
终 100
米 100
吉 100
° 100
履 100
急 100
+ 100
呼 100
困 100
偿 100
错 100
邦 100
析 100
伤 100
层 100
♪ 100
厅 100
概 100
瑞 100
差 100
停 100
断 100
洛 100
黎 100
波 100
七 100
挥 100
讲 100
较 100
态 100
早 100
综 100
户 100
ª 100
登 100
绝 100
企 100
络 100
谁 100
随 100
森 100
贩 100
Ь 100
释 100
． 100
埃 100
_ 100
# 100
遭 100
校 100
塔 100
细 100
們 100
简 100
城 100
ﻵ 100
青 100
神 100
脑 100
乌 100
货 100
答 100
這 100
宗 100
稳 100
双 100
疗 100
线 100
速 100
爸 100
材 100
债 100
晚 100
尊 100
久 100
黑 100
念 100
底 100
坚 100
喜 100
票 100
鲁 100
古 100
粮 100
库 100
Ó 100
王 100
功 100
퓚 100
兴 100
沙 100
摩 100
钱 100
友 100
坛 100
旨 100
迫 100
八 100
飞 100
= 100
送 100
闻 100
远 100
精 100
深 100
倡 100
符 100
遍 100
银 100
购 100
碍 100
遇 100
叫 100
授 100
村 100
思 100
副 100
若 100
灾 100
延 100
弹 100
超 100
泛 100
婚 100
站 100
胁 100
穷 100
阶 100
降 100
ٍ 100
奥 100
拘 100
轻 100
母 100
访 100
虽 100
旅 100
福 100
岁 100
九 100
贝 100
火 100
似 100
罚 100
卢 100
튻 100
播 100
敦 100
酷 100
买 100
雇 100
破 100
亡 100
父 100
弱 100
输 100
伦 100
销 100
返 100
献 100
百 100
台 100
ꆢ 100
ë 100
余 100
纪 100
卖 100
肯 100
键 100
哦 100
姆 100
汇 100
遗 100
辩 100
历 100
麼 100
吃 100
连 100
尚 100
坏 100
假 100
渡 100
纲 100
征 100
背 100
乎 100
틩 100
染 100
详 100
帝 100
毁 100
退 100
探 100
％ 100
寻 100
张 100
圣 100
升 100
废 100
逐 100
景 100
召 100
亿 100
避 100
版 100
恢 100
透 100
贡 100
竞 100
曾 100
鉴 100
폐 100
途 100
换 100
捕 100
省 100
拥 100
良 100
客 100
죋 100
射 100
拜 100
個 100
衡 100
殖 100
石 100
疑 100
跨 100
朋 100
－ 100
乏 100
兵 100
麦 100
游 100
航 100
股 100
纽 100
剥 100
來 100
ٌ 100
遣 100
枪 100
半 100
ü 100
叙 100
册 100
乐 100
油 100
耳 100
课 100
丁 100
勤 100
追 100
吸 100
汗 100
朗 100
税 100
角 100
含 100
탐 100
船 100
莱 100
映 100
允 100
片 100
踪 100
绩 100
헢 100
山 100
替 100
徙 100
曼 100
典 100
蒙 100
玩 100
盖 100
败 100
炸 100
闭 100
& 100
陆 100
毛 100
沃 100
틔 100
靠 100
史 100
奇 100
狱 100
您 100
混 100
媒 100
풱 100
嫩 100
龄 100
컒 100
籍 100
쓪 100
阻 100
练 100
截 100
短 100
恩 100
麻 100
志 100
演 100
博 100
쫇 100
ퟷ 100
抱 100
厄 100
州 100
顿 100
端 100
撒 100
杂 100
瓜 100
隆 100
會 100
恶 100
灭 100
账 100
캪 100
却 100
嘿 100
迟 100
忍 100
固 100
削 100
邀 100
光 100
墨 100
뫏 100
佳 100
贴 100
掉 100
眼 100
菲 100
骤 100
爆 100
澳 100
殊 100
讼 100
쏇 100
荷 100
休 100
撤 100
辖 100
暂 100
斗 100
酒 100
储 100
潜 100
薪 100
沒 100
诸 100
忘 100
音 100
惩 100
磋 100
故 100
党 100
脱 100
异 100
词 100
歉 100
랢 100
贷 100
花 100
页 100
怕 100
虐 100
触 100
套 100
冷 100
趋 100
嗎 100
坐 100
压 100
耶 100
« 100
弃 100
永 100
味 100
» 100
拨 100
桑 100
赏 100
Í 100
智 100
莫 100
甚 100
腐 100
兹 100
宝 100
嗯 100
說 100
聘 100
弟 100
嘛 100
楼 100
幸 100
摊 100
污 100
热 100
借 100
拒 100
笑 100
既 100
朝 100
呀 100
谨 100
蛋 100
夺 100
泰 100
赛 100
뗚 100
Щ 100
圭 100
启 100
怀 100
孕 100
津 100
京 100
姐 100
旦 100
抗 100
馆 100
灵 100
归 100
솪 100
攻 100
径 100
廷 100
웤 100
招 100
楚 100
趣 100
蒂 100
랽 100
昂 100
血 100
押 100
杰 100
激 100
폚 100
辆 100
旺 100
훐 100
喝 100
啦 100
迅 100
램 100
惯 100
뻶 100
攸 100
售 100
抵 100
缓 100
늻 100
듳 100
맘 100
净 100
误 100
洗 100
讯 100
ö 100
距 100
谋 100
쇋 100
穿 100
微 100
酌 100
‫ 100
驱 100
튪 100
룶 100
唯 100
钟 100
红 100
뛔 100
颁 100
€ 100
华 100
為 100
阁 100
怪 100
ć 100
毕 100
温 100
毫 100
醒 100
赫 100
宾 100
苦 100
剧 100
뗘 100
挪 100
搞 100
뷸 100
袭 100
跑 100
妨 100
逮 100
鱼 100
币 100
露 100
쯹 100
缴 100
쫂 100
兄 100
丽 100
乱 100
扬 100
뚨 100
볒 100
读 100
轮 100
屿 100
祝 100
睡 100
操 100
礼 100
逃 100
裔 100
巨 100
译 100
舞 100
荒 100
鲜 100
È 100
燃 100
邮 100
弗 100
痛 100
脆 100
헾 100
倒 100
샭 100
韩 100
抓 100
쳡 100
敌 100
递 100
封 100
堡 100
皮 100
扰 100
央 100
衣 100
港 100
彻 100
刻 100
喀 100
函 100
烈 100
稿 100
훷 100
缩 100
慢 100
죕 100
仲 100
恤 100
翻 100
鬼 100
漠 100
돶 100
静 100
穆 100
ä 100
憾 100
赋 100
惠 100
玻 100
좫 100
幕 100
過 100
阐 100
忙 100
芬 100
滥 100
還 100
赖 100
퓂 100
뚯 100
循 100
仇 100
凯 100
ﻫ 100
筑 100
浦 100
笔 100
汶 100
租 100
幅 100
偷 100
镇 100
顺 100
뇭 100
떽 100
ã 100
贯 100
矿 100
码 100
棒 100
戈 100
帕 100
奖 100
벰 100
妻 100
兼 100
拖 100
돉 100
莉 100
贵 100
谅 100
弄 100
疯 100
玛 100
氯 100
隔 100
块 100
剂 100
狗 100
볊 100
볓 100
喂 100
娜 100
园 100
쳢 100
嗨 100
뺭 100
季 100
渔 100
・ 100
陈 100
噢 100
對 100
疆 100
摘 100
偏 100
Ъ 100
木 100
懂 100
룷 100
辱 100
座 100
杜 100
ﱠ 100
亮 100
ﻟ 100
掌 100
컊 100
卷 100
쿮 100
夜 100
樣 100
폃 100
邻 100
캯 100
冰 100
街 100
ퟩ 100
햹 100
岸 100
河 100
낸 100
餐 100
徒 100
庇 100
植 100
迈 100
软 100
伐 100
捷 100
韦 100
낲 100
쯻 100
沿 100
陷 100
葡 100
훘 100
帐 100
宜 100
梅 100
늢 100
板 100
쓜 100
嘴 100
耗 100
폫 100
悉 100
솦 100
荣 100
店 100
쏦 100
敢 100
릤 100
聚 100
氧 100
缅 100
時 100
孟 100
仰 100
烦 100
甸 100
盘 100
跳 100
累 100
姻 100
萄 100
香 100
붫 100
킩 100
艺 100
宁 100
零 100
句 100
샻 100
洁 100
泊 100
惊 100
酬 100
乔 100
藏 100
醉 100
짺 100
좨 100
涵 100
辅 100
拍 100
雅 100
敏 100
赶 100
侧 100
床 100
阅 100
迄 100
杯 100
堂 100
丝 100
囚 100
剩 100
쳘 100
늿 100
佛 100
쏱 100
频 100
践 100
松 100
腊 100
档 100
址 100
翰 100
诚 100
쒿 100
럖 100
춬 100
戏 100
糟 100
茨 100
妹 100
甲 100
欠 100
阵 100
陪 100
믺 100
놨 100
颠 100
屋 100
豁 100
 100
扎 100
奸 100
뿉 100
쪱 100
컱 100
患 100
맽 100
쮹 100
圆 100
펦 100
箱 100
彼 100
锁 100
默 100
谴 100
훆 100
梦 100
㈠ 100
歌 100
뎤 100
熟 100
桌 100
柬 100
淫 100
 100
開 100
㈡ 100
碳 100
握 100
役 100
倍 100
듺 100
臭 100
覆 100
野 100
漂 100
裡 100
丧 100
퇇 100
● 100
點 100
戴 100
脚 100
烟 100
裂 100
澄 100
丈 100
症 100
욽 100
坡 100
割 100
給 100
寨 100
饭 100
吓 100
풼 100
巩 100
厂 100
埔 100
쪵 100
赢 100
画 100
現 100
짏 100
럇 100
树 100
昨 100
迁 100
Ñ 100
胡 100
娘 100
쟸 100
룦 100
填 100
죎 100
룃 100
饮 100
铁 100
谓 100
饿 100
伍 100
诊 100
疫 100
搜 100
奶 100
扫 100
莎 100
ꆶ 100
胜 100
쫩 100
迹 100
ꆷ 100
돖 100
宽 100
妮 100
舍 100
嫌 100
暗 100
婴 100
绑 100
摆 100
旧 100
扣 100
辛 100
匈 100
盗 100
旱 100
횯 100
折 100
凡 100
릫 100
틢 100
赤 100
繁 100
赠 100
猜 100
辞 100
牛 100
孤 100
탔 100
右 100
奴 100
뛸 100
叛 100
쿖 100
洪 100
훖 100
삭 100
苯 100
左 100
浪 100
恨 100
氟 100
览 100
唱 100
웚 100
乍 100
뇰 100
巡 100
骗 100
偶 100
쓚 100
~ 100
隐 100
姓 100
쪹 100
逻 100
缘 100
살 100
碰 100
讓 100
킭 100
짧 100
붨 100
骚 100
汞 100
‏ 100
脸 100
後 100
놣 100
別 100
훺 100
뛠 100
秩 100
肉 100
链 100
놾 100
汉 100
纸 100
陶 100
沉 100
謝 100
뗃 100
忽 100
烧 100
狂 100
佩 100
胎 100
盲 100
欣 100
魔 100
劫 100
齐 100
볤 100
乡 100
恰 100
돌 100
춨 100
绿 100
纠 100
旋 100
솢 100
刊 100
阳 100
刺 100
汽 100
墙 100
谷 100
忆 100
抽 100
Ú 100
倾 100
搬 100
믹 100
迷 100
董 100
尸 100
辑 100
叔 100
Ã 100
描 100
挂 100
轨 100
募 100
쿂 100
龙 100
좡 100
碎 100
컄 100
恋 100
俗 100
抢 100
欺 100
扶 100
渐 100
헽 100
쯼 100
듋 100
竟 100
卜 100
侦 100
挺 100
幼 100
汤 100
悲 100
聊 100
钻 100
뢮 100
妥 100
犹 100
쏘 100
震 100
Ê 100
琌 100
滚 100
ﱢ 100
夏 100
퇔 100
霍 100
횮 100
敬 100
屁 100
폲 100
呃 100
删 100
牌 100
炮 100
佣 100
戒 100
췅 100
• 100
§ 100
틲 100
뾪 100
傻 100
話 100
振 100
袋 100
릹 100
贺 100
宛 100
末 100
뫳 100
婆 100
횧 100
Î 100
牢 100
誉 100
š 100
뒦 100
兒 100
沟 100
릩 100
吨 100
糕 100
冻 100
볆 100
宏 100
贾 100
驳 100
饥 100
떱 100
披 100
摄 100
酋 100
ퟮ 100
잰 100
俩 100
듎 100
丰 100
牵 100
盛 100
丢 100
雨 100
曲 100
斥 100
탂 100
틑 100
횴 100
쏀 100
쏷 100
盾 100
溴 100
죏 100
仪 100
仔 100
铭 100
뇘 100
뻍 100
虫 100
妳 100
릲 100
亦 100
牧 100
볾 100
皇 100
柱 100
顶 100
탸 100
呆 100
見 100
ퟔ 100
冒 100
쇬 100
맦 100
췢 100
볃 100
厌 100
쳵 100
祖 100
뗷 100
湖 100
黄 100
瑟 100
 100
蠢 100
咱 100
渠 100
寄 100
ꎬ 100
쳥 100
庄 100
脏 100
ﺎ 100
庆 100
當 100
遥 100
奉 100
誓 100
蓝 100
‎ 100
잿 100
湾 100
쟩 100
谎 100
평 100
巧 100
 100
啡 100
睛 100
浓 100
忧 100
厉 100
믮 100
뿶 100
ぃ 100
咖 100
勇 100
蓄 100
짳 100
냍 100
隶 100
刀 100
哇 100
å 100
뮯 100
發 100
喔 100
좷 100
훞 100
經 100
聽 100
믲 100
뷰 100
죧 100
㈢ 100
鸡 100
쿈 100
瞧 100
李 100
該 100
艰 100
뷢 100
媽 100
啥 100
맜 100
雪 100
쾵 100
尝 100
坪 100
雄 100
诈 100
ø 100
疟 100
¶ 100
뫋 100
쫀 100
斐 100
뷧 100
虚 100
硬 100
탨 100
č 100
绕 100
爷 100
宿 100
뛈 100
撰 100
쿲 100
얮 100
契 100
뫅 100
æ 100
灯 100
乘 100
拆 100
姑 100
袖 100
쪩 100
႖ 100
쫜 100
쫽 100
凶 100
愛 100
틥 100
液 100
慎 100
骨 100
券 100
ﺍ 100
赌 100
伟 100
춳 100
枚 100
乳 100
酸 100
窗 100
润 100
弥 100
呈 100
阴 100
쾯 100
凭 100
쟳 100
뿋 100
ꆰ 100
尾 100
腿 100
奋 100
驾 100
쇐 100
田 100
냼 100
菜 100
싛 100
哭 100
纯 100
镜 100
池 100
撞 100
鸟 100
짨 100
稍 100
旁 100
蓬 100
廉 100
逼 100
튲 100
洞 100
覺 100
ß 100
赦 100
琳 100
珍 100
從 100
伪 100
绳 100
牲 100
扭 100
問 100
뷡 100
뻝 100
宫 100
ﺑ 100
뮹 100
舒 100
薄 100
甜 100
滑 100
逆 100
麽 100
탅 100
튵 100
箭 100
刷 100
忠 100
쪮 100
插 100
삨 100
糖 100
携 100
冈 100
朱 100
닉 100
漏 100
커 100
룼 100
룟 100
좻 100
晤 100
俱 100
勃 100
伸 100
挝 100
룄 100
抚 100
捍 100
聪 100
搭 100
堆 100
듯 100
뛎 100
탫 100
煽 100
뛻 100
닝 100
爵 100
뮮 100
럑 100
닩 100
郎 100
洽 100
秒 100
彩 100
兑 100
 100
풤 100
泽 100
間 100
뻼 100
妙 100
癌 100
躲 100
吻 100
얬 100
辐 100
죫 100
횸 100
맻 100
荡 100
쓡 100
县 100
헟 100
尺 100
吹 100
鹿 100
떫 100
無 100
듙 100
旗 100
쟫 100
냬 100
勘 100
诞 100
峰 100
寿 100
祉 100
埋 100
笨 100
퓲 100
桥 100
´ 100
뇪 100
壁 100
臣 100
粉 100
뢾 100
룹 100
堕 100
錯 100
ꆱ 100
摧 100
圈 100
烷 100
漫 100
宇 100
猎 100
誰 100
壤 100
訴 100
車 100
扔 100
舰 100
― 100
惧 100
國 100
硂 100
掩 100
坎 100
慈 100
匹 100
添 100
妓 100
春 100
惨 100
長 100
屠 100
糊 100
뎣 100
吵 100
爾 100
瓶 100
풴 100
쮵 100
듓 100
Å 100
魂 100
進 100
컷 100
柏 100
篇 100
胀 100
뗀 100
劣 100
Τ 100
種 100
匙 100
劲 100
栏 100
뇈 100
캬 100
骑 100
幫 100
솽 100
逊 100
氛 100
鞋 100
豪 100
猫 100
驶 100
烂 100
웷 100
械 100
電 100
赚 100
鼠 100
훁 100
秀 100
歡 100
纵 100
뻖 100
奈 100
捞 100
惜 100
仓 100
햽 100
풭 100
羁 100
動 100
컞 100
肥 100
쪽 100
欲 100
Ï 100
ힼ 100
艘 100
 100
풪 100
佐 100
岗 100
圾 100
井 100
垃 100
 100
苗 100
應 100
慰 100
横 100
붻 100
힢 100
볌 100
罕 100
닺 100
怜 100
뺳 100
認 100
關 100
磨 100
實 100
機 100
辜 100
钩 100
颗 100
頭 100
挖 100
낢 100
尿 100
僵 100
舶 100
닎 100
绪 100
Ќ 100
뻙 100
殺 100
퓶 100
^ 100
叠 100
ퟜ 100
梯 100
킧 100
珊 100
辈 100
請 100
胆 100
Ё 100
棉 100
诱 100
蜜 100
쿠 100
敲 100
裏 100
钥 100
「 100
뚼 100
舌 100
쟐 100
Ö 100
놻 100
罢 100
膨 100
淡 100
퇹 100
奠 100
ò 100
涨 100
跃 100
窃 100
 100
ο 100
東 100
灰 100
ѕ 100
焦 100
乖 100
뷬 100
뫎 100
∙ 100
親 100
탄 100
祸 100
幻 100
帶 100
猪 100
Š 100
丑 100
陀 100
唐 100
詹 100
亨 100
叶 100
」 100
於 100
御 100
愈 100
悬 100
铀 100
肤 100
샯 100
缉 100
遏 100
쏻 100
摇 100
 100
甄 100
嫁 100
¬ 100
痴 100
馬 100
죽 100
馈 100
泡 100
學 100
쎻 100
闹 100
쯣 100
摸 100
暖 100
湿 100
纷 100
拯 100
揭 100
폯 100
醚 100
몣 100
뿚 100
늽 100
柯 100
尉 100
틁 100
挤 100
쫰 100
屎 100
룸 100
粗 100
扮 100
耐 100
놸 100
훎 100
兩 100
矛 100
掘 100
拳 100
횹 100
幹 100
랴 100
裤 100
㈣ 100
뛾 100
쪾 100
宅 100
竭 100
畜 100
茶 100
闪 100
첹 100
乙 100
滴 100
췻 100
寓 100
뻟 100
記 100
뷌 100
喷 100
뛮 100
赁 100
淘 100
듫 100
벶 100
鲍 100
仿 100
∀ 100
潮 100
Ô 100
揽 100
羊 100
錢 100
叉 100
돽 100
ð 100
畴 100
粹 100
厨 100
ì 100
牺 100
짌 100
葬 100
삼 100
ƒ 100
碑 100
샠 100
衰 100
닟 100
猛 100
扯 100
绘 100
퓰 100
兽 100
컯 100
硫 100
］ 100
貌 100
뗈 100
뷱 100
甘 100
疼 100
퓋 100
Ä 100
짙 100
泥 100
尖 100
塑 100
［ 100
 100
娃 100
 100
惹 100
纂 100
십 100
뗣 100
虎 100
볻 100
ž 100
胸 100
饼 100
垒 100
催 100
祷 100
쓇 100
돐 100
닃 100
艇 100
떼 100
Â 100
胞 100
灌 100
抛 100
砸 100
谐 100
崇 100
늼 100
砍 100
轰 100
‘ 100
뛓 100
탭 100
킡 100
怒 100
욷 100
哎 100
컥 100
톧 100
愚 100
仁 100
캻 100
闲 100
云 100
許 100
汰 100
帽 100
벼 100
恭 100
娩 100
쾣 100
쓑 100
́ 100
죻 100
캴 100
歇 100
羞 100
õ 100
훂 100
盈 100
宙 100
離 100
쓏 100
ﻴ 100
쫓 100
웰 100
殴 100
陛 100
凌 100
ꆤ 100
뿆 100
铺 100
辨 100
伏 100
싉 100
舱 100
钢 100
쿬 100
翼 100
傲 100
蔓 100
秋 100
熊 100
潘 100
쏅 100
뷓 100
祈 100
邊 100
拔 100
琴 100
싞 100
벫 100
Ý 100
娱 100
─ 100
衷 100
呵 100
ﺮ 100
얷 100
Ü 100
쫵 100
冠 100
춥 100
愉 100
邪 100
孔 100
踢 100
怨 100
慕 100
ќ 100
狼 100
題 100
풮 100
펰 100
ㄓ 100
铲 100
晨 100
帅 100
挡 100
贪 100
달 100
渴 100
췁 100
唤 100
爬 100
峻 100
돤 100
疏 100
ﻣ 100
쟒 100
耻 100
쇏 100
뿮 100
샕 100
厘 100
浮 100
뚩 100
慨 100
盐 100
 100
쟲 100
횰 100
結 100
肩 100
肺 100
에 100
룐 100
뮤 100
珠 100
昆 100
톡 100
殿 100
쏋 100
滞 100
君 100
悔 100
豆 100
肇 100
孙 100
镑 100
춯 100
횤 100
逾 100
뢴 100
첸 100
菌 100
춻 100
盒 100
奏 100
퓬 100
侣 100
벴 100
變 100
擦 100
拾 100
將 100
躺 100
堪 100
吐 100
诗 100
醫 100
璶 100
咬 100
럾 100
锡 100
 100
ћ 100
ퟓ 100
場 100
쫊 100
² 100
婊 100
廊 100
抑 100
冬 100
泄 100
뛹 100
斡 100
쳖 100
墓 100
룧 100
耕 100
黛 100
浴 100
懈 100
剑 100
纹 100
踏 100
Δ 100
撑 100
뮷 100
氣 100
Þ 100
厕 100
寸 100
晓 100
氏 100
盯 100
難 100
崩 100
琼 100
朵 100
鼻 100
荐 100
巫 100
胶 100
晋 100
哨 100
쫕 100
慷 100
爽 100
桶 100
탻 100
娅 100
샽 100
ﻮ 100
談 100
壮 100
ﾇ 100
啤 100
쿞 100
맛 100
뎡 100
즫 100
벯 100
椅 100
쿻 100
룯 100
胖 100
葛 100
窟 100
剛 100
辦 100
咪 100
복 100
ﻳ 100
痕 100
Ì 100
卓 100
泳 100
確 100
耍 100
∮ 100
拓 100
辍 100
뇣 100
蛮 100
跌 100
ퟥ 100
脉 100
丙 100
뾼 100
磁 100
惑 100
ퟅ 100
涂 100
柴 100
쮾 100
喊 100
뇤 100
厚 100
穦 100
贿 100
뚫 100
랸 100
幾 100
Η 100
ﺃ 100
헹 100
퇏 100
處 100
乃 100
ﺪ 100
Ø 100
췪 100
拦 100
氢 100
卸 100
員 100
샗 100
뺡 100
嘉 100
헕 100
쓉 100
勾 100
總 100
寺 100
릻 100
펢 100
炎 100
抬 100
肚 100
晰 100
쎿 100
拼 100
寡 100
捉 100
忌 100
矩 100
쫗 100
門 100
믱 100
斤 100
³ 100
몦 100
凝 100
罐 100
ﻨ 100
烃 100
돥 100
죔 100
蕾 100
稱 100
玉 100
폽 100
壳 100
吞 100
솿 100
贱 100
캣 100
Є 100
럝 100
럀 100
삩 100
啸 100
稀 100
뷼 100
弧 100
瑙 100
© 100
풸 100
汲 100
틗 100
咒 100
쳬 100
炼 100
侨 100
쫆 100
ﻧ 100
닆 100
볠 100
計 100
¨ 100
Φ 100
礁 100
吊 100
뫜 100
내 100
試 100
颜 100
틦 100
⊿ 100
벸 100
夸 100
愤 100
備 100
蜂 100
磺 100
庞 100
侮 100
剪 100
佬 100
亏 100
蛇 100
拐 100
싇 100
퇐 100
烤 100
梁 100
弊 100
番 100
Æ 100
滩 100
瞒 100
哀 100
퓞 100
戰 100
饰 100
ぐ 100
逗 100
췾 100
碞 100
좥 100
ı 100
듦 100
 100
| 100
‬ 100
稣 100
澡 100
柜 100
헻 100
뇠 100
芝 100
뢽 100
ퟶ 100
㈤ 100
鸦 100
闯 100
爹 100
횻 100
쯄 100
움 100
瘾 100
훊 100
믘 100
杆 100
笼 100
헂 100
川 100
룉 100
肃 100
ÿ 100
夠 100
맙 100
骄 100
胺 100
쪼 100
¤ 100
趴 100
볛 100
尘 100
挠 100
룱 100
摔 100
卧 100
溃 100
铅 100
慧 100
ퟯ 100
ý 100
準 100
約 100
腹 100
師 100
 100
掠 100
羅 100
睹 100
姨 100
Ѕ 100
뷻 100
炉 100
煤 100
昏 100
鸿 100
睦 100
體 100
腔 100
夹 100
통 100
뒡 100
傷 100
窝 100
擅 100
Û 100
업 100
涅 100
樂 100
Ð 100
搁 100
ј 100
報 100
恒 100
杉 100
缝 100
蚀 100
眠 100
筛 100
Ë 100
횪 100
谱 100
瑚 100
挣 100
哲 100
遠 100
쪶 100
臂 100
俘 100
짪 100
쇷 100
丘 100
瞎 100
탲 100
狄 100
奎 100
谊 100
芭 100
퇳 100
쎳 100
肖 100
擎 100
兆 100
쫶 100
肢 100
Õ 100
肠 100
ﻤ 100
ﺘ 100
颇 100
억 100
珀 100
栋 100
呐 100
渗 100
屈 100
岩 100
恕 100
ﻲ 100
劝 100
挽 100
萬 100
讶 100
囊 100
隊 100
뢶 100
뚾 100
匿 100
饱 100
¹ 100
挫 100
蜡 100
횱 100
佑 100
奔 100
쪧 100
粒 100
宰 100
싔 100
璃 100
肆 100
萝 100
뗞 100
翁 100
亞 100
並 100
亟 100
뺿 100
뗂 100
랶 100
號 100
娶 100
싊 100
춶 100
卑 100
顷 100
狭 100
뫃 100
믽 100
證 100
펭 100
柔 100
琪 100
볇 100
엉 100
쇙 100
퓘 100
ﻭ 100
ﻠ 100
決 100
幽 100
哺 100
興 100
識 100
辣 100
焚 100
β 100
仙 100
罩 100
宋 100
뾴 100
쮮 100
þ 100
颈 100
뮶 100
谤 100
쿫 100
Ò 100
須 100
丛 100
硕 100
槍 100
棍 100
兔 100
妞 100
뇟 100
슷 100
薇 100
耀 100
쯷 100
 100
內 100
떥 100
慌 100
뢺 100
峡 100
£ 100
泉 100
狠 100
赂 100
胃 100
볡 100
衔 100
骂 100
汀 100
聲 100
퓙 100
溯 100
雾 100
江 100
맀 100
疲 100
诽 100
췟 100
늮 100
趁 100
脂 100
飓 100
仗 100
럱 100
巾 100
趟 100
쿜 100
웕 100
○ 100
陌 100
裸 100
贼 100
挨 100
ﺗ 100
Ù 100
齿 100
肝 100
旬 100
買 100
坠 100
嘘 100
볜 100
淋 100
 100
軍 100
姬 100
ﱡ 100
 100
쿳 100
榜 100
猴 100
풺 100
붡 100
纤 100
铃 100
냑 100
ş 100
퇀 100
瞄 100
姿 100
谍 100
匪 100
單 100
鹰 100
뒫 100
垄 100
떣 100
膀 100
퇩 100
矶 100
狮 100
폨 100
渥 100
탞 100
達 100
腾 100
溉 100
溜 100
屏 100
涌 100
衅 100
 100
늨 100
惕 100
贬 100
酱 100
蘭 100
舆 100
□ 100
닢 100
캧 100
 100
篮 100
桃 100
Č 100
٬ 100
讽 100
榴 100
慑 100
펡 100
뷶 100
¸ 100
ﺭ 100
護 100
選 100
阔 100
皆 100
寒 100
畏 100
쇮 100
뷴 100
笵 100
뮰 100
衫 100
™ 100
럅 100
냠 100
쏼 100
脊 100
泪 100
橡 100
坑 100
¯ 100
悼 100
 100
堵 100
運 100
汁 100
侯 100
鲸 100
﻿ 100
啰 100
崔 100
與 100
폵 100
탎 100
條 100
甩 100
锋 100
俊 100
戮 100
腺 100
맋 100
뺯 100
裙 100
햼 100
寫 100
勋 100
產 100
­ 100
飛 100
妆 100
裝 100
ﺔ 100
漆 100
楷 100
＊ 100
串 100
眔 100
喉 100
짦 100
晕 100
ꎻ 100
茜 100
쇭 100
폈 100
裕 100
扇 100
宴 100
 100
탌 100
 100
쪿 100
缠 100
죝 100
妒 100
헦 100
 100
맣 100
즢 100
顽 100
垫 100
磅 100
톯 100
筁 100
脖 100
蹈 100
張 100
郊 100
寶 100
훚 100
蒸 100
筒 100
ﻦ 100
浅 100
췲 100
쫸 100
癸 100
욱 100
唔 100
컈 100
轴 100
溶 100
赎 100
夕 100
擊 100
췆 100
毯 100
룅 100
٪ 100
뻨 100
郁 100
肿 100
蔑 100
逝 100
貝 100
龟 100
ﻌ 100
揍 100
侠 100
쫖 100
뾨 100
魏 100
紫 100
∗ 100
쫐 100
뗧 100
ā 100
ﻥ 100
枢 100
▪ 100
쿔 100
撕 100
싺 100
쇴 100
 100
짭 100
哟 100
뛀 100
維 100
盆 100
涕 100
弯 100
烯 100
擔 100
腰 100
볍 100
歪 100
뛭 100
铜 100
肌 100
刘 100
霸 100
磷 100
毙 100
삧 100
ﻋ 100
／ 100
緊 100
逍 100
짮 100
扼 100
衬 100
畅 100
霉 100
術 100
⑴ 100
辟 100
맅 100
횵 100
膝 100
폅 100
듲 100
強 100
슼 100
伞 100
Ž 100
죸 100
믷 100
谬 100
犬 100
잩 100
鲨 100
溢 100
凉 100
瘤 100
篷 100
ퟰ 100
芙 100
簿 100
赴 100
藉 100
耽 100
丸 100
ힰ 100
纺 100
죃 100
願 100
ㄆ 100
絕 100
컀 100
嗣 100
맄 100
쾢 100
匮 100
續 100
 100
钉 100
钦 100
틀 100
♫ 100
拷 100
㈥ 100
쟥 100
芒 100
沮 100
뿲 100
咯 100
ퟣ 100
튩 100
췹 100
藤 100
듽 100
魁 100
쒳 100
钮 100
맾 100
辰 100
풽 100
僚 100
춼 100
ﺳ 100
킻 100
뿘 100
瞻 100
믓 100
늹 100
뫴 100
쓮 100
Β 100
ﻘ 100
럲 100
垂 100
猩 100
仆 100
돯 100
쏢 100
壞 100
쓢 100
샫 100
떺 100
禮 100
沾 100
엤 100
涯 100
書 100
戚 100
엠 100
麗 100
蔚 100
赐 100
濒 100
伽 100
妖 100
風 100
짹 100
晶 100
哼 100
粟 100
棘 100
裹 100
膜 100
盔 100
饶 100
蚊 100
抹 100
宠 100
論 100
첬 100
욶 100
 100
賽 100
杠 100
枯 100
컚 100
繼 100
數 100
凿 100
ğ 100
뮥 100
웧 100
祥 100
냣 100
炭 100
 100
짋 100
嘲 100
盼 100
嫉 100
悖 100
恼 100
妊 100
煮 100
쟖 100
衍 100
ネ 100
벪 100
娠 100
靜 100
钓 100
룙 100
雕 100
罂 100
況 100
쳴 100
沦 100
悠 100
旷 100
炒 100
√ 100
슬 100
踩 100
쫘 100
扂 100
鐘 100
陵 100
愧 100
遮 100
渣 100
業 100
엺 100
瘋 100
鄙 100
毗 100
視 100
铐 100
連 100
탍 100
輕 100
疹 100
悄 100
朴 100
놱 100
眉 100
講 100
酚 100
務 100
闷 100
酗 100
ﻞ 100
 100
샸 100
跪 100
탋 100
ퟱ 100
議 100
稻 100
ﻓ 100
Ŷ 100
짆 100
捡 100
倦 100
놩 100
诅 100
尬 100
릦 100
醇 100
穴 100
線 100
폖 100
抄 100
隨 100
碗 100
傢 100
聯 100
係 100
펪 100
킲 100
헏 100
첫 100
莲 100
뺫 100
遂 100
豹 100
喘 100
歲 100
훕 100
卻 100
좱 100
險 100
遴 100
費 100
轉 100
淹 100
뻸 100
쫔 100
얩 100
ė 100
듸 100
ﻬ 100
뷷 100
刮 100
쿕 100
ﺒ 100
샺 100
鞭 100
妄 100
랺 100
쫴 100
斑 100
恪 100
舅 100
睁 100
Ћ 100
쓣 100
痷 100
禽 100
矫 100
쿗 100
닅 100
饲 100
滿 100
 100
亵 100
浩 100
螺 100
兜 100
聋 100
枝 100
뷗 100
簡 100
腦 100
煩 100
ힴ 100
厦 100
槛 100
ﻛ 100
뷚 100
調 100
苹 100
渎 100
虾 100
矮 100
盡 100
夷 100
≈ 100
쯙 100
α 100
棋 100
郡 100
驴 100
統 100
阱 100
 100
蛛 100
ھ 100
뛏 100
寂 100
咎 100
彈 100
쏜 100
區 100
웈 100
뫲 100
茄 100
傳 100
锐 100
語 100
瘦 100
蔽 100
祭 100
 100
믖 100
熬 100
類 100
薯 100
쒣 100
ﻪ 100
桩 100
벱 100
坟 100
搅 100
鹅 100
匠 100
坝 100
庸 100
彰 100
逛 100
틽 100
滨 100
퇸 100
훜 100
茅 100
뻓 100
ﺴ 100
參 100
骸 100
咋 100
뿕 100
냂 100
� 100
瑰 100
玫 100
唇 100
뒴 100
컅 100
翅 100
義 100
秨 100
脾 100
냮 100
尴 100
橄 100
缆 100
皂 100
쯟 100
栖 100
蔬 100
琵 100
μ 100
藥 100
酪 100
肮 100
뷩 100
挚 100
魅 100
酮 100
納 100
倚 100
죚 100
杨 100
恳 100
즱 100
뻃 100
ﻜ 100
飘 100
唉 100
翴 100
扁 100
쓔 100
냯 100
浑 100
낣 100
粘 100
掷 100
飯 100
喻 100
〇 100
驰 100
斜 100
節 100
豫 100
肾 100
捣 100
瞬 100
塌 100
粪 100
洒 100
傑 100
ă 100
窄 100
瘫 100
쮫 100
ń 100
棕 100
벺 100
쇖 100
贮 100
賣 100
诀 100
懦 100
赡 100
榄 100
ﺬ 100
诫 100
릱 100
짜 100
圖 100
힡 100
쎴 100
侍 100
뇧 100
〉 100
뇩 100
浆 100
沫 100
哩 100
傅 100
싄 100
剖 100
匀 100
쯘 100
锅 100
췸 100
乾 100
噩 100
뎫 100
Ν 100
爭 100
扑 100
終 100
싥 100
唆 100
짱 100
驯 100
뷏 100
乞 100
ﺩ 100
畫 100
〈 100
ﺣ 100
횼 100
茱 100
隧 100
趕 100
懒 100
룕 100
 100
吴 100
ぱ 100
늡 100
蟿 100
奧 100
⑵ 100
滤 100
ퟖ 100
泵 100
淆 100
換 100
宵 100
■ 100
鸣 100
碱 100
萊 100
痹 100
渊 100
徽 100
ﻢ 100
萘 100
夥 100
託 100
瞷 100
 100
႗ 100
퇓 100
蹲 100
諾 100
뢻 100
瑪 100
侄 100
資 100
诡 100
뗏 100
좺 100
浸 100
辉 100
틆 100
膳 100
瘘 100
討 100
屡 100
Ć 100
믙 100
癬 100
棵 100
蜘 100
閉 100
聖 100
惡 100
쯾 100
쯤 100
晃 100
塊 100
ꎭ 100
邓 100
戲 100
谣 100
夢 100
筋 100
頓 100
ﻚ 100
抖 100
棚 100
凑 100
춷 100
쾸 100
氮 100
斕 100
岌 100
헙 100
沼 100
Ζ 100
倫 100
狙 100
槟 100
쏗 100
춣 100
쯀 100
캥 100
碧 100
웆 100
쿭 100
搏 100
돵 100
凸 100
組 100
洄 100
姊 100
샏 100
責 100
쯽 100
슳 100
陋 100
苍 100
斟 100
뢱 100
悟 100
쇹 100
쫍 100
疤 100
痪 100
돆 100
１ 100
랷 100
煎 100
丫 100
붲 100
冤 100
엢 100
斷 100
㎝ 100
냩 100
嘱 100
叹 100
 100
領 100
뿖 100
뾵 100
阀 100
 100
 100
뗍 100
噪 100
逢 100
敞 100
監 100
냦 100
槽 100
郑 100
彭 100
腥 100
쮽 100
믯 100
垮 100
쫒 100
悦 100
蛤 100
뫚 100
Œ 100
獨 100
卵 100
ퟚ 100
샤 100
臉 100
쯦 100
췐 100
쟮 100
쏰 100
볬 100
ﻗ 100
胳 100
吼 100
纬 100
藐 100
뻹 100
熱 100
權 100
捏 100
暑 100
堤 100
낭 100
稽 100
亂 100
죶 100
펳 100
谜 100
볲 100
柳 100
​ 100
 100
 100
據 100
퓢 100
쿺 100
잧 100
쓐 100
腳 100
卿 100
憎 100
膊 100
샨 100
狩 100
迭 100
勉 100
﹣ 100
麥 100
袜 100
ﺤ 100
巢 100
쯰 100
爪 100
氨 100
缮 100
～ 100
뮵 100
標 100
帜 100
튽 100
烫 100
絲 100
樓 100
華 100
咸 100
價 100
튮 100
紅 100
雀 100
焰 100
헫 100
훃 100
㈦ 100
럻 100
坞 100
 100
羽 100
뗗 100
翠 100
钚 100
쯕 100
蝠 100
碟 100
冗 100
죴 100
團 100
靈 100
導 100
匆 100
顧 100
莓 100
狐 100
腕 100
攀 100
厢 100
ﺟ 100
譬 100
鸭 100
琐 100
儒 100
懷 100
帆 100
쪳 100
웸 100
ﺖ 100
퓖 100
슽 100
復 100
풶 100
驗 100
만 100
ρ 100
唬 100
뛘 100
죰 100
顯 100
ﾊ 100
쪷 100
绵 100
 100
缸 100
凱 100
ŷ 100
낮 100
極 100
ﾑ 100
級 100
蝶 100
ㄛ 100
歷 100
퓧 100
틅 100
蝙 100
绅 100
砖 100
咳 100
瞭 100
崎 100
떤 100
吕 100
騙 100
錄 100
侪 100
뫵 100
컶 100
钞 100
췺 100
酯 100
習 100
첳 100
釋 100
샍 100
隻 100
닀 100
贞 100
喬 100
泣 100
쯆 100
贏 100
× 100
茂 100
뻈 100
蕉 100
췵 100
芳 100
驚 100
負 100
恫 100
뎥 100
翔 100
則 100
 100
솸 100
ǐ 100
哑 100
劃 100
泻 100
췶 100
靴 100
뇜 100
웳 100
獄 100
│ 100
쪲 100
ꎺ 100
吾 100
锥 100
疚 100
勝 100
쳼 100
퓱 100
즳 100
摒 100
닄 100
衛 100
庙 100
咙 100
ퟛ 100
훨 100
觀 100
본 100
믵 100
릺 100
镖 100
菊 100
痒 100
ㄇ 100
檢 100
棄 100
寞 100
Ⴀ 100
逸 100
̓ 100
햮 100
킴 100
뚽 100
뿬 100
蚁 100
뚷 100
烛 100
呕 100
짐 100
練 100
贤 100
 100
晒 100
퓸 100
诋 100
惟 100
떯 100
脫 100
茫 100
碼 100
窥 100
膏 100
Ş 100
貨 100
奢 100
뫢 100
銀 100
뿢 100
뛋 100
勿 100
『 100
铝 100
坯 100
蝴 100
擇 100
』 100
紀 100
랿 100
绞 100
략 100
魚 100
І 100
椒 100
뛺 100
厭 100
癖 100
硝 100
倆 100
【 100
폠 100
窒 100
】 100
霜 100
驼 100
み 100
ϑ 100
枕 100
萎 100
쫚 100
뎵 100
쟡 100
繫 100
昭 100
魯 100
設 100
酿 100
遊 100
躁 100
纱 100
毀 100
杖 100
舟 100
喇 100
ﻔ 100
﹚ 100
竹 100
놴 100
棺 100
쓃 100
τ 100
砰 100
틉 100
滕 100
勞 100
隘 100
捆 100
扳 100
킽 100
昧 100
養 100
缚 100
± 100
喽 100
蟽 100
ノ 100
 100
힣 100
焊 100
い 100
┮ 100
睫 100
淇 100
爺 100
規 100
聞 100
烹 100
幢 100
狡 100
讀 100
薩 100
죵 100
倘 100
萧 100
嚇 100
仑 100
늶 100
‒ 100
趾 100
職 100
姜 100
뮻 100
聆 100
秉 100
헅 100
솷 100
ﺠ 100
톸 100
適 100
礛 100
춸 100
坊 100
＋ 100
舔 100
寇 100
锦 100
專 100
듥 100
矢 100
퓊 100
헷 100
燕 100
も 100
퓓 100
횳 100
锻 100
ǎ 100
滾 100
뎬 100
볼 100
锯 100
쒦 100
蟻 100
窍 100
氓 100
壓 100
ㄠ 100
 100
닮 100
쾰 100
茎 100
喃 100
닣 100
酰 100
泼 100
퇯 100
쫤 100
漢 100
叭 100
曝 100
僅 100
뎯 100
饵 100
뛙 100
톰 100
〕 100
량 100
醋 100
 100
梭 100
髓 100
館 100
謊 100
쳽 100
 100
뛉 100
蝇 100
笛 100
웟 100
듰 100
탒 100
ゴ 100
苛 100
狸 100
쿟 100
丟 100
芯 100
蛙 100
虹 100
祇 100
炫 100
ﺇ 100
獗 100
岆 100
剔 100
肪 100
웺 100
び 100
ό 100
弓 100
＃ 100
順 100
쪥 100
钴 100
쒷 100
熔 100
隙 100
孽 100
園 100
 100
猖 100
ퟨ 100
훰 100
싃 100
赣 100
熄 100
뢣 100
舉 100
잲 100
弦 100
歹 100
梳 100
逞 100
秃 100
죙 100
劇 100
냋 100
栽 100
凤 100
藝 100
ﾚ 100
뻞 100
燒 100
捅 100
藻 100
僻 100
雙 100
虏 100
‛ 100
預 100
紊 100
雖 100
戳 100
嚴 100
篡 100
膛 100
檬 100
笆 100
쟠 100
谦 100
熏 100
裨 100
〔 100
닐 100
兮 100
능 100
뚡 100
늦 100
敗 100
ﾈ 100
稚 100
狦 100
뮧 100
ﻱ 100
嫂 100
뿠 100
浏 100
庫 100
誤 100
ﺧ 100
橱 100
慮 100
쿪 100
ﻰ 100
豚 100
‚ 100
鸽 100
柠 100
婶 100
틸 100
巷 100
붵 100
昌 100
鬥 100
 100
﹝ 100
돇 100
溫 100
싧 100
眾 100
틚 100
轿 100
臀 100
屍 100
崽 100
測 100
맍 100
遺 100
싗 100
瓣 100
 100
낺 100
ﾟ 100
梨 100
栅 100
雌 100
稲 100
鬆 100
춾 100
鎮 100
雞 100
쟷 100
堅 100
呜 100
颂 100
镍 100
遲 100
谟 100
叨 100
뻐 100
網 100
碘 100
燥 100
咐 100
냙 100
曹 100
愁 100
蠅 100
ﺷ 100
짍 100
哄 100
İ 100
︽ 100
竖 100
邸 100
崖 100
솼 100
袒 100
狀 100
龍 100
渭 100
弘 100
뒢 100
橙 100
÷ 100
쇆 100
铸 100
掏 100
髮 100
細 100
刹 100
蘇 100
屬 100
艳 100
柄 100
袍 100
洱 100
輛 100
炳 100
椎 100
颖 100
樹 100
탇 100
溪 100
헒 100
際 100
㎡ 100
蟺 100
蓋 100
湯 100
쯍 100
蹤 100
賸 100
牡 100
冯 100
냫 100
創 100
뺰 100
ł 100
侈 100
瞩 100
岳 100
헊 100
叮 100
煙 100
ţ 100
탰 100
颤 100
悍 100
폶 100
뷨 100
砂 100
僧 100
뛱 100
忏 100
실 100
骆 100
雜 100
剃 100
포 100
얦 100
２ 100
冶 100
ﺓ 100
좴 100
嗑 100
⑶ 100
훮 100
浇 100
尋 100
嚷 100
즭 100
죈 100
墅 100
컖 100
짵 100
뗇 100
釜 100
玡 100
黃 100
蟹 100
猾 100
㈧ 100
筆 100
났 100
랦 100
斧 100
帘 100
骇 100
쇒 100
頂 100
绊 100
態 100
婪 100
獲 100
펵 100
싩 100
簽 100
熙 100
믰 100
溺 100
 100
嗜 100
♦ 100
Ω 100
馅 100
钝 100
呗 100
뫁 100
敵 100
響 100
茲 100
뿡 100
훇 100
亭 100
晴 100
撇 100
쪡 100
뎷 100
怂 100
ﺸ 100
뫕 100
쇚 100
 100
뗝 100
哮 100
뇸 100
跤 100
럧 100
竒 100
吩 100
缪 100
锤 100
翘 100
玲 100
绸 100
賭 100
咧 100
… 100
渺 100
ﺫ 100
圍 100
泌 100
斩 100
週 100
葱 100
歐 100
닡 100
芽 100
赵 100
淑 100
ˋ 100
斋 100
輸 100
涡 100
ﾓ 100
맧 100
샊 100
躯 100
Π 100
톹 100
俟 100
咦 100
 100
抉 100
톶 100
爛 100
솬 100
瀑 100
迦 100
謀 100
畢 100
럃 100
寥 100
뫉 100
橘 100
戶 100
赃 100
뛌 100
咕 100
＝ 100
웖 100
놳 100
呦 100
ウ 100
샄 100
즣 100
戀 100
癫 100
岿 100
儡 100
믣 100
敷 100
 100
軟 100
 100
럆 100
猭 100
ퟟ 100
뿧 100
뿏 100
Ρ 100
뫘 100
課 100
梵 100
뛲 100
诠 100
і 100
폍 100
蟼 100
砆 100
嫖 100
đ 100
맏 100
恿 100
ꋰ 100
質 100
슡 100
瘟 100
療 100
饪 100
阈 100
짽 100
營 100
뎹 100
냗 100
嚼 100
♬ 100
較 100
돏 100
몹 100
鳄 100
뻅 100
谭 100
臨 100
榮 100
擾 100
徐 100
삳 100
輪 100
럏 100
Θ 100
擁 100
ō 100
呋 100
﹁ 100
ι 100
훸 100
鎖 100
聰 100
眖 100
牠 100
냾 100
咽 100
飙 100
俾 100
뺺 100
锰 100
肋 100
羡 100
紙 100
莽 100
췼 100
춢 100
樱 100
몶 100
繷 100
厩 100
島 100
冥 100
¢ 100
竣 100
壶 100
∃ 100
掀 100
γ 100
詞 100
컧 100
秽 100
眨 100
倩 100
瓷 100
첩 100
蠀 100
냄 100
胚 100
黏 100
ﻝ 100
拮 100
쿊 100
陽 100
毋 100
畸 100
 100
薛 100
绰 100
ﾝ 100
嗅 100
쪦 100
搶 100
菇 100
湄 100
ﾃ 100
屑 100
墟 100
獺 100
ﾏ 100
죌 100
疭 100
株 100
쇤 100
싼 100
쮰 100
쒱 100
돾 100
„ 100
蹂 100
诶 100
柑 100
동 100
撼 100
¦ 100
 100
싲 100
쪯 100
 100
 100
뻜 100
릮 100
俯 100
뗤 100
だ 100
鐵 100
製 100
栓 100
岂 100
췋 100
貴 100
뗛 100
탴 100
靶 100
쏉 100
躏 100
勺 100
吟 100
殉 100
桂 100
폣 100
訓 100
幌 100
뷲 100
쒫 100
諒 100
ς 100
쿷 100
徹 100
鏡 100
舵 100
亥 100
よ 100
臟 100
棱 100
耿 100
榈 100
紐 100
拌 100
铆 100
藍 100
蔼 100
ﺕ 100
肘 100
뛡 100
秈 100
憶 100
餓 100
짤 100
牟 100
∴ 100
舧 100
햨 100
厲 100
ﻄ 100
嗓 100
쓛 100
酵 100
灿 100
娇 100
췑 100
쓂 100
랣 100
煌 100
¥ 100
掺 100
횾 100
ﻡ 100
猥 100
闽 100
褐 100
뾿 100
酶 100
岭 100
 100
跡 100
猿 100
尹 100
垦 100
뮪 100
窑 100
屌 100
ぇ 100
첯 100
쯪 100
웦 100
Ε 100
싴 100
떩 100
茉 100
悯 100
퓝 100
憐 100
伎 100
禗 100
闸 100
 100
벲 100
毅 100
킣 100
椰 100
環 100
屉 100
µ 100
掐 100
뮳 100
춴 100
릥 100
昔 100
폑 100
虔 100
ﺼ 100
芥 100
﹐ 100
豬 100
娼 100
塘 100
맡 100
稠 100
δ 100
辙 100
掛 100
汪 100
婦 100
歸 100
℃ 100
쎽 100
翩 100
３ 100
ﺐ 100
ퟭ 100
폦 100
뻧 100
绷 100
ꎨ 100
뿌 100
執 100
뷘 100
輩 100
罹 100
ﻩ 100
ퟌ 100
廣 100
孵 100
 100
잱 100
쒪 100
補 100
燈 100
稰 100
廢 100
ř 100
沥 100
Χ 100
솾 100
碌 100
亩 100
 100
鳥 100
刃 100
쮼 100
锈 100
뷇 100
項 100
沸 100
杭 100
兇 100
衝 100
稦 100
煞 100
绒 100
볈 100
筿 100
 100
ꎩ 100
獵 100
첨 100
朽 100
隱 100
獎 100
攝 100
哗 100
賺 100
 100
좾 100
茵 100
盤 100
伺 100
涴 100
캨 100
暨 100
锌 100
傀 100
쫢 100
싳 100
誕 100
铬 100
寧 100
뇒 100
嘗 100
崭 100
噁 100
Ў 100
貓 100
偉 100
Μ 100
럢 100
烘 100
噬 100
폀 100
룳 100
낶 100
锚 100
枉 100
ї 100
５ 100
ī 100
粄 100
◦ 100
ε 100
窖 100
첽 100
诬 100
礚 100
硅 100
タ 100
ﺄ 100
嘎 100
峙 100
捧 100
∆ 100
랱 100
ㄢ 100
υ 100
뺶 100
坤 100
퓺 100
쟗 100
얲 100
栗 100
勢 100
卒 100
谩 100
 100
놬 100
狥 100
滅 100
막 100
靡 100
韧 100
ゑ 100
拇 100
ﺨ 100
舊 100
산 100
蹦 100
뾹 100
訊 100
媚 100
蔗 100
⑷ 100
婷 100
ﺰ 100
闆 100
荧 100
優 100
쫛 100
狟 100
侏 100
財 100
ａ 100
皑 100
暮 100
鬧 100
複 100
扛 100
 100
異 100
９ 100
쳗 100
룪 100
騎 100
辽 100
廳 100
扒 100
帖 100
® 100
０ 100
４ 100
揮 100
穌 100
庚 100
쳦 100
뒬 100
쇂 100
閃 100
蕴 100
瑕 100
컼 100
螂 100
協 100
壕 100
掰 100
뿳 100
 100
黨 100
瞪 100
퇻 100
웹 100
惮 100
쎫 100
睾 100
惰 100
ね 100
腻 100
卦 100
蚂 100
劈 100
캶 100
苇 100
肛 100
帥 100
檔 100
Λ 100
鳍 100
夭 100
誠 100
菱 100
ﾍ 100
鱿 100
唠 100
 100
늩 100
織 100
瑜 100
떳 100
뗖 100
孝 100
 100
듨 100
牆 100
揪 100
ﺀ 100
珨 100
컨 100
쟚 100
萌 100
† 100
Α 100
ﾞ 100
赘 100
㈨ 100
嬷 100
 100
蜥 100
吱 100
驹 100
蹭 100
钾 100
蒜 100
戊 100
ﻊ 100
嗽 100
볙 100
Đ 100
麵 100
˙ 100
嵌 100
癡 100
疮 100
暇 100
ﺻ 100
ﮐ 100
든 100
嚣 100
觅 100
さ 100
跋 100
萍 100
컳 100
掸 100
‐ 100
벮 100
 100
矗 100
疽 100
擺 100
憋 100
睇 100
蹄 100
審 100
灼 100
嬉 100
싵 100
뿎 100
돍 100
岔 100
朕 100
 100
嗷 100
ﾉ 100
쳹 100
炊 100
λ 100
잴 100
農 100
盿 100
皈 100
맩 100
苔 100
滔 100
컛 100
웏 100
俺 100
 100
焕 100
撬 100
拢 100
 100
髦 100
妃 100
몬 100
祟 100
삵 100
躬 100
σ 100
芮 100
陸 100
層 100
﹗ 100
犀 100
澤 100
潔 100
秆 100
冕 100
媳 100
嗦 100
殘 100
の 100
瞶 100
韵 100
벨 100
듻 100
唷 100
蘑 100
癘 100
 100
鹦 100
驭 100
襲 100
灶 100
ﺯ 100
 100
뛅 100
訪 100
勁 100
ś 100
뒥 100
拽 100
褲 100
孀 100
厥 100
駕 100
좤 100
淨 100
惫 100
훈 100
즽 100
魄 100
綠 100
涛 100
裘 100
뺻 100
賓 100
 100
ힷ 100
鄉 100
몽 100
 100
쳑 100
籽 100
맳 100
宮 100
凳 100
〝 100
榨 100
울 100
竿 100
玷 100
쾽 100
뺩 100
닻 100
卤 100
穩 100
주 100
拧 100
鑰 100
〞 100
穝 100
膽 100
砛 100
 100
坻 100
蠈 100
 100
뇊 100
６ 100
蚤 100
瓳 100
拙 100
葵 100
鹉 100
慣 100
そ 100
玄 100
苟 100
沛 100
 100
퇘 100
颅 100
猶 100
뷉 100
뗙 100
唾 100
싒 100
碾 100
皱 100
尧 100
婉 100
婓 100
ン 100
ﺲ 100
慶 100
フ 100
랥 100
疵 100
楠 100
セ 100
﹑ 100
튳 100
鮮 100
顆 100
崛 100
遜 100
琩 100
廓 100
嘟 100
 100
霞 100
钠 100
徊 100
뫬 100
闺 100
ﻼ 100
舷 100
脅 100
鲑 100
蝎 100
 100
ퟢ 100
뇶 100
札 100
뻠 100
雏 100
昼 100
喋 100
謂 100
嘅 100
택 100
몫 100
盽 100
呻 100
觸 100
纫 100
丐 100
 100
쇩 100
沈 100
陰 100
啟 100
蟑 100
綁 100
炖 100
採 100
慘 100
烙 100
┰ 100
﹒ 100
钡 100
ﻀ 100
훾 100
殷 100
쇑 100
鼎 100
痊 100
 100
쏥 100
췏 100
飲 100
衄 100
玂 100
佈 100
╧ 100
蔡 100
稼 100
挟 100
 100
馨 100
徘 100
帳 100
傍 100
듊 100
靓 100
孜 100
맢 100
뇕 100
る 100
Ђ 100
잮 100
볭 100
뿍 100
針 100
溅 100
淀 100
奮 100
啪 100
紹 100
淤 100
搂 100
钳 100
紈 100
桨 100
镀 100
ェ 100
뗩 100
陣 100
載 100
绣 100
獸 100
朮 100
訂 100
 100
ﾌ 100
鳏 100
眷 100
 100
벤 100
뮺 100
盎 100
놯 100
寝 100
怯 100
‪ 100
 100
틫 100
茹 100
肈 100
몢 100
甫 100
儘 100
 100
陨 100
羔 100
咩 100
ň 100
엥 100
幣 100
럁 100
硼 100
쯸 100
냝 100
폼 100
鹤 100
쏏 100
賴 100
編 100
矣 100
擒 100
恙 100
뗟 100
渍 100
嗡 100
匕 100
邁 100
탑 100
햯 100
웒 100
饒 100
≤ 100
ν 100
 100
沐 100
拱 100
嚎 100
ꆭ 100
镉 100
婿 100
蒿 100
虞 100
禱 100
 100
놤 100
詩 100
掃 100
ら 100
ē 100
쿝 100
酝 100
砾 100
嗝 100
囉 100
＂ 100
 100
暫 100
損 100
➢ 100
哔 100
망 100
彬 100
咆 100
병 100
裴 100
퓐 100
砷 100
囤 100
噜 100
폎 100
螨 100
蜴 100
汝 100
ㄤ 100
즥 100
듾 100
虱 100
梗 100
杏 100
 100
虛 100
 100
싖 100
贊 100
쒸 100
돪 100
诵 100
廚 100
 100
엁 100
凰 100
菠 100
㏑ 100
甥 100
徵 100
 100
跺 100
凹 100
ﬁ 100
캤 100
ﻙ 100
맟 100
맊 100
餅 100
酥 100
窜 100
殃 100
悚 100
純 100
橇 100
ﺏ 100
 100
绌 100
笞 100
 100
좼 100
睿 100
틬 100
俣 100
踝 100
锂 100
烁 100
퇫 100
粥 100
窘 100
洼 100
廠 100
咄 100
 100
咁 100
 100
阪 100
瘸 100
냚 100
簧 100
ヴ 100
７ 100
郭 100
涝 100
攫 100
뢳 100
럒 100
賞 100
罰 100
猁 100
奪 100
뷝 100
螟 100
璸 100
냜 100
髒 100
評 100
洙 100
拭 100
﹛ 100
횷 100
呛 100
吶 100
倉 100
½ 100
廖 100
緒 100
卯 100
秦 100
ū 100
ﾐ 100
葉 100
簀 100
て 100
痫 100
쮳 100
鞠 100
擂 100
懼 100
兢 100
抨 100
쾴 100
紋 100
茸 100
ě 100
ﺋ 100
﹍ 100
碭 100
甡 100
缄 100
竊 100
햾 100
뇏 100
８ 100
ﺛ 100
캢 100
ﺜ 100
벾 100
氰 100
劍 100
″ 100
 100
 100
晦 100
劑 100
┪ 100
獻 100
蟲 100
減 100
镯 100
涤 100
ﻒ 100
芦 100
搖 100
돎 100
놦 100
뫓 100
絋 100
駛 100
祂 100
渝 100
拣 100
룇 100
锣 100
篱 100
瞳 100
姗 100
쏴 100
銷 100
ち 100
骼 100
辫 100
脈 100
φ 100
絡 100
糑 100
뫶 100
炬 100
⑸ 100
殆 100
烬 100
額 100
雲 100
証 100
競 100
몯 100
構 100
샖 100
鑽 100
眩 100
匣 100
냤 100
绽 100
坨 100
惶 100
ꋥ 100
沖 100
˚ 100
ﻃ 100
폊 100
톭 100
탙 100
拋 100
啃 100
糙 100
Γ 100
憩 100
ퟹ 100
蠂 100
彗 100
萇 100
敕 100
듭 100
磕 100
喵 100
ア 100
ǧ 100
頗 100
罔 100
阑 100
鄰 100
쓾 100
颊 100
讳 100
蝗 100
雁 100
賤 100
죅 100
焉 100
 100
琦 100
犧 100
 100
쾮 100
ﻑ 100
헲 100
齊 100
鳕 100
禀 100
烏 100
姥 100
믩 100
뗐 100
賊 100
睬 100
ķ 100
違 100
爲 100
뛷 100
撮 100
妲 100
匡 100
ퟃ 100
뾦 100
镣 100
볨 100
貼 100
萤 100
盧 100
澜 100
嬸 100
咚 100
黯 100
橋 100
骷 100
艦 100
ぶ 100
ퟙ 100
럹 100
蕊 100
盏 100
曙 100
듄 100
鸥 100
ę 100
淌 100
 100
犁 100
寐 100
乓 100
 100
붱 100
铢 100
 100
뷜 100
腌 100
琢 100
誒 100
̀ 100
쟽 100
볦 100
階 100
萃 100
腸 100
쒬 100
骰 100
濟 100
叽 100
珂 100
钽 100
獶 100
韓 100
摈 100
呱 100
 100
퇝 100
憑 100
啼 100
잡 100
馑 100
쾤 100
踊 100
診 100
咀 100
 100
侬 100
辭 100
쯵 100
쓄 100
儀 100
乒 100
쳕 100
랭 100
顏 100
迥 100
盢 100
奄 100
俏 100
惭 100
孺 100
凄 100
郵 100
喧 100
は 100
蠕 100
耸 100
硄 100
㈩ 100
 100
뇋 100
罷 100
阉 100
 100
뻭 100
礙 100
拚 100
盜 100
髅 100
馏 100
畔 100
湮 100
ｂ 100
캽 100
擋 100
ﻐ 100
 100
 100
蜗 100
羚 100
佢 100
췰 100
욫 100
엌 100
ゲ 100
癒 100
瘠 100
╆ 100
螃 100
矹 100
た 100
┬ 100
잹 100
뻛 100
臺 100
‡ 100
 100
풲 100
鎘 100
돧 100
禦 100
痘 100
昵 100
囱 100
풰 100
엚 100
붮 100
穹 100
 100
皊 100
熨 100
揉 100
襟 100
霹 100
債 100
ꪱ 100
撐 100
砌 100
怡 100
壯 100
胰 100
柿 100
嗒 100
ﻏ 100
蓉 100
億 100
럕 100
斌 100
鋼 100
Ι 100
縫 100
拴 100
ﾘ 100
뫺 100
矪 100
攒 100
厮 100
 100
뺴 100
谕 100
孫 100
╗ 100
蒋 100
垛 100
ル 100
∕ 100
矼 100
붥 100
鹫 100
ﻈ 100
範 100
쪤 100
ꋦ 100
헳 100
싽 100
儲 100
餘 100
蹋 100
挛 100
 100
헛 100
뺪 100
貸 100
佔 100
閒 100
铵 100
蚕 100
浣 100
枷 100
喪 100
剁 100
ぺ 100
폾 100
욥 100
殡 100
圓 100
鮑 100
掳 100
刁 100
雳 100
筏 100
쇣 100
跛 100
怠 100
Ａ 100
럮 100
镶 100
禄 100
靼 100
嘻 100
吠 100
鞑 100
眶 100
濑 100
韋 100
羟 100
讫 100
 100
 100
돠 100
頻 100
믶 100
羆 100
簆 100
咻 100
闖 100
痙 100
娴 100
冇 100
۲ 100
 100
욬 100
緣 100
ﻖ 100
瘀 100
潛 100
嘞 100
뢨 100
袱 100
돰 100
哒 100
쎷 100
惦 100
き 100
놶 100
讷 100
搐 100
膚 100
睐 100
晾 100
睲 100
忱 100
＞ 100
쟬 100
볁 100
窮 100
ﬂ 100
횲 100
譯 100
捎 100
룥 100
揣 100
ユ 100
떹 100
벣 100
頌 100
︺ 100
齡 100
谘 100
췗 100
뻉 100
鞍 100
鍵 100
誊 100
敖 100
垢 100
啄 100
⋅ 100
Σ 100
몴 100
룮 100
폌 100
퓹 100
럡 100
琶 100
孬 100
嚟 100
헆 100
뢸 100
瞅 100
涩 100
 100
벭 100
 100
邱 100
菩 100
腓 100
汐 100
讪 100
妍 100
嘀 100
償 100
胱 100
糗 100
┏ 100
歼 100
婭 100
蛾 100
淮 100
夾 100
뛁 100
 100
镰 100
钙 100
琉 100
狝 100
惋 100
吮 100
醺 100
蓖 100
梢 100
쏨 100
룴 100
诘 100
狒 100
嘶 100
짡 100
購 100
憧 100
늣 100
瞞 100
룛 100
‰ 100
 100
뻀 100
臥 100
寬 100
 100
훓 100
헐 100
죭 100
믝 100
뎧 100
貂 100
屯 100
憬 100
妦 100
偽 100
ﻂ 100
陳 100
羶 100
绥 100
琍 100
栈 100
ﾔ 100
禧 100
廁 100
ﺁ 100
 100
싟 100
 100
펶 100
뫩 100
誌 100
藩 100
を 100
 100
ﾎ 100
缇 100
繞 100
積 100
喲 100
◄ 100
΄ 100
ﺿ 100
 100
譽 100
誘 100
蘿 100
町 100
敛 100
哉 100
霆 100
脐 100
憤 100
쏺 100
飾 100
踹 100
跷 100
ひ 100
に 100
η 100
쒻 100
뗜 100
暈 100
풵 100
짷 100
샀 100
臘 100
┤ 100
 100
碉 100
چ 100
濕 100
曉 100
嚏 100
 100
훔 100
忒 100
嬰 100
ず 100
骡 100
陡 100
蹊 100
臆 100
礦 100
瘩 100
欸 100
ヘ 100
 100
쪣 100
蠉 100
茧 100
咗 100
と 100
 100
塵 100
靖 100
邋 100
莊 100
缀 100
矚 100
痢 100
疙 100
甭 100
檐 100
叁 100
슥 100
뫣 100
筝 100
桔 100
┦ 100
 100
賬 100
吝 100
 100
扉 100
唧 100
侥 100
쯏 100
엂 100
뿭 100
 100
 100
얰 100
踞 100
膠 100
腮 100
箫 100
吋 100
퇶 100
鳟 100
縮 100
笷 100
禍 100
帚 100
噴 100
佽 100
헰 100
褪 100
烊 100
ą 100
탖 100
쟣 100
뢥 100
钛 100
聿 100
 100
 100
잷 100
럜 100
穗 100
牽 100
荫 100
災 100
湛 100
巅 100
啧 100
 100
孰 100
刽 100
 100
遢 100
 100
蛎 100
繩 100
﹋ 100
 100
뫪 100
醬 100
诧 100
窾 100
枭 100
 100
痉 100
懲 100
伶 100
雯 100
缕 100
澈 100
ㄈ 100
ま 100
 100
뻤 100
羹 100
ゅ 100
 100
恍 100
엑 100
돁 100
늴 100
脓 100
烩 100
忡 100
쪢 100
뿛 100
耋 100
デ 100
阡 100
蕭 100
⑹ 100
瞥 100
恥 100
咏 100
컕 100
蛊 100
な 100
햪 100
죨 100
薰 100
愣 100
媛 100
傾 100
 100
秸 100
톺 100
娥 100
哋 100
蠻 100
腫 100
ｃ 100
 100
 100
훒 100
賜 100
朔 100
倪 100
＜ 100
웂 100
蕩 100
茬 100
噶 100
ﻕ 100
鼬 100
쳓 100
谚 100
蓮 100
掙 100
劾 100
側 100
 100
盞 100
얼 100
镁 100
豌 100
蓓 100
芜 100
坍 100
 100
讚 100
 100
隸 100
淚 100
徑 100
۰ 100
쟵 100
涸 100
汹 100
桅 100
噓 100
 100
鷹 100
遛 100
紆 100
癳 100
‧ 100
驕 100
楊 100
嗬 100
吳 100
틋 100
阮 100
羘 100
笃 100
旭 100
θ 100
샛 100
뇹 100
阂 100
艙 100
 100
凍 100
Ă 100
잨 100
琥 100
 100
拎 100
ő 100
틟 100
醜 100
襄 100
臔 100
痞 100
沧 100
拂 100
톪 100
컝 100
蕃 100
睼 100
ガ 100
¼ 100
퓵 100
쫬 100
즨 100
盉 100
쒮 100
齒 100
胊 100
믄 100
钨 100
漸 100
娄 100
림 100
닰 100
诲 100
凛 100
 100
헱 100
輯 100
幺 100
 100
罵 100
枫 100
憂 100
彪 100
妝 100
喳 100
﹊ 100
賈 100
禲 100
◎ 100
뮨 100
뫄 100
笲 100
櫃 100
俐 100
 100
詢 100
瞴 100
嘢 100
폇 100
틤 100
芋 100
潇 100
涼 100
呸 100
︰ 100
쳮 100
돂 100
铎 100
峭 100
킸 100
췥 100
郝 100
禅 100
磯 100
︹ 100
掂 100
圃 100
ڤ 100
鳞 100
 100
믬 100
蚓 100
蘋 100
秤 100
寅 100
퇛 100
鈴 100
塗 100
辯 100
籠 100
汜 100
 100
讹 100
莺 100
築 100
灘 100
뻵 100
蠋 100
賀 100
荆 100
喱 100
╦ 100
 100
ッ 100
俠 100
┣ 100
뫾 100
蟀 100
ダ 100
붩 100
睽 100
喚 100
틡 100
妾 100
仕 100
れ 100
엮 100
쎶 100
锢 100
蒲 100
漩 100
冢 100
득 100
耙 100
浚 100
ㄏ 100
鏈 100
翡 100
瞌 100
潭 100
漱 100
吭 100
ŕ 100
 100
騷 100
糶 100
惺 100
헍 100
眏 100
룔 100
颓 100
縱 100
槌 100
墜 100
匯 100
◆ 100
ż 100
＇ 100
豐 100
翌 100
狹 100
彎 100
 100
彷 100
啲 100
뛜 100
떭 100
蚯 100
莅 100
鯨 100
眎 100
刨 100
┕ 100
 100
볖 100
誇 100
艱 100
筷 100
砑 100
瘪 100
淩 100
棟 100
孳 100
夔 100
诏 100
纏 100
彦 100
ی 100
κ 100
폂 100
엲 100
撂 100
乜 100
舜 100
暹 100
奻 100
틴 100
뢯 100
뛃 100
 100
컑 100
몱 100
聂 100
璣 100
′ 100
ꆪ 100
麋 100
蠁 100
掣 100
捱 100
墩 100
藜 100
絬 100
瞰 100
嘣 100
 100
ퟀ 100
짼 100
ꋧ 100
铛 100
稅 100
悶 100
娣 100
坂 100
剿 100
쿓 100
늷 100
撿 100
坴 100
↑ 100
蹩 100
盹 100
瀚 100
肅 100
曦 100
捂 100
姚 100
噎 100
볹 100
轧 100
筐 100
沌 100
 100
饺 100
焙 100
擠 100
揚 100
赽 100
褒 100
槿 100
戟 100
ω 100
 100
맬 100
訝 100
倔 100
貧 100
謎 100
盥 100
炙 100
孚 100
 100
賦 100
譜 100
虧 100
眈 100
搓 100
惱 100
緩 100
恣 100
샎 100
蜚 100
峈 100
Ｂ 100
춽 100
驅 100
腞 100
綼 100
眤 100
懊 100
俭 100
떵 100
떴 100
褥 100
苞 100
簈 100
猵 100
牒 100
慾 100
 100
 100
 100
쮢 100
뗬 100
衵 100
癮 100
퇅 100
뫀 100
麟 100
遙 100
橫 100
卉 100
か 100
캰 100
レ 100
쒩 100
酐 100
畍 100
恃 100
 100
쓀 100
ꆯ 100
钵 100
辗 100
膥 100
玺 100
桒 100
偵 100
‵ 100
ꆮ 100
冀 100
ﺝ 100
틹 100
컂 100
霰 100
鍾 100
鄂 100
蛀 100
暧 100
撩 100
噗 100
퓳 100
퓄 100
펤 100
마 100
馁 100
淳 100
僕 100
佼 100
 100
웫 100
睜 100
珇 100
玒 100
獽 100
搔 100
捲 100
疱 100
渾 100
パ 100
 100
痰 100
瓁 100
潦 100
惘 100
욤 100
遞 100
迂 100
轟 100
窩 100
キ 100
ﺢ 100
賠 100
蛆 100
績 100
壹 100
勵 100
剌 100
ゼ 100
런 100
님 100
葫 100
獹 100
勸 100
佰 100
丞 100
슶 100
踵 100
茁 100
咔 100
ー 100
¾ 100
ﾕ 100
쿧 100
쳃 100
鬍 100
轩 100
糒 100
竜 100
眭 100
狈 100
淸 100
僱 100
ﭘ 100
탤 100
컎 100
跻 100
赊 100
贰 100
諸 100
簸 100
 100
횢 100
췭 100
赈 100
蠟 100
燭 100
탁 100
췀 100
馒 100
詳 100
楣 100
彌 100
傭 100
쟴 100
鳗 100
魇 100
霄 100
廿 100
뾯 100
腀 100
氦 100
撫 100
몭 100
蒟 100
艹 100
繧 100
玱 100
웴 100
놧 100
窦 100
眕 100
岈 100
훝 100
즧 100
뷙 100
詛 100
疡 100
啬 100
 100
镛 100
枣 100
弛 100
痁 100
爐 100
潰 100
洩 100
剽 100
う 100
褫 100
滇 100
夯 100
̃ 100
 100
邏 100
瓊 100
し 100
 100
镳 100
釣 100
叩 100
► 100
▸ 100
쟇 100
쎤 100
軌 100
貪 100
裆 100
臼 100
攪 100
扪 100
 100
뾮 100
閣 100
姦 100
즾 100
웻 100
騰 100
袁 100
炽 100
 100
 100
돢 100
芹 100
肴 100
榘 100
販 100
禣 100
檀 100
斃 100
 100
킳 100
닙 100
硈 100
懵 100
佃 100
ブ 100
≥ 100
ퟐ 100
훙 100
믭 100
뇓 100
溝 100
殼 100
ﺱ 100
싱 100
踌 100
猔 100
탮 100
頁 100
隼 100
鄭 100
羛 100
絮 100
痜 100
瑈 100
壽 100
﹀ 100
 100
튰 100
쯗 100
웬 100
饷 100
 100
 100
龌 100
紇 100
篝 100
篊 100
眸 100
瑢 100
氪 100
毞 100
₤ 100
 100
Ｃ 100
钶 100
萦 100
碆 100
屹 100
孪 100
╃ 100
Ѓ 100
 100
 100
욵 100
뛖 100
谛 100
笋 100
瓮 100
抠 100
奀 100
̋ 100
ﻉ 100
몺 100
漿 100
孢 100
唏 100
匐 100
ٱ 100
맂 100
脯 100
籃 100
娟 100
χ 100
 100
톲 100
쎬 100
骋 100
繰 100
岖 100
唑 100
吏 100
ゎ 100
 100
쿱 100
몵 100
繦 100
ㄐ 100
⑺ 100
ġ 100
 100
蟋 100
媲 100
冊 100
＿ 100
︾ 100
 100
 100
 100
볩 100
迢 100
罺 100
瓆 100
呎 100
イ 100
 100
듇 100
萸 100
쟾 100
龊 100
鲤 100
菁 100
绎 100
撥 100
｡ 100
컾 100
鲈 100
罄 100
籌 100
珿 100
倖 100
ﺌ 100
 100
첥 100
낵 100
飽 100
腎 100
纨 100
絞 100
簘 100
獭 100
榔 100
懸 100
懶 100
圳 100
 100
뾶 100
躇 100
淏 100
哆 100
 100
랲 100
놮 100
羪 100
祀 100
擴 100
捨 100
悅 100
が 100
 100
繺 100
糾 100
祘 100
磐 100
叼 100
 100
닠 100
ꎥ 100
贖 100
绔 100
硑 100
痣 100
戛 100
弩 100
嘈 100
せ 100
Ł 100
쳺 100
쯑 100
쫙 100
싰 100
謹 100
籔 100
曳 100
Ο 100
얤 100
늪 100
鬱 100
醛 100
邹 100
瘆 100
晟 100
仨 100
⁄ 100
컮 100
ꏡ 100
鍋 100
蹟 100
謬 100
衙 100
琛 100
獅 100
潢 100
柚 100
샌 100
뮼 100
蔻 100
葩 100
筽 100
禬 100
涎 100
凋 100
俞 100
亢 100
※ 100
쮭 100
麒 100
颐 100
輝 100
脹 100
猌 100
ミ 100
뺲 100
礹 100
啮 100
 100
 100
쓘 100
싫 100
蒼 100
翱 100
瑀 100
犸 100
曆 100
戎 100
邂 100
貢 100
叢 100
っ 100
틛 100
袤 100
砒 100
癠 100
抒 100
ﺙ 100
逅 100
灸 100
灣 100
冉 100
く 100
鴨 100
霾 100
銅 100
螯 100
悴 100
岱 100
∑ 100
ņ 100
얫 100
腑 100
簍 100
峨 100
偕 100
チ 100
˝ 100
ﻯ 100
瑶 100
寵 100
탼 100
詐 100
襯 100
穨 100
湘 100
曰 100
撵 100
 100
锭 100
辄 100
纾 100
硐 100
헯 100
뷠 100
뷟 100
鹑 100
侶 100
틕 100
鹏 100
肼 100
榷 100
嘭 100
で 100
鸠 100
鵝 100
骯 100
籖 100
畉 100
恺 100
咲 100
カ 100
Ｄ 100
 100
쟉 100
듬 100
餵 100
眦 100
沽 100
攔 100
尷 100
├ 100
ﾖ 100
붹 100
鹽 100
骏 100
襪 100
耦 100
珈 100
猧 100
煲 100
樊 100
 100
엳 100
菈 100
簇 100
皘 100
癶 100
甧 100
梏 100
墳 100
ċ 100
 100
 100
 100
리 100
鼾 100
＠ 100
짬 100
쒾 100
닒 100
貮 100
憔 100
 100
쟺 100
샋 100
믴 100
馊 100
雹 100
褓 100
蝦 100
愕 100
惬 100
唁 100
や 100
﹡ 100
벢 100
釘 100
酕 100
觐 100
癥 100
渲 100
浊 100
桎 100
岑 100
짚 100
贻 100
荻 100
绯 100
祠 100
瓢 100
弑 100
こ 100
Ś 100
틻 100
뚭 100
煉 100
樰 100
帧 100
є 100
ｿ 100
튣 100
타 100
霓 100
蟒 100
秖 100
禜 100
甉 100
欴 100
欄 100
 100
폟 100
맒 100
迴 100
褂 100
苤 100
缎 100
笺 100
砃 100
桐 100
Ｅ 100
鸵 100
隅 100
蝉 100
缜 100
┍ 100
‭ 100
 100
钼 100
鋪 100
遁 100
裳 100
糯 100
弼 100
啶 100
㊣ 100
ψ 100
ﾒ 100
쾲 100
螤 100
蜀 100
蚱 100
紮 100
痔 100
檳 100
辘 100
炯 100
ﳌ 100
 100
 100
ퟲ 100
쓎 100
鳳 100
螳 100
紳 100
硉 100
癚 100
榻 100
· 100
 100
틠 100
톷 100
뿩 100
諜 100
竚 100
狎 100
椭 100
┋ 100
횽 100
쏖 100
뫤 100
獀 100
Κ 100
ퟫ 100
龚 100
籇 100
禫 100
惚 100
墊 100
 100
헬 100
颚 100
霧 100
鑒 100
缛 100
綿 100
甮 100
獾 100
唸 100
劉 100
め 100
퇚 100
鼹 100
誼 100
耞 100
剝 100
ﮔ 100
퇴 100
삿 100
锄 100
謠 100
┘ 100
⑻ 100
 100
 100
 100
뛩 100
谙 100
荼 100
羲 100
瞦 100
滓 100
埠 100
咫 100
儆 100
 100
｛ 100
ﺾ 100
룒 100
蜷 100
碴 100
珩 100
崗 100
奕 100
傘 100
俑 100
ど 100
뿊 100
艮 100
撸 100
돩 100
麓 100
鲱 100
箉 100
碿 100
攤 100
į 100
 100
쳭 100
皿 100
挞 100
ゝ 100
ٔ 100
뚳 100
腋 100
腈 100
崋 100
떨 100
郅 100
詭 100
螘 100
芠 100
礶 100
梆 100
撲 100
俸 100
ㄨ 100
龐 100
禿 100
眯 100
発 100
琿 100
椿 100
〃 100
┅ 100
｝ 100
틶 100
탽 100
畑 100
湊 100
 100
뫞 100
당 100
냡 100
鋒 100
赝 100
蜻 100
砫 100
瑿 100
Υ 100
 100
탷 100
탛 100
쿅 100
믛 100
铍 100
説 100
潤 100
榭 100
啜 100
勳 100
ﾋ 100
 100
ퟦ 100
쓦 100
샱 100
뫮 100
酊 100
觊 100
禾 100
朦 100
㏄ 100
 100
뷖 100
軸 100
跆 100
蜕 100
琅 100
猳 100
ů 100
ﾛ 100
쯠 100
뺹 100
뷣 100
뛑 100
뒿 100
漲 100
浙 100
桿 100
＆ 100
 100
 100
짔 100
뻥 100
늵 100
讣 100
觎 100
緝 100
箔 100
竡 100
璜 100
嬴 100
∼ 100
죳 100
뗁 100
褶 100
蜓 100
罙 100
箴 100
箍 100
毡 100
悸 100
刪 100
 100
 100
 100
럶 100
뛶 100
阎 100
贈 100
衂 100
莞 100
臊 100
竧 100
呣 100
﹙ 100
 100
햧 100
펲 100
쾧 100
엗 100
鹌 100
褊 100
ボ 100
オ 100
ﺶ 100
엔 100
湍 100
栩 100
恆 100
啞 100
ퟸ 100
폹 100
頑 100
펮 100
컩 100
뛴 100
蹬 100
諷 100
竲 100
︱ 100
뷅 100
钧 100
鎊 100
註 100
螒 100
窱 100
砞 100
摁 100
憨 100
庶 100
吡 100
π 100
킯 100
캿 100
臮 100
僊 100
ざ 100
ź 100
 100
ﾆ 100
 100
馋 100
菏 100
瞠 100
淺 100
沓 100
ĕ 100
탕 100
컽 100
죆 100
筍 100
祅 100
燙 100
濃 100
榆 100
喙 100
ヰ 100
〡 100
 100
 100
특 100
쟀 100
쓓 100
閱 100
迸 100
跚 100
疥 100
璉 100
殭 100
樁 100
憲 100
헼 100
럸 100
鳴 100
飄 100
肞 100
笴 100
泞 100
搽 100
宥 100
倭 100
 100
쏃 100
锆 100
螝 100
芸 100
肬 100
じ 100
ļ 100
샷 100
돫 100
닖 100
ꋨ 100
镭 100
鏢 100
讥 100
胯 100
胧 100
炔 100
掴 100
寰 100
墮 100
ﺺ 100
 100
뎱 100
鲷 100
髋 100
螠 100
筱 100
琎 100
搪 100
喺 100
メ 100
ﺡ 100
 100
싾 100
솮 100
뫽 100
룺 100
뢧 100
돋 100
铂 100
胔 100
涓 100
㗎 100
㈱ 100
ゞ 100
ﾅ 100
 100
 100
 100
틪 100
쯉 100
삸 100
뾭 100
蜇 100
縀 100
╣ 100
폒 100
뒩 100
蹴 100
蛭 100
珃 100
榛 100
偎 100
侃 100
Ｋ 100
ﮑ 100
 100
헤 100
뒺 100
嶺 100
娛 100
ű 100
覽 100
蘸 100
苣 100
纭 100
絏 100
擬 100
戍 100
帷 100
屄 100
尓 100
兀 100
ґ 100
 100
튶 100
鹈 100
趙 100
蜢 100
糧 100
畀 100
捶 100
岡 100
併 100
╬ 100
ﭼ 100
훹 100
钍 100
蚌 100
眺 100
坷 100
 100
 100
ퟝ 100
鸳 100
緗 100
緑 100
瞏 100
琘 100
猝 100
狶 100
澎 100
氙 100
 100
쯞 100
짾 100
워 100
鸯 100
荚 100
縒 100
甅 100
宕 100
풾 100
틾 100
쿄 100
엣 100
뢲 100
麾 100
錶 100
诃 100
笠 100
癵 100
敝 100
✓ 100
 100
뾲 100
뾱 100
뗾 100
蹒 100
砯 100
枑 100
佯 100
Ė 100
＄ 100
ﺽ 100
鳖 100
馴 100
鉤 100
琜 100
樽 100
喹 100
ﺵ 100
 100
춵 100
ꎱ 100
鲶 100
貞 100
艶 100
璽 100
欖 100
佤 100
 100
쿣 100
陑 100
铯 100
讧 100
覂 100
樟 100
楔 100
僭 100
け 100
∶ 100
훍 100
첰 100
飢 100
縷 100
笿 100
灑 100
曬 100
哌 100
佴 100
ﮕ 100
 100
싻 100
驿 100
邃 100
綴 100
粂 100
あ 100
႒ 100
џ 100
폗 100
틇 100
웞 100
듌 100
鴉 100
飚 100
蟆 100
睨 100
癟 100
璐 100
喏 100
 100
별 100
뒲 100
脿 100
彆 100
嗪 100
ퟳ 100
징 100
의 100
쒼 100
鬣 100
臃 100
絤 100
璚 100
壘 100
兌 100
す 100
◂ 100
╰ 100
쏎 100
뛒 100
놡 100
続 100
癲 100
櫻 100
庐 100
嫔 100
嚨 100
嚓 100
̈ 100
 100
 100
 100
짢 100
솥 100
룏 100
냱 100
龜 100
翹 100
纒 100
紗 100
猬 100
唄 100
۱ 100
쫷 100
쇓 100
鴿 100
茴 100
籐 100
癢 100
揩 100
垀 100
색 100
诛 100
蓟 100
臩 100
窿 100
摯 100
怮 100
弭 100
塢 100
ﰲ 100
 100
缰 100
玥 100
犊 100
巳 100
岐 100
 100
 100
떮 100
鳃 100
邢 100
邑 100
篈 100
濫 100
棠 100
嘔 100
嗤 100
啵 100
傣 100
 100
쏮 100
샶 100
뇀 100
薦 100
蔣 100
脄 100
绮 100
砋 100
瑛 100
涮 100
彿 100
廈 100
垠 100
Ｐ 100
제 100
쎦 100
삡 100
鞘 100
闵 100
礩 100
砲 100
瘁 100
氚 100
啻 100
匍 100
⇒ 100
ﺆ 100
 100
 100
 100
첤 100
쎰 100
뎼 100
냥 100
鹕 100
闩 100
膺 100
绢 100
縉 100
剐 100
욪 100
뗴 100
螖 100
腩 100
痿 100
珋 100
猡 100
橾 100
恬 100
媾 100
 100
 100
폺 100
틵 100
닱 100
麝 100
鈔 100
躍 100
罖 100
磊 100
廂 100
侖 100
 100
ힿ 100
쯯 100
몲 100
黍 100
酩 100
讬 100
蠱 100
蛰 100
舦 100
繻 100
簎 100
瞑 100
杵 100
搗 100
掮 100
懧 100
ㄣ 100
Њ 100
ų 100
 100
훬 100
췓 100
욾 100
릵 100
耜 100
秅 100
摹 100
寮 100
匾 100
쿁 100
즿 100
黜 100
镎 100
锹 100
衒 100
粱 100
粑 100
砏 100
眒 100
珑 100
⑼ 100
쫨 100
쟅 100
쓋 100
볗 100
鲭 100
賄 100
豈 100
蚚 100
葆 100
腇 100
肽 100
穎 100
硒 100
怦 100
崴 100
噱 100
◊ 100
╢ 100
탆 100
쯁 100
삶 100
삣 100
靳 100
葺 100
璧 100
毖 100
徳 100
垣 100
 100
탩 100
짣 100
엓 100
뷤 100
맠 100
럽 100
闊 100
锑 100
郔 100
蹿 100
薮 100
縛 100
砉 100
搀 100
壺 100
坳 100
剎 100
 100
펯 100
쟔 100
ꎿ 100
顫 100
蔷 100
腱 100
絃 100
砩 100
瑍 100
漓 100
涣 100
掖 100
婬 100
姘 100
丶 100
└ 100
떿 100
邵 100
遷 100
蔥 100
綾 100
疣 100
獠 100
屆 100
俚 100
り 100
ģ 100
 100
 100
한 100
뫡 100
돊 100
駐 100
顛 100
铠 100
赻 100
腨 100
楞 100
ʼ 100
 100
 100
 100
쾦 100
쮥 100
虳 100
緄 100
盋 100
玙 100
攜 100
儂 100
ㄉ 100
ニ 100
▌ 100
ｄ 100
 100
 100
틂 100
뻾 100
뻲 100
锲 100
訇 100
蜊 100
聶 100
癞 100
漁 100
ѓ 100
 100
쮿 100
뻣 100
뷒 100
닥 100
阙 100
羙 100
搡 100
廟 100
啾 100
햰 100
컓 100
뿸 100
뇙 100
謙 100
蚣 100
粇 100
箇 100
杳 100
摺 100
壑 100
偌 100
⑽ 100
￭ 100
 100
쿘 100
뚥 100
颌 100
蜈 100
蚜 100
糠 100
砜 100
婕 100
 100
 100
싪 100
韶 100
錫 100
銳 100
聾 100
缤 100
忿 100
弈 100
ス 100
┯ 100
Ｓ 100
 100
贄 100
诿 100
藓 100
葳 100
胭 100
笈 100
秧 100
睪 100
哝 100
勛 100
ヾ 100
ṡ 100
︸ 100
쯜 100
잣 100
쒥 100
맖 100
낧 100
頸 100
铤 100
銬 100
诩 100
臻 100
纞 100
⇐ 100
ⅹ 100
 100
폕 100
쏍 100
뎢 100
衭 100
蟾 100
磚 100
瘓 100
梧 100
嬌 100
ん 100
つ 100
Ｏ 100
 100
 100
후 100
퇵 100
쿤 100
蜿 100
蜒 100
縣 100
紛 100
禥 100
璝 100
漾 100
抡 100
徇 100
★ 100
행 100
鹭 100
駁 100
飆 100
錦 100
轶 100
軗 100
赅 100
賂 100
胫 100
耘 100
繪 100
涇 100
憫 100
悵 100
嘆 100
咿 100
ホ 100
ナ 100
; 100
튡 100
췧 100
쓍 100
듼 100
譟 100
缭 100
纔 100
笹 100
祁 100
甊 100
涟 100
檯 100
杞 100
暢 100
噻 100
俴 100
췡 100
铰 100
遽 100
苑 100
篓 100
湃 100
岬 100
ㄧ 100
╯ 100
٫ 100
쳀 100
쪬 100
웛 100
뺮 100
뇝 100
遐 100
菅 100
糞 100
祢 100
矜 100
氘 100
旯 100
哞 100
ﾙ 100
 100
험 100
헗 100
쯝 100
짥 100
쟕 100
얹 100
룩 100
ꏝ 100
陕 100
羬 100
籩 100
窺 100
璨 100
泭 100
殓 100
喎 100
啫 100
њ 100
Џ 100
 100
싹 100
蝌 100
蚝 100
虜 100
苜 100
绚 100
祍 100
礎 100
矽 100
眳 100
畐 100
瑩 100
珼 100
楝 100
呒 100
ジ 100
❏ 100
 100
 100
듟 100
鹊 100
鸨 100
鯊 100
陲 100
锉 100
蚪 100
礟 100
硓 100
湧 100
抯 100
峽 100
婢 100
呇 100
ご 100
┷ 100
ک 100
ﺚ 100
쾿 100
싓 100
ꋩ 100
頒 100
豺 100
蜃 100
莴 100
璊 100
狾 100
泯 100
泮 100
氡 100
桦 100
晉 100
攬 100
へ 100
║ 100
⋯ 100
ﾁ 100
 100
킶 100
뮬 100
돟 100
骁 100
舘 100
堋 100
嚐 100
ケ 100
‟ 100
‍ 100
Ψ 100
 100
슩 100
뾰 100
鹃 100
蹕 100
裱 100
蓿 100
甶 100
拗 100
吽 100
侚 100
☆ 100
ˆ 100
ľ 100
Ğ 100
ﻆ 100
 100
죀 100
은 100
뛳 100
듢 100
鹬 100
镅 100
錘 100
纰 100
漪 100
漉 100
吖 100
匝 100
わ 100
ჩ 100
 100
 100
럼 100
돦 100
饯 100
螫 100
羨 100
瞽 100
溥 100
撓 100
徨 100
孑 100
塚 100
囔 100
Ｎ 100
 100
헉 100
믦 100
鹳 100
鈕 100
糵 100
粿 100
窰 100
癱 100
疊 100
獴 100
渤 100
昹 100
嗚 100
ろ 100
ǿ 100
Ǧ 100
쯂 100
즪 100
죩 100
잽 100
국 100
锵 100
豢 100
螣 100
艷 100
糜 100
籁 100
癣 100
珆 100
巖 100
佘 100
Ｉ 100
볧 100
벩 100
뇡 100
錨 100
釀 100
軀 100
蜍 100
睚 100
畒 100
擱 100
拈 100
叟 100
亘 100
ㄑ 100
お 100
 100
 100
튺 100
췚 100
믳 100
닂 100
뇗 100
郴 100
蛹 100
粤 100
笙 100
碝 100
滯 100
栁 100
帛 100
ㄚ 100
ŏ 100
킵 100
룻 100
냳 100
辊 100
肓 100
耑 100
缈 100
砧 100
玸 100
潑 100
泷 100
懇 100
夙 100
唵 100
❑ 100
☐ 100
① 100
､ 100
 100
 100
뻚 100
輻 100
蜆 100
紁 100
秪 100
嚯 100
仟 100
サ 100
╪ 100
 100
약 100
쏧 100
새 100
돘 100
鲔 100
闡 100
躓 100
貫 100
綜 100
盌 100
燎 100
暍 100
擢 100
撈 100
拄 100
哽 100
儸 100
ㄟ 100
ˮ 100
 100
 100
 100
좯 100
얣 100
냁 100
ꏛ 100
铉 100
鏟 100
鄧 100
眥 100
擤 100
Ⅱ 100
ǒ 100
ŭ 100
﹉ 100
 100
 100
뿱 100
믃 100
鲣 100
靚 100
铱 100
葹 100
苺 100
臫 100
耚 100
羯 100
秏 100
吔 100
 100
 100
 100
짠 100
쟈 100
매 100
럟 100
돔 100
阰 100
鍛 100
羭 100
籹 100
穓 100
穀 100
祏 100
皗 100
痍 100
疝 100
攘 100
撅 100
捋 100
壇 100
ʻ 100
ť 100
 100
 100
ퟴ 100
쯃 100
뻺 100
ꎲ 100
麸 100
餡 100
荤 100
肄 100
綪 100
綤 100
祑 100
碔 100
瞓 100
沏 100
斬 100
悝 100
뚬 100
蹶 100
蹑 100
緓 100
綽 100
絨 100
糉 100
竺 100
穢 100
瑾 100
煦 100
櫥 100
嘍 100
ォ 100
ﺈ 100
 100
 100
헜 100
햬 100
킰 100
鬃 100
颶 100
芛 100
纐 100
籤 100
篑 100
璀 100
氩 100
咂 100
▫ 100
پ 100
٭ 100
풣 100
럂 100
鸮 100
颧 100
霖 100
鉗 100
酣 100
踱 100
貶 100
螢 100
緻 100
簾 100
箩 100
枙 100
杻 100
敘 100
搵 100
岚 100
╈ 100
қ 100
ĺ 100
 100
첱 100
쯩 100
뮾 100
뚴 100
돜 100
髻 100
驢 100
鍊 100
貍 100
觑 100
胴 100
纶 100
縊 100
簙 100
瞋 100
玖 100
淪 100
嘩 100
嗳 100
႔ 100
 100
 100
탳 100
쫅 100
쏯 100
뺼 100
듖 100
냔 100
馀 100
锏 100
鎔 100
諧 100
蝕 100
舀 100
筂 100
笰 100
睥 100
眃 100
皎 100
玦 100
潺 100
梑 100
拸 100
孱 100
嫣 100
Ż 100
ĝ 100
ﻁ 100
 100
 100
폪 100
첼 100
뿤 100
뿗 100
볢 100
믊 100
뗮 100
관 100
鶴 100
阜 100
醱 100
褛 100
臸 100
緋 100
絆 100
粆 100
桄 100
昙 100
凈 100
え 100
② 100
﹜ 100
 100
캱 100
죓 100
쟯 100
욭 100
쇞 100
떢 100
輔 100
訣 100
荟 100
膦 100
耆 100
牦 100
厖 100
⊥ 100
ﻇ 100
횿 100
쟼 100
웵 100
뚮 100
듷 100
龈 100
顱 100
覜 100
藕 100
菸 100
荞 100
腆 100
縐 100
竕 100
竅 100
皺 100
皌 100
燉 100
幔 100
屜 100
囧 100
嗖 100
ў 100
쳯 100
쪻 100
얪 100
사 100
룈 100
鲟 100
銜 100
膩 100
纜 100
繳 100
綵 100
籜 100
瞿 100
甦 100
泚 100
彤 100
囑 100
劵 100
ほ 100
ⅰ 100
ｅ 100
 100
 100
 100
쾡 100
캲 100
쯒 100
생 100
럗 100
닍 100
驟 100
陓 100
賢 100
谧 100
熠 100
滲 100
櫈 100
戾 100
恀 100
忐 100
塾 100
叻 100
円 100
 100
헇 100
컌 100
췬 100
듈 100
뒵 100
驮 100
閑 100
镐 100
貿 100
纖 100
緅 100
竤 100
癩 100
玭 100
巍 100
ゃ 100
ϖ 100
 100
톻 100
쾷 100
벬 100
믟 100
럊 100
饕 100
莹 100
繃 100
糷 100
笢 100
祐 100
碩 100
烽 100
淲 100
垩 100
叵 100
￥ 100
 100
퓣 100
쓁 100
뮽 100
黝 100
饑 100
餮 100
謗 100
莠 100
芲 100
祔 100
碲 100
矾 100
盪 100
痲 100
璓 100
猠 100
炕 100
扈 100
╭ 100
 100
붸 100
붢 100
떻 100
닦 100
鲛 100
馮 100
餌 100
鞣 100
锺 100
鋸 100
鉛 100
豎 100
螡 100
笱 100
淬 100
怏 100
Ҫ 100
﹖ 100
 100
쳨 100
뮭 100
릳 100
銘 100
芔 100
耨 100
笭 100
竮 100
碙 100
砥 100
狞 100
澆 100
峦 100
囹 100
侗 100
 100
 100
 100
째 100
쟙 100
자 100
삹 100
삫 100
뢡 100
뗪 100
뇚 100
낯 100
鬓 100
镊 100
铧 100
迺 100
貉 100
蓙 100
荔 100
篏 100
穫 100
瘴 100
檸 100
朸 100
昊 100
擲 100
忑 100
圄 100
バ 100
ˉ 100
Ｔ 100
 100
 100
벷 100
鷗 100
魷 100
鈍 100
釬 100
訟 100
衾 100
螈 100
穖 100
磀 100
痨 100
淼 100
沁 100
樑 100
懺 100
徜 100
崆 100
嚒 100
傖 100
ٓ 100
 100
ﺞ 100
 100
 100
 100
쟰 100
웭 100
쓤 100
솺 100
삢 100
볽 100
뗆 100
镓 100
釆 100
蹉 100
襁 100
絚 100
穞 100
砐 100
睑 100
痼 100
玵 100
楂 100
桉 100
啉 100
佻 100
╜ 100
∘ 100
ə 100
Ń 100
 100
풹 100
틭 100
전 100
욣 100
뷐 100
볝 100
럛 100
뗸 100
骛 100
赭 100
贓 100
腼 100
稬 100
畿 100
珮 100
啱 100
ㄥ 100
ί 100
Ξ 100
Ｆ 100
 100
 100
쯚 100
엾 100
럥 100
냻 100
龛 100
馄 100
鏽 100
鈾 100
覃 100
荃 100
柀 100
恁 100
吆 100
ラ 100
┎ 100
≧ 100
 100
 100
 100
 100
폻 100
쟄 100
铊 100
踐 100
贲 100
褴 100
薏 100
蔔 100
芖 100
穛 100
盅 100
瑅 100
琂 100
犒 100
妗 100
噸 100
ト 100
═ 100
ﺹ 100
ퟪ 100
뿂 100
늰 100
납 100
雍 100
鑿 100
诣 100
譴 100
蝾 100
篴 100
矍 100
孖 100
奚 100
囡 100
嗰 100
冪 100
▄ 100
ퟋ 100
틐 100
톮 100
얯 100
뷔 100
벳 100
믆 100
鸾 100
鳐 100
谀 100
螞 100
胛 100
穘 100
穐 100
祕 100
磝 100
瞺 100
睝 100
皙 100
畓 100
珞 100
玆 100
煅 100
焗 100
潸 100
沅 100
枻 100
攥 100
抰 100
弋 100
╟ 100
⑾ 100
 100
 100
 100
죱 100
용 100
믑 100
뫱 100
陬 100
陝 100
閨 100
铌 100
钸 100
螌 100
籈 100
窕 100
秂 100
甃 100
瑣 100
燴 100
桢 100
惴 100
堑 100
偆 100
┶ 100
┈ 100
쳆 100
쪴 100
즺 100
쎲 100
쇱 100
믒 100
릴 100
떲 100
ꎳ 100
ꋪ 100
隴 100
遑 100
輿 100
谏 100
诌 100
藹 100
篋 100
筵 100
狽 100
毆 100
樵 100
暄 100
揾 100
挼 100
扞 100
憊 100
刍 100
エ 100
̶ 100
̆ 100
 100
ힶ 100
풥 100
폩 100
톫 100
쮶 100
죢 100
웄 100
연 100
쇅 100
뻴 100
뻫 100
볋 100
齋 100
鱷 100
铈 100
跩 100
脒 100
纉 100
窈 100
眀 100
玪 100
玑 100
玐 100
毓 100
ャ 100
↖ 100
 100
 100
 100
 100
 100
횫 100
햲 100
폋 100
뻆 100
馳 100
闱 100
趸 100
螛 100
茼 100
聳 100
縤 100
篙 100
禹 100
磖 100
眞 100
痂 100
猀 100
燦 100
炰 100
捻 100
慇 100
惆 100
恸 100
嘮 100
咡 100
丕 100
ㄘ 100
Ř 100
 100
 100
 100
 100
 100
 100
 100
협 100
黐 100
鹹 100
鳅 100
鉊 100
谄 100
苷 100
苄 100
矬 100
玶 100
湎 100
橆 100
捩 100
庵 100
岘 100
ィ 100
┾ 100
∵ 100
ﺂ 100
行 100
 100
 100
폤 100
퇎 100
컺 100
췌 100
싌 100
쇽 100
ꏢ 100
駭 100
饨 100
韭 100
镬 100
铪 100
觕 100
衩 100
蟠 100
耄 100
翧 100
缥 100
緼 100
綟 100
篘 100
筳 100
瞨 100
琁 100
狰 100
掇 100
徉 100
屙 100
俅 100
ㄩ 100
ㄌ 100
→ 100
￡ 100
Ｘ 100
 100
 100
쏤 100
뺢 100
ꎴ 100
陎 100
赳 100
衱 100
蕨 100
箂 100
穕 100
痺 100
欽 100
帼 100
啕 100
呂 100
仃 100
ヒ 100
ﺊ 100
 100
 100
 100
헥 100
얱 100
붾 100
뫷 100
놰 100
냘 100
頰 100
靛 100
鎗 100
郸 100
遼 100
诟 100
誡 100
蠄 100
蛂 100
臍 100
胥 100
繬 100
綻 100
窯 100
瞯 100
眻 100
盂 100
皚 100
瑼 100
瑆 100
槳 100
斓 100
媞 100
坩 100
俀 100
⑿ 100
ﺅ 100
 100
훅 100
햩 100
퓠 100
폢 100
퇌 100
엄 100
쓹 100
서 100
뿒 100
구 100
駝 100
飕 100
韁 100
釉 100
邨 100
遨 100
谔 100
芅 100
膘 100
翎 100
繵 100
禔 100
祗 100
瑁 100
焖 100
淵 100
浃 100
昇 100
揸 100
嶄 100
ゥ 100
ơ 100
ﾂ 100
 100
쟤 100
얨 100
龋 100
阖 100
荨 100
绫 100
簗 100
瞟 100
棧 100
梓 100
捌 100
彙 100
庖 100
嚕 100
┢ 100
ĉ 100
 100
 100
훀 100
쪪 100
엨 100
없 100
쓈 100
쏞 100
쇨 100
뷺 100
뫛 100
놥 100
飜 100
閘 100
铣 100
轍 100
跫 100
褻 100
螕 100
耴 100
硌 100
瞡 100
瘙 100
璞 100
燮 100
涖 100
沭 100
殒 100
摞 100
戌 100
岍 100
剒 100
侩 100
▆ 100
∫ 100
۳ 100
 100
 100
펿 100
쫄 100
샮 100
계 100
鬚 100
醍 100
諉 100
螆 100
篪 100
疶 100
擰 100
忤 100
嬤 100
姪 100
囂 100
叱 100
剋 100
ּ 100
̨ 100
Ｍ 100
Ｇ 100
︳ 100
年 100
 100
 100
 100
 100
췘 100
닊 100
陔 100
轭 100
諦 100
袄 100
蠍 100
羧 100
緍 100
畄 100
璹 100
樸 100
桓 100
堀 100
囿 100
咣 100
 100
헧 100
쫎 100
뺵 100
뛣 100
뎪 100
닕 100
驸 100
韻 100
鑄 100
诨 100
覓 100
硷 100
盚 100
皋 100
瘍 100
痤 100
璍 100
玼 100
玨 100
燼 100
瀆 100
沆 100
柵 100
柊 100
摻 100
嶼 100
寢 100
噤 100
呯 100
ド 100
› 100
ႍ 100
췞 100
짅 100
쇺 100
볶 100
룊 100
럋 100
랳 100
돛 100
늸 100
뇃 100
颞 100
閹 100
锶 100
钜 100
鎰 100
郞 100
轎 100
耷 100
緬 100
畛 100
猕 100
歎 100
壬 100
ㄒ 100
ソ 100
Ｌ 100
 100
ힳ 100
폷 100
틖 100
조 100
붶 100
떶 100
냷 100
鸢 100
轾 100
螚 100
莖 100
绐 100
綢 100
篤 100
禪 100
盠 100
畚 100
涧 100
浬 100
沂 100
歃 100
徏 100
彸 100
嗆 100
倌 100
俪 100
俎 100
♥ 100
┚ 100
ϕ 100
Ǻ 100
Ā 100
 100
 100
 100
 100
 100
 100
 100
 100
헖 100
쫦 100
쟭 100
쟪 100
쏪 100
믔 100
경 100
髡 100
隕 100
釁 100
轄 100
蹼 100
萪 100
聐 100
羈 100
繆 100
綸 100
硖 100
瘂 100
瑌 100
猘 100
渦 100
槃 100
柩 100
怅 100
廻 100
噹 100
̣ 100
 100
풨 100
컪 100
진 100
지 100
엎 100
룣 100
떰 100
돴 100
뎭 100
ꎵ 100
镕 100
鐲 100
衹 100
蜱 100
聒 100
绉 100
禟 100
矯 100
瓿 100
澹 100
啷 100
▅ 100
̄ 100
ư 100
Ő 100
ｏ 100
﹕ 100
ﭽ 100
 100
 100
퓆 100
잸 100
얭 100
쎺 100
슸 100
법 100
미 100
대 100
鳌 100
隽 100
辕 100
跂 100
趼 100
肕 100
綝 100
祛 100
矰 100
瘡 100
瑻 100
琗 100
珥 100
瀣 100
泾 100
氖 100
楨 100
楓 100
撷 100
弇 100
嫡 100
囮 100
噼 100
哧 100
俨 100
佗 100
Ľ 100
 100
 100
쿰 100
췦 100
죊 100
좰 100
룢 100
룖 100
럭 100
냓 100
鸬 100
諫 100
茭 100
羸 100
纣 100
絢 100
糃 100
秎 100
痌 100
畕 100
瓀 100
琄 100
珉 100
榉 100
旮 100
懑 100
慵 100
徕 100
嚮 100
冼 100
ט 100
ｆ 100
 100
 100
풢 100
쳚 100
쳇 100
쇁 100
소 100
뻌 100
駱 100
铋 100
钯 100
趨 100
訕 100
藷 100
蕙 100
膍 100
脡 100
聼 100
篶 100
筠 100
窽 100
疸 100
犽 100
抿 100
嘧 100
嗶 100
咭 100
勍 100
③ 100
Ⅲ 100
˗ 100
﹟ 100
 100
 100
 100
퇈 100
웝 100
선 100
馥 100
颱 100
韌 100
闰 100
迳 100
迩 100
踮 100
袧 100
蠹 100
絪 100
疨 100
甤 100
濱 100
漬 100
沱 100
毎 100
斛 100
幟 100
増 100
噘 100
呤 100
卞 100
卍 100
㏕ 100
ヅ 100
∍ 100
 100
 100
헃 100
쿽 100
쳝 100
죟 100
좪 100
엋 100
쎢 100
신 100
상 100
뿷 100
뷯 100
맑 100
뇆 100
과 100
鲽 100
雛 100
谑 100
誹 100
薙 100
蔫 100
脲 100
缬 100
籬 100
竄 100
窪 100
砝 100
畊 100
獁 100
犄 100
瀕 100
濡 100
濛 100
摟 100
婌 100
売 100
堈 100
⒀ 100
← 100
‑ 100
ﱃ 100
 100
 100
슢 100
뾽 100
랧 100
뇎 100
기 100
ꇁ 100
黩 100
韃 100
锒 100
醐 100
諮 100
蔆 100
芷 100
縸 100
篖 100
笻 100
稴 100
砪 100
癔 100
犟 100
氈 100
槐 100
曠 100
暽 100
晖 100
擼 100
姣 100
奂 100
呾 100
倱 100
ㄅ 100
ぷ 100
ふ 100
┻ 100
љ 100
﹞ 100
 100
 100
퓗 100
퓈 100
탣 100
컲 100
쟃 100
엶 100
엧 100
쓌 100
쏔 100
삺 100
뇵 100
鸚 100
鑲 100
耂 100
缨 100
絊 100
粕 100
碕 100
皓 100
洷 100
桵 100
暱 100
挎 100
慚 100
尻 100
噌 100
ㄎ 100
ヮ 100
リ 100
ツ 100
ゆ 100
▬ 100
ď 100
 100
﹎ 100
 100
퇡 100
탗 100
춦 100
쳸 100
영 100
엜 100
쒧 100
보 100
루 100
뒰 100
닋 100
驷 100
閥 100
逖 100
迖 100
蝰 100
莪 100
羇 100
硚 100
痥 100
疦 100
琠 100
犷 100
濺 100
晝 100
攞 100
戡 100
嵋 100
堰 100
俙 100
佪 100
ハ 100
Ⅰ 100
․ 100
ʺ 100
 100
 100
 100
춧 100
쮡 100
좦 100
욿 100
쓱 100
쏽 100
시 100
솴 100
붼 100
뫠 100
뚪 100
듧 100
듅 100
뎩 100
뇴 100
ꋫ 100
ꇰ 100
踉 100
趺 100
腚 100
肱 100
繚 100
綱 100
粁 100
禤 100
砓 100
眢 100
盰 100
牍 100
燬 100
炵 100
淝 100
攢 100
塋 100
哂 100
倜 100
█ 100
┑ 100
Ň 100
Ķ 100
ﻸ 100
 100
 100
 100
쯭 100
엻 100
쓽 100
뿅 100
뷃 100
볉 100
무 100
냎 100
낤 100
鹼 100
鹞 100
邝 100
萱 100
綺 100
籟 100
簪 100
箏 100
稟 100
碽 100
砬 100
瞣 100
皐 100
燻 100
棲 100
枱 100
昜 100
劊 100
佷 100
♂ 100
Қ 100
ĸ 100
﹄ 100
不 100
 100
 100
ힽ 100
퓡 100
품 100
탈 100
컇 100
죄 100
적 100
쓺 100
쒹 100
뷫 100
물 100
맇 100
럴 100
럎 100
뗽 100
齁 100
麩 100
鹚 100
鵡 100
馱 100
飪 100
闌 100
钏 100
鎚 100
衢 100
蛔 100
荜 100
舗 100
琕 100
爍 100
瀉 100
澀 100
洘 100
泔 100
桀 100
昕 100
摂 100
忳 100
峥 100
囝 100
嘯 100
刎 100
伫 100
伉 100
ぁ 100
̵ 100
Ű 100
 100
 100
 100
 100
 100
효 100
폄 100
틝 100
캹 100
재 100
룚 100
뢹 100
랬 100
鹜 100
鴻 100
鲉 100
鬲 100
醃 100
辮 100
賒 100
袂 100
蝮 100
舖 100
舐 100
繡 100
籋 100
砣 100
璇 100
珸 100
泠 100
氫 100
桡 100
栀 100
揄 100
屾 100
尪 100
宎 100
娈 100
哐 100
呲 100
剷 100
倳 100
伬 100
ば 100
ệ 100
ｇ 100
ﲔ 100
 100
 100
킪 100
馭 100
铿 100
钒 100
贅 100
诙 100
蘆 100
羥 100
罽 100
緇 100
禯 100
痻 100
疍 100
瓒 100
璂 100
瑄 100
琭 100
玜 100
猂 100
瀬 100
滂 100
殚 100
挾 100
挲 100
宦 100
娓 100
壩 100
劂 100
╊ 100
‌ 100
Ⴍ 100
۷ 100
ﮪ 100
 100
 100
 100
 100
 100
햭 100
쿃 100
캷 100
춰 100
쯌 100
쪫 100
싈 100
뢰 100
뚲 100
鷓 100
魟 100
骠 100
関 100
酉 100
譚 100
虷 100
蓼 100
苓 100
舛 100
脋 100
絫 100
篗 100
稧 100
砦 100
眣 100
甁 100
玮 100
浜 100
毚 100
櫚 100
槲 100
擘 100
屐 100
埚 100
啖 100
哏 100
卅 100
ァ 100
ǖ 100
Ĭ 100
ﺉ 100
 100
 100
ퟠ 100
퓷 100
킦 100
춲 100
쯡 100
즯 100
중 100
쏁 100
싷 100
싅 100
샡 100
뾳 100
뮢 100
듏 100
냕 100
ꋅ 100
頏 100
钹 100
钇 100
釴 100
跄 100
贍 100
谂 100
諳 100
誦 100
詠 100
袅 100
萼 100
腭 100
肏 100
羌 100
绦 100
絛 100
糸 100
稷 100
稭 100
祺 100
礷 100
碪 100
盃 100
珺 100
珹 100
泐 100
桲 100
搧 100
戕 100
戆 100
嶙 100
岀 100
噫 100
卺 100
傧 100
▲ 100
╋ 100
╄ 100
⊙ 100
Ј 100
Ｒ 100
ﻍ 100
ﲑ 100
 100
 100
 100
 100
 100
 100
ퟎ 100
퓭 100
퓤 100
폞 100
퇦 100
첻 100
잳 100
잫 100
식 100
뿼 100
뿓 100
몧 100
릧 100
뢿 100
뎿 100
담 100
놲 100
놫 100
龔 100
鑑 100
邧 100
貊 100
蚐 100
藿 100
臱 100
腴 100
肂 100
紡 100
硁 100
畝 100
橈 100
樞 100
攏 100
嫒 100
壅 100
嚥 100
噠 100
咝 100
ロ 100
々 100
̧ 100
ﺦ 100
폆 100
싶 100
솶 100
뿥 100
붣 100
뗼 100
듔 100
뒮 100
ꎶ 100
黴 100
雉 100
阄 100
鍔 100
诂 100
翋 100
絙 100
粼 100
稶 100
礴 100
甑 100
甀 100
璛 100
汒 100
栠 100
恻 100
彶 100
峋 100
婵 100
奌 100
囪 100
嗄 100
刓 100
俋 100
俇 100
〨 100
⒁ 100
ႃ 100
า 100
ғ 100
 100
 100
 100
 100
훡 100
웜 100
쓠 100
슾 100
맕 100
듮 100
骜 100
韜 100
锨 100
锕 100
跶 100
蘊 100
膒 100
胐 100
纍 100
縈 100
絵 100
絴 100
籵 100
籓 100
疖 100
櫢 100
槓 100
椐 100
嫦 100
壟 100
埻 100
卟 100
グ 100
ٕ 100
ל 100
ﳍ 100
 100
 100
 100
 100
 100
 100
헓 100
틎 100
웁 100
싣 100
슯 100
뗵 100
뗦 100
듛 100
ꎷ 100
黔 100
鳉 100
鲂 100
餃 100
阨 100
钕 100
鑫 100
醌 100
貘 100
裟 100
袈 100
蝓 100
葮 100
芫 100
芞 100
膈 100
耫 100
绀 100
糦 100
竇 100
秶 100
碜 100
瞼 100
獰 100
瀏 100
澪 100
潟 100
泗 100
敔 100
捺 100
慫 100
帑 100
妩 100
嘹 100
冽 100
傥 100
伢 100
ぜ 100
△ 100
י 100
̉ 100
ﳊ 100
 100
 100
 100
 100
 100
퇄 100
첿 100
쟢 100
싙 100
돱 100
닽 100
뇉 100
鼴 100
鐮 100
赀 100
豇 100
襞 100
衪 100
蛞 100
薜 100
荇 100
茍 100
翟 100
締 100
糛 100
穡 100
稯 100
瞇 100
栎 100
枸 100
杈 100
朧 100
斂 100
敃 100
懿 100
廄 100
巿 100
孓 100
嘤 100
啐 100
唳 100
呓 100
俳 100
ヶ 100
シ 100
〖 100
‹ 100
ｒ 100
理 100
 100
 100
 100
 100
 100
 100
 100
훭 100
헪 100
탟 100
킹 100
쿎 100
쯺 100
죜 100
붺 100
랹 100
돳 100
뇔 100
ꎪ 100
ꋆ 100
齣 100
鳶 100
鰍 100
霎 100
陞 100
钅 100
釭 100
迵 100
迡 100
蹺 100
菴 100
苝 100
胓 100
罿 100
缽 100
絩 100
紿 100
糤 100
籄 100
箝 100
笝 100
竝 100
碇 100
砺 100
痝 100
痐 100
畖 100
瓃 100
犴 100
煥 100
柘 100
晌 100
揶 100
嵩 100
変 100
埣 100
嘰 100
唛 100
俶 100
ㄜ 100
む 100
ぬ 100
➣ 100
┺ 100
℉ 100
ᆼ 100
ჭ 100
 100
立 100
헑 100
튥 100
쿌 100
첲 100
쫏 100
쏾 100
쇕 100
샃 100
뫨 100
럨 100
닾 100
고 100
ꋬ 100
鲫 100
饋 100
韬 100
镗 100
鄢 100
辋 100
贗 100
諺 100
詫 100
蚾 100
蚧 100
芘 100
胄 100
罠 100
纘 100
礿 100
磣 100
矇 100
狨 100
濾 100
泱 100
毂 100
桽 100
桴 100
査 100
朊 100
埮 100
坋 100
嗲 100
剕 100
㱮 100
∩ 100
￣ 100
ｓ 100
Ｖ 100
力 100
 100
 100
 100
 100
 100
 100
 100
 100
 100
 100
 100
 100
헵 100
학 100
튫 100
즡 100
정 100
쏣 100
샂 100
믪 100
뫆 100
몮 100
뎽 100
닞 100
냴 100
鷲 100
鳝 100
隋 100
闇 100
轼 100
谆 100
蛐 100
葭 100
葚 100
緞 100
糔 100
粽 100
祜 100
礨 100
癇 100
疪 100
琻 100
狍 100
瀟 100
槙 100
柲 100
柒 100
拻 100
弁 100
巔 100
嬲 100
媼 100
婀 100
堇 100
剜 100
冏 100
マ 100
ク 100
╖ 100
┿ 100
┐ 100
┌ 100
ộ 100
ŝ 100
ｉ 100
Ｊ 100
ﲤ 100
ﮏ 100
﨓 100
 100
 100
 100
 100
 100
퓀 100
틳 100
캾 100
잢 100
역 100
쓰 100
슲 100
쇲 100
뷥 100
鷸 100
鰻 100
阺 100
钋 100
钊 100
釐 100
辺 100
趹 100
谲 100
谒 100
蕈 100
蓑 100
蒄 100
葯 100
翊 100
簫 100
篩 100
箕 100
竛 100
禭 100
睴 100
産 100
甠 100
璵 100
璏 100
炷 100
滄 100
汩 100
暸 100
拫 100
墻 100
囯 100
呷 100
冞 100
ㄊ 100
〆 100
╴ 100
⒂ 100
ს 100
๐ 100
ע 100
̇ 100
ﮬ 100
 100
 100
 100
 100
ힹ 100
펱 100
퇗 100
쫟 100
쫞 100
심 100
솧 100
삥 100
뿝 100
벧 100
믕 100
러 100
뗶 100
ꏣ 100
鬾 100
顎 100
闔 100
铟 100
鑣 100
錐 100
輒 100
谯 100
蝼 100
蝸 100
莳 100
苒 100
艋 100
舢 100
膙 100
緘 100
紉 100
籲 100
筎 100
禘 100
睭 100
睤 100
眅 100
痸 100
猟 100
猋 100
瀨 100
濂 100
漤 100
洶 100
椽 100
栳 100
昴 100
擄 100
搾 100
揀 100
愫 100
忾 100
忖 100
弝 100
幵 100
巽 100
埂 100
囀 100
噙 100
冚 100
偃 100
╶ 100
╝ 100
گ 100
ө 100
Ţ 100
ﺥ 100
ﳉ 100
 100
 100
 100
 100
 100
컉 100
컁 100
웡 100
쓒 100
쇈 100
뫐 100
맃 100
럪 100
듒 100
뎰 100
뎨 100
냧 100
黒 100
鳎 100
鳀 100
鲯 100
鲇 100
飨 100
隠 100
铮 100
鎵 100
鋁 100
銹 100
辎 100
謐 100
詻 100
襠 100
蜁 100
舺 100
臛 100
羱 100
绺 100
縩 100
籊 100
筴 100
竘 100
祡 100
礘 100
磬 100
磞 100
碈 100
硏 100
睏 100
疉 100
珐 100
犰 100
熵 100
擞 100
恹 100
怆 100
嶋 100
峇 100
婖 100
墉 100
嗇 100
喫 100
咤 100
劦 100
ビ 100
ヌ 100
づ 100
━ 100
 100
 100
 100
 100
 100
ힲ 100
훗 100
틣 100
킺 100
쿾 100
쿙 100
삪 100
뺱 100
붳 100
맶 100
맱 100
맞 100
럙 100
뚹 100
냹 100
규 100
齪 100
黠 100
魉 100
驛 100
馍 100
飼 100
镫 100
锃 100
鏖 100
郲 100
跎 100
賍 100
豔 100
譫 100
螔 100
萵 100
芩 100
舮 100
膿 100
脛 100
縬 100
縥 100
縞 100
紏 100
糴 100
礢 100
硃 100
睱 100
瓂 100
璆 100
狳 100
犖 100
濘 100
滦 100
渧 100
桧 100
曜 100
曖 100
暿 100
悛 100
怩 100
忸 100
幡 100
嬗 100
埜 100
佟 100
仄 100
げ 100
☺ 100
⌒ 100
ħ 100
￮ 100
ﾄ 100
ｘ 100
Ｈ 100
 100
 100
 100
 100
 100
ퟑ 100
햴 100
하 100
쿩 100
쾺 100
췈 100
춿 100
첧 100
쓝 100
싀 100
뿵 100
뻽 100
볞 100
벹 100
럄 100
뒨 100
ꎹ 100
ꎮ 100
龅 100
鸸 100
鲹 100
鯉 100
锗 100
銖 100
郰 100
邈 100
逋 100
輓 100
跦 100
豉 100
谗 100
讦 100
蕪 100
蔭 100
苂 100
舠 100
膓 100
翳 100
绶 100
緯 100
秞 100
硋 100
畃 100
獃 100
犭 100
煨 100
濤 100
淖 100
淕 100
殄 100
椄 100
桁 100
晞 100
捈 100
弅 100
幂 100
峎 100
妺 100
妢 100
埼 100
啋 100
呴 100
呠 100
剀 100
ュ 100
テ 100
╲ 100
╅ 100
ề 100
ہ 100
́ 100
ｔ 100
 100
 100
 100
 100
 100
훏 100
탘 100
췽 100
쳏 100
첺 100
엯 100
쓳 100
솯 100
뿇 100
뺨 100
믅 100
뚺 100
뇦 100
권 100
개 100
ꎸ 100
鹋 100
騾 100
隍 100
镌 100
鉖 100
邬 100
辻 100
軞 100
赧 100
谵 100
诓 100
詮 100
袞 100
蚰 100
蘃 100
薑 100
蕞 100
蒐 100
荎 100
舫 100
纕 100
絘 100
篨 100
篟 100
笤 100
稔 100
碯 100
砱 100
砊 100
痚 100
琲 100
珁 100
獿 100
猓 100
潠 100
渚 100
淙 100
沪 100
汾 100
気 100
氐 100
棗 100
晏 100
撙 100
抶 100
愠 100
廝 100
幄 100
峪 100
婁 100
唻 100
勀 100
僮 100
侑 100
ヱ 100
╱ 100
ส 100
ร 100
۸ 100
Ї 100
̍ 100
ﻅ 100
ﲟ 100
例 100
 100
 100
 100
 100
 100
 100
 100
 100
퓃 100
풦 100
폱 100
펹 100
쯴 100
짯 100
직 100
죑 100
죍 100
웊 100
쒽 100
샲 100
뻦 100
붭 100
로 100
려 100
럌 100
떾 100
떬 100
듍 100
飒 100
靂 100
轲 100
誣 100
覚 100
衲 100
蚔 100
荏 100
腉 100
紌 100
篅 100
笶 100
稸 100
禸 100
祫 100
眡 100
盄 100
皏 100
癹 100
癨 100
痾 100
琰 100
玟 100
烨 100
濬 100
澗 100
滌 100
汛 100
毽 100
殁 100
榕 100
枒 100
挈 100
抎 100
幗 100
嵯 100
娆 100
妏 100
妎 100
嗱 100
凫 100
僥 100
偈 100
伔 100
╡ 100
⒃ 100
≡ 100
א 100
ũ 100
 100
ﻎ 100
女 100
 100
 100
 100
 100
 100
 100
 100
 100
 100
풿 100
쿐 100
을 100
유 100
운 100
쏭 100
쏬 100
쎣 100
럈 100
뚰 100
듴 100
돸 100
닸 100
교 100
齟 100
鬈 100
髏 100
靥 100
霏 100
阞 100
鎢 100
逑 100
趿 100
賵 100
誸 100
誥 100
蝨 100
蛟 100
蘚 100
蘅 100
莨 100
茩 100
耒 100
緔 100
綫 100
絯 100
簑 100
筧 100
稺 100
礥 100
礓 100
硙 100
砈 100
盝 100
疩 100
甬 100
琖 100
珗 100
淒 100
涫 100
殯 100
樺 100
椋 100
杓 100
暔 100
搥 100
掬 100
捫 100
憚 100
愜 100
庈 100
帔 100
夼 100
堎 100
囗 100
嗙 100
哿 100
吒 100
厝 100
凜 100
侐 100
ぼ 100
♢ 100
ẩ 100
႓ 100
ง 100
ค 100
ڑ 100
ǜ 100
ﭙ 100
 100
 100
 100
훵 100
횣 100
헌 100
합 100
폮 100
퇲 100
컢 100
쒨 100
싮 100
솩 100
뾢 100
볮 100
믏 100
믍 100
련 100
럦 100
떸 100
듕 100
돝 100
돗 100
도 100
뇛 100
ꎰ 100
齷 100
鹩 100
鹗 100
鸪 100
鲦 100
饬 100
鉣 100
鉆 100
鄯 100
躝 100
躅 100
蹚 100
踡 100
讴 100
譏 100
衆 100
蠣 100
蜧 100
蛁 100
萩 100
荊 100
膌 100
胨 100
羮 100
繭 100
緹 100
綰 100
綬 100
綛 100
絓 100
紺 100
籥 100
竬 100
窠 100
祿 100
瞈 100
盺 100
疻 100
猽 100
煕 100
瀰 100
澱 100
殲 100
殇 100
歆 100
橥 100
桤 100
栾 100
敨 100
攆 100
抻 100
怵 100
怢 100
媎 100
娑 100
妯 100
妪 100
堍 100
埏 100
圜 100
唰 100
勻 100
偻 100
倗 100
倓 100
ヵ 100
〒 100
┸ 100
④ 100
̌ 100
ǵ 100
ǘ 100
 100
 100
 100
 100
 100
 100
 100
 100
 100
 100
훼 100
헚 100
퓒 100
톩 100
키 100
짝 100
쏩 100
쎼 100
싋 100
싁 100
뾬 100
뻱 100
분 100
벿 100
독 100
돀 100
뎳 100
닁 100
늾 100
鹱 100
鹧 100
鲳 100
骝 100
駡 100
饽 100
闢 100
铳 100
郫 100
郇 100
遒 100
軋 100
躂 100
貯 100
覦 100
褔 100
蝽 100
蚗 100
蒞 100
萠 100
荌 100
芑 100
芍 100
芉 100
腣 100
脍 100
胪 100
翑 100
绻 100
纄 100
繹 100
籮 100
箆 100
筥 100
笚 100
穒 100
礮 100
磑 100
磉 100
碊 100
瘧 100
瘢 100
痮 100
瑽 100
猤 100
牾 100
熾 100
潼 100
溷 100
汙 100
槁 100
楹 100
枴 100
恅 100
帊 100
嶂 100
屣 100
寤 100
圉 100
噔 100
喑 100
効 100
儉 100
佝 100
伀 100
◇ 100
╩ 100
╀ 100
┛ 100
⒇ 100
⒅ 100
⁹ 100
้ 100
ව 100
ә 100
ά 100
ˣ 100
﹢ 100
﹏ 100
︿ 100
 100
 100
 100
 100
 100
횦 100
퇕 100
탯 100
킥 100
쿨 100
쮺 100
쮯 100
웲 100
엦 100
문 100
맷 100
랻 100
뛯 100
뗱 100
듩 100
鹂 100
鶯 100
鱸 100
魍 100
髯 100
隹 100
阯 100
鉅 100
醯 100
逡 100
輟 100
跖 100
衽 100
蓦 100
荀 100
苳 100
膞 100
腶 100
肨 100
縡 100
竽 100
窣 100
禴 100
祼 100
磴 100
磲 100
硆 100
砵 100
甕 100
玴 100
玀 100
猅 100
濯 100
湴 100
橳 100
桸 100
桠 100
枇 100
旌 100
帤 100
崠 100
噚 100
啁 100
呡 100
勦 100
儕 100
ㄍ 100
ギ 100
ぉ 100
◯ 100
╇ 100
┖ 100
≦ 100
ჳ 100
่ 100
০ 100
ג 100
ұ 100
ǽ 100
Ů 100
ĳ 100
ﻺ 100
ﭻ 100
留 100
 100
 100
 100
 100
 100
 100
 100
 100
ힸ 100
훶 100
회 100
헮 100
퓌 100
폁 100
틧 100
퇜 100
춭 100
청 100
쫠 100
짃 100
죦 100
쟦 100
으 100
위 100
웓 100
안 100
쒲 100
쒰 100
쏵 100
쇔 100
솵 100
솳 100
샢 100
므 100
명 100
뢤 100
래 100
뗋 100
놼 100
거 100
ꋭ 100
麂 100
鳚 100
駒 100
霭 100
阊 100
閡 100
铒 100
鍰 100
鈦 100
鈉 100
郯 100
邟 100
辇 100
轫 100
轆 100
跏 100
賁 100
诰 100
觭 100
袚 100
蝬 100
菪 100
荳 100
芄 100
膐 100
腢 100
脤 100
聨 100
耰 100
耡 100
纓 100
縎 100
綡 100
絔 100
籏 100
篒 100
笥 100
竳 100
竀 100
窲 100
祙 100
睳 100
癐 100
痱 100
瓟 100
璦 100
珛 100
玌 100
玊 100
猢 100
狤 100
熹 100
溞 100
泓 100
沤 100
汕 100
氵 100
梟 100
柰 100
枞 100
杸 100
暻 100
擀 100
摀 100
戬 100
恵 100
孿 100
圹 100
囵 100
囫 100
嘬 100
嘚 100
嗞 100
哚 100
呶 100
倰 100
侘 100
伕 100
゜ 100
べ 100
ぎ 100
┵ 100
⒆ 100
⒄ 100
ế 100
น 100
ก 100
ǔ 100
Ŕ 100
ｈ 100
﹠ 100
︴ 100
 100
 100
 100
 100
 100
쯨 100
쯋 100
쫥 100
죾 100
원 100
쏫 100
쇉 100
뺦 100
뷎 100
볎 100
발 100
맮 100
맪 100
뗢 100
뒹 100
뒳 100
ꎯ 100
鴃 100
鳩 100
髭 100
骥 100
饅 100
颦 100
頹 100
镧 100
镡 100
钎 100
鏍 100
鍚 100
鉀 100
鈣 100
輾 100
赱 100
諗 100
誨 100
觴 100
衿 100
蝟 100
蝈 100
蚩 100
蚋 100
薔 100
薊 100
荽 100
茛 100
芵 100
芴 100
艉 100
舩 100
舂 100
臬 100
缟 100
纗 100
籸 100
籷 100
籕 100
簔 100
篽 100
禺 100
礜 100
磂 100
碛 100
眐 100
盕 100
盓 100
瘿 100
疎 100
玿 100
狲 100
滗 100
椠 100
旆 100
攣 100
揖 100
掟 100
捚 100
扦 100
宒 100
妤 100
埸 100
嗥 100
呑 100
匏 100
冧 100
伅 100
ワ 100
┱ 100
ו 100
ǻ 100
Ū 100
Ŝ 100
Ĵ 100
Ē 100
 100
﹔ 100
ﱪ 100
 100
 100
 100
 100
 100
 100
 100
 100
 100
 100
 100
퓍 100
틮 100
퇒 100
쾥 100
쳜 100
첾 100
쪸 100
죥 100
잦 100
입 100
일 100
욯 100
욧 100
엱 100
슪 100
쇶 100
쇪 100
석 100
뾧 100
뾤 100
뷞 100
부 100
몡 100
멸 100
를 100
룋 100
럠 100
럘 100
돞 100
뎦 100
단 100
논 100
냵 100
냉 100
낹 100
鵑 100
鰨 100
魑 100
颳 100
鞏 100
醴 100
豝 100
豖 100
譙 100
譎 100
諱 100
衞 100
葷 100
莰 100
茗 100
芚 100
舥 100
臚 100
腃 100
聩 100
耎 100
翷 100
翮 100
翦 100
缶 100
缯 100
糅 100
簷 100
秝 100
秙 100
硪 100
砕 100
瞉 100
甽 100
甝 100
獥 100
牁 100
爰 100
燧 100
煜 100
瀛 100
湡 100
汴 100
榫 100
昱 100
昒 100
摳 100
懾 100
彥 100
帙 100
嵐 100
孃 100
嫲 100
埗 100
垌 100
坒 100
嘌 100
咛 100
吥 100
ズ 100
▾ 100
▀ 100
╨ 100
₡ 100
ỹ 100
ậ 100
ั 100
ะ 100
อ 100
ว 100
ญ 100
Ÿ 100
ĭ 100
ｎ 100
Ｙ 100
ﹰ 100
ﳎ 100
利 100
 100
 100
 100
 100
 100
 100
 100
 100
 100
 100
 100
 100
 100
 100
훩 100
훦 100
횬 100
햸 100
퓴 100
퓫 100
폓 100
퇨 100
탦 100
캳 100
침 100
쯬 100
쟓 100
쓲 100
쏹 100
쇍 100
샥 100
뿑 100
뿁 100
붬 100
몰 100
맼 100
맗 100
릷 100
떧 100
돑 100
뇻 100
黢 100
鶉 100
鱗 100
鱔 100
鰹 100
鮭 100
魣 100
魘 100
餿 100
顔 100
頟 100
韪 100
閻 100
閕 100
铡 100
铙 100
鑼 100
鐡 100
鎂 100
鋅 100
釦 100
逄 100
迻 100
踯 100
賃 100
谪 100
诳 100
詆 100
蠶 100
螅 100
螁 100
蚬 100
蕁 100
蓆 100
蒡 100
芃 100
艼 100
艏 100
臦 100
臕 100
膻 100
腁 100
胕 100
肫 100
繨 100
綷 100
絒 100
紾 100
糐 100
箄 100
笘 100
穃 100
碮 100
碒 100
砟 100
皰 100
皃 100
畦 100
畟 100
瑮 100
瑗 100
珏 100
玳 100
玍 100
獒 100
猞 100
狵 100
牯 100
牝 100
燠 100
沢 100
殮 100
梛 100
枅 100
晷 100
撻 100
抜 100
悌 100
怓 100
彝 100
庣 100
嵘 100
崦 100
嗟 100
哙 100
呖 100
勐 100
剉 100
儐 100
倏 100
侳 100
亳 100
ヨ 100
ベ 100
◙ 100
╮ 100
↓ 100
ש 100
ң 100
ｋ 100
Ｑ 100
ﮎ 100
 100
 100
 100
 100
 100
 100
 100
 100
 100
ퟤ 100
헴 100
햫 100
햤 100
퇍 100
킱 100
쾪 100
컰 100
컣 100
쳟 100
쳎 100
짶 100
짉 100
질 100
쟝 100
웙 100
웋 100
우 100
어 100
쓕 100
쎱 100
싘 100
싂 100
쇫 100
솣 100
샧 100
삷 100
볷 100
볏 100
벦 100
방 100
믥 100
몾 100
몳 100
맸 100
록 100
력 100
럳 100
뛂 100
닓 100
鹄 100
鸛 100
鵜 100
鱒 100
鰭 100
饴 100
餒 100
顳 100
铏 100
鐺 100
鏝 100
鈷 100
醵 100
酙 100
蹰 100
踟 100
貽 100
訃 100
褡 100
蟬 100
蛌 100
蓍 100
蒳 100
蒉 100
脔 100
胍 100
肸 100
聅 100
耣 100
羰 100
缢 100
縨 100
緿 100
箸 100
箋 100
稗 100
礤 100
硗 100
硔 100
硊 100
睢 100
睞 100
眙 100
癆 100
琨 100
珖 100
玞 100
猑 100
燄 100
炜 100
濮 100
漒 100
溱 100
湔 100
淰 100
洨 100
楢 100
杅 100
昀 100
旖 100
撘 100
搣 100
挌 100
戗 100
慄 100
愆 100
怄 100
徂 100
彳 100
弒 100
庤 100
幛 100
帡 100
崾 100
婄 100
娲 100
壊 100
埕 100
嘁 100
呔 100
劓 100
ょ 100
〓 100
➪ 100
➩ 100
✕ 100
◕ 100
╒ 100
∣ 100
ℓ 100
ỷ 100
ờ 100
ჶ 100
ท 100
Ә 100
ή 100
̂ 100
Ņ 100
ｕ 100
﹃ 100
ﱵ 100
度 100
 100
 100
 100
 100
 100
 100
 100
 100
 100
 100
 100
 100
 100
 100
ힾ 100
헔 100
퓯 100
퓮 100
톳 100
쿼 100
쾾 100
췯 100
쳙 100
쳈 100
쯇 100
쮲 100
쫻 100
쎧 100
싑 100
쇜 100
샇 100
뻷 100
떷 100
듀 100
뒭 100
뇷 100
鹵 100
鹀 100
鵪 100
鴇 100
鲾 100
髂 100
駿 100
馐 100
餾 100
餬 100
顴 100
鞦 100
靄 100
隳 100
陇 100
闶 100
镂 100
铷 100
铕 100
钗 100
钆 100
鑊 100
鐐 100
錮 100
釗 100
酞 100
轱 100
蹓 100
踫 100
谰 100
訾 100
覹 100
衊 100
蟈 100
螇 100
蛉 100
虴 100
薨 100
蒽 100
蒠 100
苫 100
芪 100
舽 100
膁 100
胝 100
翺 100
罡 100
絳 100
絀 100
礫 100
盻 100
癪 100
璋 100
瑇 100
獼 100
猐 100
狣 100
燔 100
瀝 100
滷 100
溘 100
涙 100
汔 100
氤 100
殍 100
檻 100
槨 100
棫 100
桯 100
柈 100
杷 100
暯 100
旻 100
旰 100
旍 100
敁 100
挰 100
扲 100
愎 100
悪 100
彐 100
巯 100
峒 100
峄 100
尥 100
宓 100
姝 100
堯 100
垚 100
坌 100
嗔 100
嗐 100
啣 100
吤 100
厒 100
倷 100
倠 100
侂 100
伥 100
ョ 100
ザ 100
〜 100
〗 100
▽ 100
▇ 100
⑩ 100
⋆ 100
ℇ 100
ۥ 100
ں 100
ђ 100
Љ 100
Ź 100
ŗ 100
｜ 100
Ｕ 100
ﶈ 100
ﳐ 100
ﲨ 100
 100
 100
 100
 100
 100
 100
 100
 100
 100
 100
 100
향 100
풩 100
틒 100
틄 100
쿴 100
쳁 100
쮧 100
쮣 100
죷 100
좮 100
웩 100
욲 100
엫 100
쓯 100
쓖 100
삦 100
뻘 100
볐 100
믈 100
두 100
뇞 100
남 100
건 100
강 100
가 100
ꪺ 100
ꏁ 100
ꇵ 100
鼩 100
鹪 100
鴛 100
鲢 100
鱉 100
鰐 100
騁 100
餞 100
餍 100
韆 100
雎 100
阃 100
锔 100
锇 100
鉻 100
釓 100
邰 100
迕 100
躪 100
蹣 100
踴 100
謁 100
諭 100
訛 100
蠔 100
蟯 100
蟄 100
螜 100
蜣 100
蚶 100
蚳 100
萡 100
菝 100
菖 100
莆 100
苨 100
芺 100
芊 100
艫 100
臾 100
臈 100
腪 100
脺 100
胼 100
缷 100
缱 100
纡 100
繾 100
縟 100
緙 100
綀 100
糂 100
篾 100
篫 100
窸 100
穸 100
磔 100
碓 100
瘜 100
瓸 100
璾 100
玅 100
灏 100
満 100
湥 100
渇 100
淂 100
涪 100
洑 100
泫 100
沬 100
櫟 100
橢 100
杔 100
朼 100
曋 100
晩 100
昄 100
揿 100
掼 100
戠 100
嶽 100
峴 100
屢 100
寁 100
姒 100
墾 100
墒 100
圴 100
厙 100
凼 100
ㄗ 100
➤ 100
ⅱ 100
Ⅳ 100
ứ 100
๏ 100
ห 100
ย 100
ป 100
ข 100
ˇ 100
ʽ 100
Ǘ 100
ｌ 100
＼ 100
Ｗ 100
 100
 100
 100
 100
 100
 100
 100
 100
 100
 100
 100
 100
 100
 100
 100
 100
훱 100
횥 100
헞 100
폴 100
쿡 100
췩 100
쯶 100
쫪 100
쟁 100
웯 100
욮 100
쇥 100
샩 100
뫈 100
맚 100
릶 100
룎 100
랫 100
뛛 100
뗒 100
뒼 100
뎾 100
뎮 100
냌 100
낷 100
ꏤ 100
鷂 100
鲮 100
鲐 100
鲎 100
髪 100
餚 100
颿 100
颼 100
颔 100
鞮 100
霑 100
雫 100
锱 100
铨 100
钰 100
鑭 100
鐸 100
銮 100
醞 100
酎 100
邯 100
躉 100
诹 100
诤 100
覲 100
襛 100
袛 100
螬 100
蛴 100
蚽 100
蚞 100
虻 100
蔨 100
蒭 100
蒩 100
葜 100
葙 100
萺 100
菔 100
莘 100
茚 100
苀 100
芢 100
芕 100
肵 100
肣 100
耊 100
罅 100
纈 100
絹 100
紲 100
籡 100
篦 100
箐 100
筞 100
竩 100
竂 100
穻 100
稜 100
秷 100
禕 100
磙 100
矓 100
瞊 100
睵 100
睰 100
痟 100
痓 100
疴 100
疳 100
瓚 100
璼 100
璗 100
琬 100
玁 100
獐 100
牴 100
爿 100
炟 100
灞 100
沩 100
汃 100
檎 100
檄 100
榲 100
枰 100
昫 100
旳 100
敍 100
擭 100
摥 100
挹 100
挕 100
戽 100
戋 100
悭 100
恓 100
怼 100
彊 100
弔 100
尨 100
嫻 100
娸 100
奘 100
垆 100
坢 100
嚄 100
咘 100
卐 100
刈 100
倯 100
乸 100
乩 100
ㄖ 100
⑤ 100
℡ 100
⁈ 100
ể 100
ය 100
ҫ 100
̕ 100
Ŏ 100
Ĉ 100
Ｚ 100
ﳋ 100
ﮒ 100
ﭖ 100
 100
 100
 100
 100
 100
 100
 100
 100
 100
 100
 100
 100
 100
 100
ힵ 100
ힱ 100
화 100
헡 100
해 100
폝 100
펬 100
튢 100
퇼 100
퇮 100
퇧 100
퇤 100
컭 100
췤 100
쳔 100
차 100
쯊 100
쫺 100
쫭 100
짲 100
종 100
점 100
요 100
와 100
엝 100
아 100
쒶 100
쒤 100
쏠 100
쎩 100
슣 100
쇗 100
솱 100
성 100
뻒 100
붽 100
볚 100
믎 100
뫒 100
맭 100
룜 100
럤 100
뚸 100
떪 100
놽 100
냸 100
금 100
ꦤ 100
ꋮ 100
ꇣ 100
ꆵ 100
ꆴ 100
齦 100
鵟 100
鴦 100
鲼 100
鱘 100
鬢 100
驩 100
饫 100
頜 100
阍 100
阋 100
锾 100
鏤 100
鋤 100
鈽 100
酫 100
郣 100
軚 100
踽 100
賚 100
豸 100
谶 100
諂 100
誑 100
觟 100
覬 100
裒 100
裃 100
蟥 100
蝪 100
蛻 100
茖 100
茕 100
苐 100
芼 100
脣 100
胑 100
羿 100
羦 100
繟 100
縋 100
綣 100
糨 100
篕 100
筣 100
筢 100
笫 100
窐 100
穂 100
祩 100
礡 100
磃 100
碻 100
瞚 100
睺 100
盳 100
盍 100
癑 100
疇 100
甾 100
甐 100
甌 100
瓯 100
琡 100
珲 100
玃 100
犢 100
牥 100
爻 100
潲 100
渉 100
淅 100
浯 100
氾 100
氹 100
歩 100
欻 100
槤 100
槢 100
様 100
榅 100
梶 100
梤 100
曩 100
晔 100
攙 100
揇 100
挢 100
抣 100
戝 100
悢 100
怍 100
怃 100
徬 100
廬 100
崙 100
峔 100
尕 100
姍 100
坰 100
圮 100
図 100
噏 100
嘸 100
嗌 100
啓 100
哫 100
咇 100
厍 100
僳 100
僑 100
佺 100
伲 100
㏎ 100
ヽ 100
♀ 100
☯ 100
╚ 100
┗ 100
ⅲ 100
⃝ 100
⁰ 100
ჱ 100
ە 100
נ 100
מ 100
ב 100
ξ 100
̅ 100
ˊ 100
Ļ 100
Ī 100
ĩ 100
Ě 100
Ď 100
︶ 100
﴿ 100
﴾ 100
ﲣ 100
金 100
 100
 100
 100
 100
 100
 100
 100
 100
 100
 100
 100
 100
 100
 100
ퟬ 100
햢 100
풡 100
펾 100
쿛 100
쿆 100
쾶 100
컐 100
컃 100
쳉 100
쯅 100
쮪 100
쫉 100
좭 100
있 100
이 100
엀 100
얳 100
승 100
슰 100
쇸 100
쇵 100
뷾 100
볥 100
믚 100
뫫 100
뫦 100
모 100
럫 100
뗺 100
듞 100
뒯 100
돨 100
돃 100
닛 100
낾 100
낡 100
ꇤ 100
龇 100
黙 100
鸻 100
鷄 100
鵰 100
鴕 100
鳔 100
鲠 100
鮨 100
鬟 100
髖 100
骓 100
驽 100
騮 100
馗 100
饞 100
頃 100
陟 100
阌 100
镙 100
锝 100
钐 100
鍍 100
鋰 100
銑 100
鉑 100
釱 100
醣 100
郳 100
逌 100
躡 100
豭 100
谠 100
誧 100
覷 100
襖 100
褑 100
裎 100
袵 100
袨 100
蠛 100
蠃 100
萳 100
莢 100
荑 100
臷 100
臖 100
腲 100
腍 100
脟 100
胤 100
肊 100
耏 100
翕 100
羉 100
罯 100
罈 100
纃 100
繥 100
緈 100
綑 100
絰 100
紕 100
籯 100
篆 100
笳 100
窨 100
稩 100
稨 100
祚 100
礳 100
磏 100
矸 100
眪 100
眘 100
甴 100
瓴 100
璱 100
璢 100
瑠 100
琏 100
獡 100
猍 100
狓 100
牉 100
焱 100
炆 100
澵 100
溏 100
浹 100
浥 100
浒 100
泅 100
沷 100
汨 100
氲 100
欱 100
檞 100
椥 100
棏 100
栺 100
栉 100
晄 100
昢 100
揹 100
揤 100
捇 100
抺 100
扽 100
扥 100
扢 100
怹 100
忨 100
彴 100
廸 100
嫜 100
娌 100
妘 100
埥 100
噯 100
嘥 100
嘖 100
嗉 100
啎 100
厗 100
卼 100
僩 100
僇 100
傚 100
侔 100
佚 100
佇 100
伝 100
伂 100
丨 100
䌠 100
䅸 100
ㆁ 100
プ 100
❤ 100
♠ 100
▵ 100
⌠ 100
≽ 100
ồ 100
ặ 100
ේ 100
ා 100
മ 100
ڨ 100
Ն 100
Ү 100
ζ 100
έ 100
ș 100
￤ 100
ｐ 100
﹤ 100
רּ 100
律 100
燎 100
料 100
 100
 100
 100
 100
 100
 100
 100
 100
 100
 100
 100
 100
 100
 100
 100
 100
 100
 100
 100
ퟘ 100
훽 100
훤 100
훛 100
폙 100
퇱 100
톿 100
태 100
킬 100
컜 100
캸 100
캮 100
췱 100
최 100
쳛 100
쳂 100
쮤 100
즰 100
절 100
쟘 100
인 100
율 100
웍 100
엪 100
양 100
쏟 100
쏛 100
쏈 100
쎯 100
송 100
설 100
삤 100
뾾 100
비 100
뷽 100
볅 100
민 100
믻 100
뮩 100
뫭 100
많 100
뛇 100
뛄 100
뚵 100
뚤 100
델 100
뇽 100
뇼 100
뇇 100
놿 100
냭 100
냊 100
黾 100
黥 100
鸫 100
鵲 100
鲵 100
鲆 100
鰓 100
鯷 100
鯡 100
鮫 100
驍 100
颏 100
顸 100
阆 100
閟 100
閎 100
镨 100
镞 100
镝 100
铄 100
钿 100
鐳 100
鎧 100
鍬 100
鉹 100
鈞 100
酘 100
鄒 100
邺 100
迤 100
辚 100
轅 100
輦 100
軒 100
踰 100
踭 100
跣 100
賑 100
觼 100
蛄 100
蒹 100
蒔 100
葧 100
葦 100
菻 100
茑 100
茌 100
芶 100
臧 100
腷 100
胦 100
胣 100
胂 100
耾 100
羖 100
罍 100
罌 100
绛 100
繽 100
繴 100
綨 100
絑 100
紱 100
紂 100
糹 100
粵 100
籛 100
箎 100
笣 100
竰 100
稵 100
祯 100
礬 100
碵 100
砮 100
砠 100
皲 100
瘉 100
痽 100
痄 100
畲 100
甯 100
璺 100
琝 100
獷 100
猷 100
猒 100
煸 100
焘 100
炾 100
瀾 100
湩 100
櫸 100
櫛 100
檫 100
榖 100
楳 100
楮 100
棣 100
棂 100
枍 100
暪 100
暝 100
暎 100
攰 100
搴 100
捄 100
挐 100
抇 100
戺 100
惇 100
悻 100
怴 100
忴 100
忪 100
徭 100
幪 100
巠 100
嶇 100
嵗 100
峉 100
岉 100
寀 100
嬪 100
婞 100
婝 100
婈 100
姹 100
妀 100
奩 100
夤 100
埴 100
囟 100
噥 100
喆 100
匼 100
勨 100
冴 100
俬 100
䔠 100
䄠 100
㛘 100
ム 100
ぴ 100
⊕ 100
∟ 100
∞ 100
∈ 100
∅ 100
Ⅷ 100
Ⅴ 100
⁴ 100
‿ 100
ả 100
შ 100
เ 100
ิ 100
ศ 100
ต 100
ช 100
य 100
ת 100
פ 100
כ 100
Ґ 100
˘ 100
Ģ 100
 100
ￏ 100
＾ 100
︵ 100
ﱐ 100
ﱄ 100
﨔 100
了 100
量 100
更 100
 100
 100
 100
 100
 100
 100
 100
 100
 100
 100
 100
 100
 100
 100
 100
 100
 100
 100
 100
 100
 100
 100
 100
 100
헶 100
퓽 100
퓟 100
퓔 100
폥 100
틼 100
틜 100
퉸 100
퇰 100
퇆 100
톱 100
탪 100
킿 100
킼 100
쿍 100
쿋 100
컫 100
컘 100
컔 100
췛 100
췙 100
춹 100
춪 100
초 100
쳞 100
짟 100
즸 100
죛 100
욺 100
엟 100
쓙 100
쎸 100
쇻 100
샵 100
샜 100
뿾 100
뿺 100
뿣 100
뿟 100
뿞 100
뻑 100
뺤 100
볳 100
믤 100
믠 100
몼 100
룂 100
뢦 100
럺 100
뛼 100
뛨 100
뗎 100
듁 100
뒱 100
돕 100
닔 100
냲 100
냟 100
낻 100
ꏃ 100
ꎫ 100
ꋈ 100
龕 100
齬 100
鼱 100
黉 100
鳢 100
鲡 100
鲌 100
鲅 100
鰥 100
鯰 100
驒 100
騖 100
馕 100
饗 100
颟 100
頤 100
霫 100
雋 100
阭 100
閚 100
閙 100
閂 100
镱 100
镟 100
镏 100
铥 100
钣 100
鑷 100
鏘 100
鎯 100
錾 100
錠 100
鈈 100
釵 100
郬 100
郤 100
邾 100
逜 100
轂 100
軑 100
蹙 100
跬 100
趔 100
谇 100
讃 100
誁 100
袀 100
衮 100
蠖 100
螻 100
螙 100
蜉 100
蛷 100
蚵 100
蚥 100
虿 100
虯 100
薹 100
蕎 100
蒺 100
萜 100
菡 100
荘 100
荂 100
茔 100
苭 100
芨 100
芡 100
脷 100
聈 100
耭 100
耤 100
绗 100
纅 100
繕 100
縝 100
緖 100
綹 100
糡 100
糓 100
篯 100
篔 100
笪 100
竨 100
穑 100
秣 100
秔 100
秇 100
禆 100
祒 100
礞 100
磡 100
磟 100
碠 100
砭 100
砅 100
眛 100
癴 100
瘺 100
瑳 100
瑲 100
瑤 100
琙 100
珅 100
玝 100
獬 100
牷 100
燜 100
熒 100
焯 100
炴 100
潴 100
溼 100
湵 100
沣 100
汸 100
氿 100
氬 100
殤 100
殛 100
楴 100
楦 100
椹 100
棹 100
梪 100
梒 100
栝 100
枓 100
曽 100
曄 100
暉 100
晡 100
晁 100
昶 100
昉 100
敶 100
撾 100
撺 100
揠 100
捯 100
捜 100
挴 100
挍 100
戦 100
慼 100
悕 100
徼 100
広 100
嵬 100
宸 100
実 100
嫱 100
妁 100
塒 100
埶 100
囷 100
咈 100
呿 100
匢 100
劏 100
剞 100
凇 100
児 100
傈 100
倎 100
侷 100
佥 100
伈 100
仝 100
亙 100
䴠 100
㹨 100
ゾ 100
▂ 100
┆ 100
⑨ 100
∏ 100
₩ 100
‮ 100
Ế 100
ყ 100
რ 100
Ғ 100
ύ 100
ϋ 100
ɵ 100
ɡ 100
Ŭ 100
 100
ｑ 100
﹥ 100
ﶘ 100
ﳝ 100
ﲏ 100
ﱘ 100
ﭬ 100
ﬀ 100
若 100
朗 100
 100
 100
 100
 100
 100
 100
 100
 100
 100
 100
 100
 100
 100
 100
 100
 100
 100
 100
 100
 100
 100
 100
 100
 100
 100
ퟕ 100
휨 100
훳 100
훪 100
형 100
허 100
항 100
퓼 100
퓥 100
틘 100
퇪 100
퇙 100
톨 100
탡 100
쿹 100
쿯 100
쿒 100
컆 100
쳾 100
천 100
쯳 100
쯎 100
쫳 100
쫯 100
즮 100
줸 100
죒 100
쟧 100
웇 100
욻 100
욳 100
엸 100
얻 100
압 100
쏙 100
쏌 100
솭 100
속 100
샹 100
삽 100
쁨 100
뿽 100
뿃 100
뻰 100
뷭 100
뷊 100
박 100
및 100
믨 100
믌 100
몸 100
몷 100
뢫 100
뢩 100
럐 100
뛤 100
뛍 100
뗓 100
뗌 100
드 100
듂 100
뒸 100
는 100
냽 100
냏 100
광 100
공 100
ꪭ 100
ꋇ 100
ꆳ 100
龉 100
龃 100
鼯 100
麿 100
鷚 100
鶪 100
鯭 100
鮣 100
髇 100
髁 100
饃 100
餦 100
餉 100
頼 100
靨 100
闾 100
閞 100
镴 100
镦 100
锍 100
钌 100
鏃 100
鋳 100
銶 100
釷 100
酴 100
酖 100
鄱 100
鄔 100
郧 100
郗 100
郄 100
逵 100
逤 100
逕 100
迨 100
軠 100
軘 100
跗 100
赸 100
贇 100
諈 100
誅 100
詣 100
訥 100
觹 100
覩 100
蠧 100
蠓 100
蝣 100
蛱 100
蛏 100
蛅 100
蚨 100
藺 100
莩 100
荸 100
荪 100
茞 100
苴 100
苡 100
芻 100
芧 100
艄 100
臓 100
膢 100
肶 100
聀 100
翲 100
罛 100
缫 100
繋 100
総 100
綥 100
綞 100
紽 100
紓 100
糽 100
糱 100
糥 100
糝 100
粧 100
粦 100
粃 100
簣 100
簕 100
簌 100
篣 100
筲 100
禓 100
碸 100
碅 100
砚 100
瞜 100
瞛 100
睮 100
眊 100
盫 100
皛 100
癦 100
癜 100
痧 100
痠 100
痈 100
瓬 100
瓤 100
璮 100
璘 100
瑯 100
瑡 100
琞 100
琋 100
琈 100
珰 100
珘 100
玽 100
獳 100
燨 100
燐 100
焼 100
濁 100
潩 100
潞 100
漭 100
滏 100
渀 100
淜 100
涔 100
浍 100
沺 100
殞 100
欯 100
欑 100
椁 100
梠 100
栯 100
枥 100
暌 100
晗 100
旸 100
旎 100
旃 100
斻 100
敳 100
擷 100
摑 100
揼 100
扨 100
戥 100
戙 100
慲 100
怔 100
忻 100
忭 100
廥 100
幀 100
帣 100
嵴 100
峚 100
岊 100
尢 100
寛 100
孮 100
婥 100
婤 100
婃 100
奬 100
奐 100
坶 100
囍 100
噃 100
啭 100
呥 100
呁 100
匸 100
匱 100
儈 100
倞 100
俓 100
佌 100
伧 100
仵 100
仞 100
䳈 100
䟘 100
䜈 100
㦨 100
㑨 100
㎎ 100
モ 100
〣 100
♣ 100
☼ 100
╁ 100
┇ 100
⑥ 100
⎢ 100
⌂ 100
↙ 100
↘ 100
ⅳ 100
⅔ 100
⁅ 100
ό 100
ố 100
ẵ 100
ắ 100
ṧ 100
Ꮨ 100
ྭ 100
ฬ 100
ด 100
ෝ 100
බ 100
ආ 100
સ 100
স 100
ޘ 100
۹ 100
ר 100
ώ 100
ϊ 100
̸ 100
Ə 100
Ō 100
Ċ 100
 100
ﾜ 100
｣ 100
ｙ 100
ｗ 100
ｊ 100
ﳘ 100
ﲢ 100
療 100
數 100
便 100
落 100
 100
 100
 100
 100
 100
 100
 100
 100
 100
 100
 100
 100
 100
 100
 100
 100
 100
 100
 100
 100
 100
 100
 100
 100
 100
ퟧ 100
훢 100
퓎 100
톣 100
탺 100
탠 100
탚 100
킮 100
쿥 100
쿢 100
컗 100
캵 100
췝 100
춡 100
체 100
쯖 100
죡 100
쟞 100
쟏 100
잶 100
웗 100
웃 100
엙 100
엇 100
쏂 100
쎨 100
쎡 100
슫 100
수 100
솹 100
솲 100
솨 100
샴 100
샟 100
샒 100
삮 100
뾣 100
뺸 100
뺥 100
뷳 100
뷮 100
뷆 100
변 100
벵 100
벡 100
벌 100
믫 100
뫝 100
몥 100
맲 100
룠 100
룍 100
룁 100
뛦 100
뛊 100
딨 100
듹 100
듐 100
돻 100
돭 100
돡 100
돈 100
뎶 100
닇 100
늫 100
뇍 100
낱 100
글 100
ꪻ 100
ꩨ 100
ꏥ 100
ꏟ 100
ꏂ 100
ꋤ 100
ꆡ 100
ꄘ 100
鹎 100
鸱 100
鸰 100
鸏 100
鸊 100
鷉 100
鶘 100
鲗 100
鲀 100
鱈 100
鰱 100
鯇 100
鮋 100
鬻 100
鬪 100
鬨 100
髑 100
骺 100
騨 100
駟 100
駉 100
餸 100
颍 100
阢 100
闳 100
闈 100
铽 100
铼 100
钺 100
钔 100
鐧 100
鏧 100
鏓 100
鎬 100
鍘 100
鋃 100
鉢 100
鉚 100
鈚 100
鈅 100
酢 100
鄺 100
郪 100
邐 100
迾 100
躋 100
踎 100
跁 100
趄 100
賅 100
豕 100
谿 100
谳 100
谌 100
诮 100
譭 100
譁 100
謨 100
諢 100
誆 100
詡 100
詑 100
訶 100
訑 100
觞 100
覧 100
覊 100
襤 100
褸 100
裢 100
裋 100
袓 100
衧 100
蠑 100
螉 100
蝋 100
蛲 100
蚺 100
蘼 100
蕓 100
蔘 100
蓣 100
蒾 100
葇 100
菽 100
荋 100
茏 100
茈 100
苲 100
苬 100
苋 100
苆 100
芣 100
臜 100
膟 100
腏 100
脕 100
胻 100
胉 100
肟 100
翨 100
羣 100
罻 100
罜 100
缙 100
纮 100
纊 100
縘 100
緾 100
緽 100
緉 100
綈 100
糰 100
糬 100
糎 100
粣 100
簁 100
箈 100
筚 100
笕 100
窭 100
窅 100
穠 100
穔 100
稥 100
稈 100
秫 100
秕 100
禼 100
禰 100
祴 100
祎 100
祆 100
磛 100
磌 100
碡 100
硎 100
砹 100
砨 100
瞔 100
瞀 100
眬 100
眗 100
癉 100
癈 100
疺 100
疷 100
疐 100
瓏 100
璴 100
璭 100
璅 100
琔 100
玹 100
玧 100
玢 100
猦 100
猚 100
狻 100
犮 100
犨 100
牰 100
牀 100
爠 100
煳 100
焔 100
濠 100
澙 100
潃 100
漣 100
渫 100
淉 100
涽 100
涠 100
洇 100
泬 100
沔 100
汥 100
檠 100
樅 100
槭 100
楸 100
楶 100
梃 100
栄 100
柽 100
杺 100
杶 100
杬 100
朎 100
曈 100
曇 100
暩 100
暏 100
晊 100
敭 100
攷 100
攨 100
摮 100
捭 100
捥 100
拊 100
扴 100
扆 100
懋 100
慟 100
慊 100
悽 100
恛 100
怬 100
怈 100
彫 100
廋 100
庳 100
庋 100
巻 100
嶃 100
崨 100
峓 100
峊 100
岷 100
孞 100
孛 100
嬝 100
嫚 100
婐 100
奼 100
墬 100
埭 100
垸 100
垭 100
垅 100
囥 100
嘐 100
喸 100
喰 100
啩 100
唌 100
咥 100
咑 100
剮 100
刭 100
刋 100
凅 100
値 100
倛 100
佞 100
乂 100
䰨 100
䭸 100
䨸 100
㻈 100
㺨 100
㎏ 100
ㄝ 100
コ 100
ゐ 100
〩 100
✿ 100
▼ 100
▷ 100
▐ 100
╂ 100
┹ 100
⒈ 100
⑧ 100
⑦ 100
␈ 100
⇨ 100
ⅷ 100
Ⅵ 100
⃰ 100
ẽ 100
ᵒ 100
᧸ 100
᧨ 100
ᑘ 100
ዸ 100
ჼ 100
႑ 100
ྱ 100
ු 100
ජ 100
ڊ 100
ק 100
ס 100
֨ 100
Ө 100
ӧ 100
ү 100
Ϊ 100
ͨ 100
ʹ 100
Ơ 100
Ť 100
Į 100
Ĕ 100
 100
￨ 100
ｫ 100
｢ 100
﹨ 100
ﳕ 100
ﰨ 100
見 100
龍 100
兩 100
參 100
拉 100
 100
 100
 100
 100
 100
 100
 100
 100
 100
 100
 100
 100
 100
 100
 100
 100
 100
 100
 100
 100
 100
 100
 100
 100
 100
 100
 100
 100
 100
 100
ퟆ 100
ힺ 100
횺 100
활 100
호 100
혈 100
현 100
할 100
폘 100
펻 100
펨 100
틏 100
튱 100
투 100
퇥 100
퇠 100
퇂 100
톬 100
킾 100
쿵 100
쾼 100
쾫 100
컟 100
칙 100
췷 100
췴 100
췳 100
췫 100
췕 100
췍 100
춘 100
쳰 100
쳤 100
챨 100
찰 100
쯧 100
쫮 100
쫝 100
쪰 100
즷 100
죮 100
죣 100
죖 100
죇 100
죂 100
좢 100
잻 100
작 100
웼 100
웠 100
웘 100
웅 100
여 100
얀 100
야 100
앙 100
쓸 100
쓧 100
쑈 100
순 100
쇟 100
쇄 100
샞 100
샘 100
샔 100
삘 100
뿻 100
뺧 100
뷵 100
뷛 100
뷑 100
뷍 100
붰 100
봸 100
볺 100
볱 100
볰 100
볪 100
볔 100
밈 100
뮲 100
뮫 100
뮣 100
뮡 100
뫯 100
률 100
령 100
뛬 100
똸 100
뗳 100
뗑 100
뗊 100
떡 100
등 100
됸 100
뎸 100
닼 100
닚 100
닏 100
니 100
놭 100
놪 100
낫 100
뀨 100
궸 100
겨 100
것 100
간 100
ꪼ 100
꩸ 100
ꥈ 100
ꡈ 100
Ꝩ 100
ꚸ 100
ꏧ 100
ꏦ 100
ꎡ 100
ꋾ 100
ꇧ 100
ꇃ 100
ꆲ 100
齧 100
鼔 100
鹡 100
鹛 100
鷑 100
鶏 100
鳇 100
鰾 100
鰲 100
鰕 100
鯛 100
鮈 100
魈 100
髸 100
髌 100
骶 100
骐 100
骊 100
饘 100
饍 100
飭 100
飑 100
韘 100
靦 100
靘 100
霤 100
隗 100
隈 100
陴 100
陧 100
陜 100
闫 100
闕 100
閿 100
閩 100
镪 100
镥 100
镘 100
锟 100
铑 100
钷 100
钬 100
钤 100
鑪 100
鑢 100
鐨 100
鏹 100
鏮 100
鍃 100
銼 100
鉯 100
鉓 100
鈥 100
釈 100
鄋 100
鄊 100
郜 100
郙 100
邠 100
逶 100
迓 100
込 100
軨 100
軡 100
躦 100
蹘 100
蹁 100
跹 100
跜 100
趈 100
赲 100
譡 100
謾 100
謫 100
謅 100
読 100
誈 100
詼 100
詨 100
訧 100
訌 100
觥 100
裣 100
裇 100
袮 100
袕 100
袉 100
衶 100
蠼 100
蠨 100
蟡 100
螸 100
螋 100
蝘 100
蚴 100
蚡 100
蘖 100
藴 100
藁 100
薺 100
薸 100
蕸 100
蕘 100
蔺 100
蓘 100
蓇 100
蒴 100
蒤 100
蒓 100
蒎 100
葖 100
葋 100
萋 100
菰 100
菫 100
莸 100
荥 100
茘 100
苘 100
芾 100
芇 100
舨 100
膫 100
膗 100
腯 100
脥 100
脁 100
胗 100
胈 100
肦 100
耟 100
耇 100
翸 100
翭 100
罸 100
缧 100
缐 100
纙 100
纀 100
繿 100
縜 100
綦 100
絧 100
経 100
紩 100
糋 100
糈 100
糀 100
粝 100
粔 100
粈 100
籼 100
籘 100
篰 100
箓 100
筯 100
筨 100
窵 100
窋 100
穙 100
禞 100
祳 100
礸 100
礪 100
礣 100
礗 100
硸 100
砎 100
矨 100
瞁 100
睶 100
皖 100
皀 100
癷 100
癯 100
癭 100
痵 100
痩 100
痦 100
疢 100
畭 100
瓅 100
璖 100
瑭 100
瑓 100
琯 100
珓 100
玾 100
玠 100
玏 100
玎 100
獘 100
猨 100
狛 100
犍 100
牘 100
牊 100
煺 100
焜 100
炤 100
灳 100
灁 100
瀧 100
瀘 100
瀈 100
漕 100
滢 100
溧 100
湟 100
湉 100
渕 100
淞 100
淊 100
淄 100
涾 100
浭 100
浨 100
洮 100
洉 100
泸 100
泂 100
汯 100
氳 100
氠 100
橦 100
榊 100
楯 100
楥 100
棈 100
梩 100
柺 100
柢 100
杲 100
杮 100
杩 100
杁 100
朠 100
暠 100
晈 100
昳 100
昝 100
旣 100
斨 100
敥 100
敎 100
敊 100
撣 100
撃 100
摷 100
搟 100
搋 100
搆 100
掗 100
掎 100
掄 100
捸 100
挜 100
抮 100
択 100
抌 100
扱 100
扠 100
戻 100
憘 100
慴 100
慩 100
慥 100
惸 100
怳 100
怙 100
彘 100
幷 100
幈 100
帯 100
帢 100
嶝 100
嶈 100
嵊 100
崞 100
崝 100
尙 100
寘 100
寈 100
孭 100
嬡 100
嬋 100
嬅 100
嫗 100
婰 100
婨 100
妸 100
堿 100
堠 100
堁 100
埰 100
埘 100
埐 100
坫 100
圩 100
圏 100
囨 100
囖 100
囌 100
囈 100
嚿 100
嚜 100
嚙 100
嚆 100
噷 100
嘜 100
喟 100
喁 100
唚 100
哸 100
哘 100
哓 100
呏 100
勲 100
劼 100
剴 100
儷 100
僨 100
僞 100
偱 100
倶 100
倨 100
倢 100
倈 100
俦 100
俜 100
俖 100
佸 100
丂 100
䭈 100
䧈 100
䤈 100
䠘 100
䟸 100
䛈 100
䗸 100
䕃 100
䍅 100
䈉 100
䆨 100
䄉 100
㶨 100
㰸 100
㭘 100
㧨 100
㧘 100
㧐 100
㥈 100
㘘 100
㖸 100
㍘ 100
㊈ 100
㈍ 100
ㅸ 100
ㄋ 100
〧 100
〤 100
⼲ 100
⼱ 100
⼘ 100
⺷ 100
ⴘ 100
ⱈ 100
Ⰸ 100
⫸ 100
➝ 100
➙ 100
⛘ 100
◘ 100
╵ 100
╳ 100
┴ 100
┄ 100
⎫ 100
⎪ 100
〉 100
〈 100
⊄ 100
≺ 100
≠ 100
∂ 100
⇄ 100
⅓ 100
ⁿ 100
⁮ 100
Ὠ 100
ỳ 100
ừ 100
ạ 100
Ṹ 100
Ḃ 100
ᷘ 100
ᣨ 100
ᢘ 100
ᕈ 100
ᒈ 100
ቨ 100
ღ 100
ფ 100
႕ 100
ไ 100
ุ 100
ื 100
ำ 100
บ 100
ซ 100
ഠ 100
స 100
ઘ 100
ਸ 100
ਨ 100
߸ 100
ݘ 100
ף 100
ם 100
ה 100
҈ 100
ѝ 100
ѐ 100
ͣ 100
˂ 100
Ȼ 100
ƈ 100
ŋ 100
 100
𨶙 100
𡃁 100
ﻶ 100
﹦ 100
ﷸ 100
ﷲ 100
ﲪ 100
ﲝ 100
ﲈ 100
ﱯ 100
ﱞ 100
ﯘ 100
ﮨ 100
ﮓ 100
ﮋ 100
ﮈ 100
ﬃ 100
暴 100
劉 100
烈 100
列 100
良 100
 100
 100
 100
 100
 100
 100
 100
 100
 100
 100
 100
 100
 100
 100
 100
 100
 100
 100
 100
 100
 100
 100
 100
 100
 100
 100
 100
 100
 100
 100
 100
 100
 100
 100
 100
 100
 100
 100
 100
 100
 100
 100
 100
 100
 100
 100
 100
 100
ퟂ 100
훫 100
훧 100
훉 100
횈 100
황 100
햿 100
햶 100
햳 100
퓪 100
풬 100
편 100
펷 100
펥 100
틷 100
티 100
틨 100
퇭 100
톽 100
킢 100
큨 100
쿸 100
쾻 100
쾱 100
쾨 100
컴 100
캺 100
캭 100
치 100
취 100
쳻 100
쳫 100
쳌 100
쳅 100
챸 100
쮸 100
쮬 100
쮘 100
쫑 100
쫃 100
쨘 100
짞 100
즴 100
즦 100
죪 100
좹 100
좸 100
잯 100
웶 100
월 100
욡 100
엛 100
엊 100
얥 100
쒭 100
쏒 100
쏆 100
쎪 100
쌘 100
싨 100
싆 100
쇊 100
솤 100
솈 100
샰 100
샚 100
샙 100
샓 100
쀘 100
뿈 100
뻢 100
뻗 100
뷋 100
볘 100
벘 100
뮸 100
뫸 100
맴 100
맨 100
맥 100
린 100
릪 100
릣 100
류 100
룆 100
롘 100
띸 100
뛫 100
뛝 100
뗭 100
땸 100
듵 100
듣 100
듗 100
듃 100
됨 100
던 100
뉘 100
뇢 100
뇖 100
뇐 100
뇁 100
놹 100
녨 100
녈 100
냅 100
꾸 100
꼸 100
각 100
ꥸ 100
ꗘ 100
ꗈ 100
ꏨ 100
ꉘ 100
ꇈ 100
黱 100
麇 100
鹾 100
鹣 100
鸷 100
鸩 100
鸞 100
鷺 100
鶩 100
鶇 100
鵬 100
鴞 100
鳜 100
鳊 100
鲻 100
鲲 100
鲩 100
鰤 100
鰎 100
鯘 100
鯖 100
鮪 100
鮘 100
鮔 100
魎 100
髀 100
骟 100
骀 100
騵 100
駸 100
駙 100
駆 100
饜 100
餺 100
餛 100
飩 100
鞅 100
靽 100
霊 100
隣 100
陘 100
陃 100
阩 100
阚 100
阒 100
闘 100
闐 100
閠 100
镮 100
镤 100
镚 100
锷 100
钪 100
鑦 100
鏇 100
鎌 100
鍥 100
錟 100
鋯 100
鋌 100
鉸 100
鈛 100
鈎 100
鈀 100
釨 100
釔 100
醸 100
醨 100
醑 100
鄘 100
鄄 100
迍 100
辿 100
辔 100
轸 100
轡 100
轕 100
轇 100
蹧 100
蹠 100
蹌 100
蹇 100
賡 100
貳 100
貲 100
豋 100
谝 100
诖 100
譱 100
謦 100
謄 100
諛 100
詰 100
詌 100
訞 100
觘 100
觇 100
襸 100
褚 100
裾 100
裥 100
裊 100
袸 100
袢 100
衈 100
蠵 100
蠌 100
蠆 100
蟊 100
螏 100
蜮 100
藨 100
藅 100
薽 100
蕰 100
蓽 100
蓰 100
蓂 100
蒯 100
葸 100
萹 100
萣 100
菘 100
莒 100
荺 100
苻 100
苪 100
苎 100
芁 100
艿 100
舼 100
舸 100
舯 100
舃 100
膾 100
膤 100
腬 100
胬 100
聧 100
聡 100
聁 100
耪 100
耓 100
翽 100
翤 100
翍 100
罝 100
绾 100
纥 100
縹 100
縵 100
縴 100
縏 100
縇 100
緕 100
絶 100
絎 100
紻 100
紜 100
紘 100
紃 100
糢 100
糁 100
籣 100
篭 100
篎 100
笸 100
笮 100
笏 100
竢 100
窀 100
穥 100
穜 100
穚 100
稹 100
稝 100
秛 100
秗 100
禩 100
禨 100
祧 100
礽 100
礖 100
碶 100
碚 100
碁 100
硭 100
砶 100
砘 100
矧 100
瞝 100
睘 100
眴 100
皁 100
癿 100
癝 100
癎 100
瘳 100
瘌 100
瘇 100
痳 100
疞 100
畳 100
畯 100
畧 100
甙 100
瓠 100
璑 100
瑷 100
瑨 100
琱 100
琤 100
琇 100
珻 100
珧 100
玤 100
獩 100
獈 100
獂 100
猲 100
猙 100
狿 100
犠 100
犛 100
爀 100
熤 100
煭 100
煖 100
煈 100
烔 100
炅 100
灩 100
瀠 100
澧 100
潨 100
漳 100
漀 100
滟 100
滉 100
滈 100
溲 100
渖 100
淦 100
淔 100
涿 100
涷 100
浔 100
泆 100
汊 100
氊 100
毸 100
殑 100
殂 100
歨 100
歙 100
欳 100
櫝 100
檗 100
樾 100
樨 100
樘 100
榙 100
榎 100
楲 100
楬 100
楈 100
椼 100
椴 100
棰 100
梜 100
栚 100
栃 100
柞 100
柙 100
枺 100
杌 100
曥 100
暘 100
晢 100
昡 100
昋 100
旂 100
斫 100
敩 100
敤 100
攠 100
擕 100
摡 100
摃 100
搘 100
揝 100
揆 100
掊 100
捁 100
挻 100
挸 100
挶 100
挀 100
抸 100
抳 100
抭 100
抔 100
抅 100
扻 100
扺 100
払 100
慯 100
慭 100
愯 100
愍 100
愀 100
惝 100
惙 100
悒 100
恲 100
恮 100
恇 100
徴 100
彖 100
庨 100
庢 100
庑 100
庉 100
巹 100
巸 100
嶷 100
嶪 100
嶕 100
嵝 100
崤 100
岕 100
孌 100
嫺 100
嫨 100
嫥 100
嫠 100
嫘 100
媸 100
媨 100
媂 100
姫 100
妫 100
妠 100
奁 100
墸 100
塹 100
塭 100
堺 100
堙 100
埯 100
圠 100
嚦 100
嗾 100
嗫 100
営 100
唭 100
唎 100
哢 100
咾 100
呧 100
厣 100
単 100
勣 100
劢 100
劄 100
刳 100
処 100
凃 100
冐 100
儻 100
儔 100
僉 100
傯 100
偸 100
偑 100
倥 100
俵 100
佶 100
佄 100
乨 100
両 100
丠 100
䴈 100
䱨 100
䯸 100
䫸 100
䪘 100
䥈 100
䤠 100
䣨 100
䞸 100
䙅 100
䘨 100
䖨 100
䒘 100
䌘 100
䄨 100
䀸 100
㺸 100
㷸 100
㲈 100
㩨 100
㘈 100
㖈 100
㓘 100
㒘 100
㏈ 100
㉸ 100
㇈ 100
ㆈ 100
ㄙ 100
ㄕ 100
ぽ 100
〲 100
〥 100
ⱸ 100
⭘ 100
⩨ 100
⦈ 100
⣘ 100
➔ 100
➈ 100
✜ 100
⚈ 100
☻ 100
☹ 100
▃ 100
┼ 100
⒌ 100
⒊ 100
⑪ 100
⎬ 100
⊠ 100
∥ 100
∇ 100
ⅴ 100
⁷ 100
ί 100
Ứ 100
Ẩ 100
ấ 100
᭨ 100
ᦈ 100
ᤘ 100
ᣈ 100
ᡨ 100
ᝨ 100
ᚸ 100
ᚨ 100
ᒘ 100
ከ 100
ჺ 100
ჴ 100
ჯ 100
ო 100
࿈ 100
ེ 100
ུ 100
ຸ 100
ೈ 100
౸ 100
ை 100
ୈ 100
ڭ 100
׃ 100
Ք 100
Կ 100
Ե 100
Դ 100
Ա 100
ӓ 100
̒ 100
˃ 100
ʘ 100
Ȩ 100
ȏ 100
ƨ 100
Ĺ 100
𤭢 100
😂 100
￩ 100
￠ 100
ｚ 100
｀ 100
ﹶ 100
﹌ 100
ﴸ 100
ﳨ 100
ﳛ 100
ﳓ 100
ﲡ 100
ﲜ 100
ﲎ 100
ﱟ 100
ﱂ 100
ﰘ 100
ﰐ 100
ﭨ 100
ﭗ 100
אּ 100
視 100
直 100
林 100
裡 100
履 100
流 100
隸 100
念 100
連 100
論 100
路 100
來 100
樂 100
 100
 100
 100
 100
 100
 100
 100
 100
 100
 100
 100
 100
 100
 100
 100
 100
 100
 100
 100
 100
 100
 100
 100
 100
 100
 100
 100
 100
 100
 100
 100
 100
 100
 100
 100
 100
 100
 100
 100
 100
 100
 100
 100
 100
 100
 100
 100
 100
 100
 100
 100
 100
 100
 100
 100
 100
 100
 100
 100
 100
 100
 100
 100
 100
 100
 100
 100
 100
 100
 100
 100
 100
 100
 100
힘 100
휘 100
휈 100
훲 100
훥 100
횭 100
횩 100
홸 100
홍 100
혜 100
헩 100
헨 100
했 100
퐸 100
퐈 100
폭 100
펫 100
팈 100
틺 100
틞 100
틓 100
튧 100
튦 100
튘 100
툸 100
퇽 100
퇊 100
퇉 100
텸 100
텘 100
텈 100
털 100
탹 100
탉 100
쾩 100
콸 100
켸 100
컸 100
컬 100
캩 100
칈 100
츨 100
췜 100
췖 100
췊 100
췉 100
췄 100
췂 100
춤 100
쵨 100
촸 100
쳲 100
쳪 100
쳍 100
쳋 100
첶 100
첮 100
첣 100
철 100
처 100
창 100
찈 100
쯫 100
쮻 100
쮷 100
쮨 100
쭘 100
쬸 100
쬨 100
쬈 100
쫌 100
쪨 100
쩸 100
짴 100
즼 100
즲 100
즬 100
즩 100
즤 100
즈 100
쥸 100
줘 100
줈 100
죯 100
죐 100
좬 100
좩 100
졸 100
졨 100
쟱 100
잵 100
잘 100
응 100
윘 100
윈 100
웨 100
웥 100
욢 100
욘 100
온 100
오 100
염 100
엵 100
었 100
앸 100
았 100
쓫 100
쓟 100
쓅 100
쒢 100
쐸 100
쏸 100
쎮 100
쌈 100
싯 100
싦 100
싕 100
슿 100
습 100
슭 100
슨 100
슧 100
슈 100
쉸 100
숨 100
숈 100
쇳 100
쇎 100
솫 100
손 100
셸 100
션 100
섘 100
샆 100
삲 100
뾸 100
뾡 100
뽨 100
뼈 100
뻡 100
뻏 100
뻎 100
뺽 100
빸 100
뷦 100
뷁 100
불 100
북 100
뵸 100
뵘 100
봨 100
봈 100
볟 100
벽 100
범 100
뱨 100
뱈 100
밸 100
믢 100
믐 100
뫻 100
뫔 100
몤 100
멨 100
먨 100
먈 100
맰 100
맆 100
립 100
릯 100
릭 100
릢 100
릈 100
륨 100
룬 100
룡 100
뢘 100
론 100
럷 100
럵 100
럓 100
랼 100
랤 100
뛚 100
뚻 100
뚢 100
뚈 100
뙈 100
뗻 100
뗫 100
뗨 100
듡 100
듑 100
듉 100
뒾 100
뒽 100
뒧 100
둘 100
돺 100
돹 100
돷 100
돬 100
돣 100
뎲 100
덨 100
덈 100
닯 100
닗 100
닑 100
늺 100
늯 100
늧 100
뇲 100
노 100
녘 100
냐 100
냈 100
끨 100
끈 100
뀈 100
꿘 100
꽸 100
꽘 100
꼈 100
껨 100
께 100
꺈 100
김 100
귘 100
굘 100
걈 100
꩘ 100
꧈ 100
ꦈ 100
ꤨ 100
꤈ 100
ꢸ 100
ꡨ 100
꠨ 100
ꠈ 100
ꟸ 100
Ꝙ 100
Ꙉ 100
ꗬ 100
ꖨ 100
ꕈ 100
ꓨ 100
ꓘ 100
ꑘ 100
ꑈ 100
ꐘ 100
ꐈ 100
ꏓ 100
ꏄ 100
ꎽ 100
ꍘ 100
ꋣ 100
ꊨ 100
ꊈ 100
ꉨ 100
ꈸ 100
ꇨ 100
ꆨ 100
ꆘ 100
ꁨ 100
ꁘ 100
ꀨ 100
龒 100
齙 100
齑 100
齎 100
齉 100
齈 100
黟 100
黀 100
麘 100
鹘 100
鸶 100
鸲 100
鸘 100
鸌 100
鷨 100
鷈 100
鶺 100
鶸 100
鵷 100
鵴 100
鵘 100
鵒 100
鴷 100
鴴 100
鴳 100
鴣 100
鴟 100
鴘 100
鴒 100
鴏 100
鳸 100
鳠 100
鲴 100
鲒 100
鲃 100
鱭 100
鱇 100
鰊 100
鯪 100
鯦 100
鮟 100
鮆 100
魸 100
鬩 100
鬘 100
鬊 100
髷 100
骧 100
驘 100
驁 100
驀 100
験 100
騒 100
馜 100
馘 100
馔 100
餑 100
餈 100
飧 100
飊 100
颽 100
颸 100
颯 100
颉 100
颀 100
顼 100
顨 100
頬 100
頡 100
韐 100
韏 100
韈 100
霪 100
霁 100
雸 100
雩 100
雒 100
阼 100
阠 100
閾 100
閤 100
閔 100
閐 100
镸 100
镲 100
镒 100
锼 100
锴 100
锘 100
铹 100
铘 100
铗 100
铓 100
钭 100
钫 100
钖 100
鑘 100
鑓 100
鐪 100
鐒 100
鏸 100
鏰 100
鏬 100
鏦 100
鏜 100
鏗 100
鎳 100
鎙 100
鎏 100
錸 100
錳 100
錚 100
鋟 100
鋈 100
銻 100
銸 100
銫 100
銚 100
銃 100
鉶 100
鉭 100
鉩 100
鉂 100
鈸 100
鈁 100
醮 100
醩 100
醆 100
酽 100
酲 100
酏 100
鄨 100
郦 100
郛 100
郘 100
郖 100
郏 100
遝 100
逹 100
逦 100
逥 100
逘 100
迼 100
迮 100
迉 100
辸 100
輳 100
輊 100
輀 100
軾 100
軼 100
躶 100
躨 100
躊 100
蹯 100
踣 100
跍 100
跈 100
趱 100
赓 100
賌 100
貔 100
豻 100
豴 100
豨 100
豛 100
谮 100
诼 100
诜 100
讒 100
譀 100
謢 100
謘 100
諶 100
諤 100
諄 100
詪 100
詘 100
詔 100
訳 100
訬 100
觔 100
覇 100
襝 100
褵 100
褌 100
裓 100
裉 100
裈 100
袙 100
袘 100
蟸 100
蟘 100
蟓 100
螥 100
蝻 100
蝲 100
蝥 100
蝚 100
蛸 100
蛩 100
蛘 100
蛈 100
蚻 100
蚘 100
蚍 100
蚇 100
蚅 100
虼 100
虮 100
虬 100
虌 100
蘨 100
藼 100
藋 100
薴 100
薖 100
薅 100
蔸 100
蔵 100
蔟 100
蔖 100
蓷 100
蓀 100
蒻 100
萰 100
萫 100
萏 100
萈 100
萁 100
菓 100
菉 100
莧 100
莜 100
莏 100
荠 100
茻 100
茪 100
茇 100
苧 100
苙 100
苖 100
苕 100
苁 100
芤 100
芎 100
芈 100
艸 100
艭 100
舲 100
舚 100
舏 100
舋 100
臢 100
臠 100
臌 100
膄 100
腂 100
脩 100
脞 100
脘 100
胵 100
胢 100
胟 100
胇 100
肒 100
肐 100
聴 100
聱 100
聮 100
耠 100
耖 100
翚 100
羼 100
羢 100
羠 100
羕 100
羄 100
羂 100
罴 100
罬 100
罧 100
缦 100
缍 100
绨 100
绡 100
纟 100
纁 100
繸 100
繱 100
繢 100
繈 100
縙 100
縁 100
緲 100
緐 100
綮 100
綘 100
絈 100
絇 100
絁 100
紼 100
紨 100
糲 100
糩 100
糚 100
糘 100
粅 100
籭 100
籚 100
簩 100
簒 100
篺 100
篸 100
篜 100
箷 100
箬 100
筪 100
筙 100
筘 100
筊 100
筇 100
筀 100
笾 100
竼 100
竓 100
竑 100
竃 100
窤 100
窊 100
窆 100
穱 100
稞 100
稛 100
禳 100
禎 100
祬 100
祤 100
祄 100
礵 100
礅 100
磓 100
磈 100
磆 100
碨 100
碥 100
碣 100
硯 100
硤 100
硠 100
硇 100
砻 100
砡 100
砇 100
砀 100
瞹 100
瞫 100
瞘 100
瞐 100
瞍 100
睟 100
睌 100
睈 100
睆 100
眽 100
眵 100
眲 100
眫 100
眝 100
眚 100
眇 100
眄 100
瘐 100
瘊 100
痶 100
痑 100
疰 100
疧 100
疜 100
疘 100
疕 100
疔 100
疋 100
疈 100
畘 100
畂 100
瓵 100
瓨 100
瓘 100
璫 100
瑴 100
琾 100
琮 100
珽 100
珵 100
玣 100
獏 100
猹 100
猰 100
猆 100
狺 100
狢 100
燿 100
燰 100
熸 100
煇 100
焐 100
烴 100
烕 100
炘 100
灨 100
灠 100
澨 100
澇 100
潄 100
漥 100
渨 100
渑 100
済 100
淴 100
淈 100
涶 100
涘 100
涑 100
浘 100
洏 100
洈 100
泧 100
汣 100
汋 100
汆 100
氀 100
毨 100
毘 100
毌 100
殏 100
歳 100
歛 100
歊 100
欶 100
欭 100
欨 100
欒 100
欁 100
檣 100
檚 100
橹 100
橛 100
樗 100
樈 100
槻 100
槪 100
槊 100
槇 100
榥 100
榚 100
楽 100
楫 100
楡 100
楛 100
楘 100
楖 100
棻 100
梔 100
梋 100
梈 100
桰 100
栻 100
栨 100
栥 100
栔 100
柸 100
柡 100
柝 100
柃 100
枳 100
枎 100
枋 100
枆 100
朿 100
朙 100
朐 100
曵 100
曭 100
曡 100
曒 100
曌 100
曀 100
暼 100
暣 100
暛 100
晻 100
晸 100
昤 100
昅 100
旒 100
斎 100
斈 100
敮 100
敉 100
敆 100
攺 100
攈 100
擡 100
擈 100
搨 100
搠 100
搛 100
搚 100
搕 100
揺 100
揥 100
掻 100
掹 100
掭 100
掞 100
掍 100
掅 100
捽 100
捔 100
捊 100
挷 100
挘 100
挔 100
拺 100
拹 100
拶 100
拠 100
拏 100
抩 100
抟 100
扷 100
扡 100
戸 100
戨 100
戇 100
懨 100
懣 100
懟 100
懃 100
憷 100
慬 100
慐 100
愾 100
愷 100
愨 100
愦 100
愖 100
惷 100
悱 100
悰 100
悩 100
悃 100
悁 100
恉 100
怸 100
忝 100
忈 100
徧 100
弾 100
弢 100
庾 100
庥 100
庛 100
幯 100
帰 100
帨 100
帗 100
帏 100
巜 100
巘 100
巒 100
嶸 100
嶯 100
嶁 100
嵫 100
崁 100
峯 100
峘 100
岫 100
屸 100
屮 100
屨 100
屇 100
尒 100
尅 100
寳 100
宨 100
嫰 100
嫮 100
嫫 100
媬 100
媘 100
婟 100
姭 100
姛 100
妧 100
妣 100
奾 100
奷 100
奨 100
夎 100
夆 100
壼 100
墁 100
塸 100
堳 100
堘 100
堔 100
埳 100
垡 100
垓 100
坭 100
坘 100
圪 100
圢 100
圊 100
囃 100
嚅 100
嚃 100
嚀 100
噈 100
嘠 100
嗵 100
嗮 100
嗈 100
喯 100
唩 100
唢 100
唈 100
唅 100
咹 100
咍 100
呪 100
吲 100
吘 100
匋 100
勠 100
勂 100
劭 100
剟 100
剈 100
刖 100
冾 100
冱 100
冨 100
冔 100
冑 100
兖 100
儼 100
儚 100
僦 100
偰 100
偭 100
偩 100
偨 100
倸 100
俷 100
侺 100
侸 100
侓 100
侉 100
伿 100
伳 100
伛 100
仴 100
仡 100
仈 100
亍 100
亊 100
乗 100
䵈 100
䴨 100
䴘 100
䱸 100
䱅 100
䰸 100
䯨 100
䯈 100
䮨 100
䭘 100
䩨 100
䨠 100
䦸 100
䦨 100
䤨 100
䣘 100
䢨 100
䡸 100
䠈 100
䝈 100
䝆 100
䙘 100
䙔 100
䙈 100
䘹 100
䘧 100
䗨 100
䗘 100
䕘 100
䕒 100
䕈 100
䕆 100
䔨 100
䔘 100
䓸 100
䑘 100
䏨 100
䏘 100
䍎 100
䊘 100
䉘 100
䇨 100
䅘 100
䄸 100
䃨 100
䂈 100
䁈 100
䀠 100
㾨 100
㼸 100
㻸 100
㻘 100
㹈 100
㸸 100
㸘 100
㸈 100
㴸 100
㳨 100
㳈 100
㲨 100
㰈 100
㯘 100
㯈 100
㮘 100
㭸 100
㬈 100
㪨 100
㪘 100
㩦 100
㧈 100
㥘 100
㤸 100
㠸 100
㠈 100
㟨 100
㟘 100
㟈 100
㛨 100
㚸 100
㕨 100
㔨 100
㓈 100
㏨ 100
㏒ 100
㎸ 100
㋸ 100
㊨ 100
㈸ 100
ㆍ 100
ㄦ 100
ㄡ 100
ㄔ 100
ヲ 100
゛ 100
ぢ 100
〦 100
〢 100
⿈ 100
⾨ 100
⾘ 100
⺘ 100
ⶸ 100
ⶨ 100
ⵘ 100
ⵈ 100
ⴈ 100
⳨ 100
Ⳉ 100
Ⲹ 100
Ⲩ 100
Ⱪ 100
ⱨ 100
ⰸ 100
Ⰰ 100
⭈ 100
⬘ 100
⬈ 100
⫘ 100
⩘ 100
⧘ 100
⦘ 100
⤘ 100
⡸ 100
⡨ 100
⟸ 100
⟈ 100
✸ 100
⛈ 100
⚨ 100
♺ 100
☨ 100
☈ 100
◐ 100
▓ 100
╠ 100
╛ 100
╘ 100
╔ 100
┽ 100
┲ 100
┥ 100
┒ 100
⒨ 100
⒏ 100
⑈ 100
⏨ 100
⍨ 100
⍘ 100
⌸ 100
⌨ 100
⊸ 100
∨ 100
∧ 100
∠ 100
∝ 100
⇸ 100
⇑ 100
↨ 100
↕ 100
ⅸ 100
ⅵ 100
Ⅶ 100
ℸ 100
℧ 100
Ω 100
⁯ 100
⁫ 100
⁇ 100
‾ 100
Ὲ 100
ᾘ 100
Ἰ 100
Ἠ 100
Ỹ 100
Ỷ 100
ự 100
ử 100
ở 100
Ộ 100
ọ 100
Ṩ 100
ṣ 100
ᵈ 100
ᴸ 100
ᴘ 100
ᰨ 100
ᯘ 100
ᬈ 100
ᦘ 100
᥈ 100
ᤸ 100
ᡈ 100
᠈ 100
ឨ 100
ᜨ 100
ᛨ 100
ᚘ 100
ᙨ 100
ᘘ 100
ᗸ 100
ᗘ 100
ᓘ 100
Ꮘ 100
Ꭸ 100
፸ 100
፨ 100
ፘ 100
የ 100
ኘ 100
ሸ 100
ለ 100
ᇸ 100
ᇘ 100
ᆘ 100
ᅘ 100
ᄈ 100
ც 100
ႚ 100
ႏ 100
၈ 100
ဘ 100
࿘ 100
༸ 100
༦ 100
๘ 100
ธ 100
ฉ 100
ෘ 100
් 100
න 100
ඈ 100
ಘ 100
ఘ 100
ఈ 100
௸ 100
ஸ 100
ந 100
ଘ 100
ଈ 100
ન 100
ਈ 100
ঈ 100
न 100
घ 100
ई 100
ࠨ 100
ࠈ 100
߈ 100
ܘ 100
۩ 100
ژ 100
ڈ 100
׳ 100
ן 100
ד 100
׀ 100
ֳ 100
֘ 100
ո 100
Ӹ 100
ӈ 100
ҳ 100
Ҁ 100
Ѩ 100
ϱ 100
ΰ 100
̷ 100
̛ 100
̘ 100
̊ 100
˸ 100
˜ 100
ɸ 100
ɨ 100
ɘ 100
Ȗ 100
ȋ 100
Ȉ 100
Ǿ 100
Ǹ 100
Ǩ 100
Ǔ 100
Ǐ 100
Ƙ 100
Ħ 100
Ę 100
 100
𥚃 100
𥘉 100
😨 100
￼ 100
ｺ 100
ｖ 100
ﹸ 100
﹪ 100
﹈ 100
︻ 100
︈ 100
ﷺ 100
ﵸ 100
ﴰ 100
ﳚ 100
ﳑ 100
ﳈ 100
ﲰ 100
ﱰ 100
ﰈ 100
ﯸ 100
ﮘ 100
ﭺ 100
ﭭ 100
ﭫ 100
מּ 100
לּ 100
וּ 100
גּ 100
ﬠ 100
喝 100
縉 100
益 100
宅 100
切 100
識 100
離 100
隆 100
遼 100
靈 100
零 100
撚 100
歷 100
廬 100
凉 100
略 100
說 100
復 100
異 100
勞 100
 100
 100
 100
 100
 100
 100
 100
 100
 100
 100
 100
 100
 100
 100
 100
 100
 100
 100
 100
 100
 100
 100
 100
 100
 100
 100
 100
 100
 100
 100
 100
 100
 100
 100
 100
 100
 100
 100
 100
 100
 100
 100
 100
 100
 100
 100
 100
 100
 100
 100
 100
 100
 100
 100
 100
 100
 100
 100
 100
 100
 100
 100
 100
 100
 100
 100
 100
 100
 100
 100
 100
 100
 100
 100
 100
 100
 100
 100
 100
 100
 100
 100
 100
 100
 100
 100
 100
 100
 100
 100
 100
 100
 100
 100
 100
 100
 100
 100
 100
 100
 100
 100
 100
 100
 100
 100
 100
 100
 100
 100
 100
 100
 100
 100
 100
 100
 100
 100
 100
 100
 100
 100
 100
 100
 100
 100
 100
 100
 100
 100
 100
 100
 100
 100
 100
 100
 100
 100
 100
 100
 100
 100
 100
 100
 100
 100
 100
 100
 100
 100
 100
ퟏ 100
ퟍ 100
ퟁ 100
훋 100
횘 100
홨 100
헭 100
헋 100
헁 100
햷 100
햱 100
햛 100
햘 100
핸 100
퓦 100
퓕 100
풷 100
푈 100
폳 100
폧 100
폡 100
펈 100
틯 100
틈 100
틃 100
튷 100
튭 100
튬 100
튈 100
퇷 100
톥 100
톘 100
톈 100
텨 100
탶 100
탬 100
탥 100
탊 100
킷 100
킫 100
킨 100
쿑 100
쿏 100
쿉 100
쾹 100
콘 100
켘 100
컦 100
컡 100
컙 100
컏 100
캼 100
츘 100
츈 100
췠 100
췔 100
췒 100
춱 100
쵈 100
쳱 100
쳣 100
첦 100
첈 100
쯱 100
쯮 100
쯥 100
쯔 100
쯐 100
쮱 100
쮦 100
쭸 100
쫋 100
쫈 100
쩨 100
쩈 100
짰 100
짫 100
짩 100
짘 100
짗 100
쥘 100
좶 100
졈 100
쟻 100
쟜 100
쟑 100
쟍 100
장 100
윸 100
웽 100
웑 100
욨 100
예 100
열 100
엖 100
엍 100
얾 100
얧 100
쓵 100
쓥 100
쓆 100
쒺 100
쒴 100
쒯 100
쒈 100
쐨 100
쐘 100
쏓 100
쏑 100
쏄 100
쎵 100
싏 100
슴 100
슮 100
쇼 100
쇰 100
쇯 100
쇧 100
쇦 100
쇢 100
셈 100
세 100
샦 100
샣 100
샅 100
삻 100
삱 100
삯 100
쀨 100
뿴 100
뿀 100
뻳 100
뻬 100
뺣 100
빘 100
븈 100
뷪 100
뷄 100
붿 100
붴 100
붯 100
붦 100
볣 100
볕 100
볂 100
벻 100
벥 100
뱘 100
믞 100
믋 100
믉 100
믁 100
뮴 100
뫧 100
뫥 100
뫗 100
멈 100
맹 100
릿 100
릨 100
름 100
륈 100
뤸 100
뤈 100
룾 100
룵 100
룲 100
룰 100
룗 100
료 100
뢼 100
뢭 100
뢬 100
뢞 100
뢙 100
롫 100
롦 100
롔 100
롃 100
렾 100
렣 100
럯 100
럍 100
랰 100
랮 100
랪 100
뛵 100
뛪 100
뛗 100
뗯 100
뗕 100
뗅 100
떈 100
듶 100
들 100
듘 100
듆 100
뒷 100
뒶 100
뒈 100
둸 100
되 100
됈 100
돮 100
뎺 100
뎴 100
뎘 100
답 100
닲 100
닭 100
늲 100
늈 100
뉨 100
눨 100
뇺 100
뇬 100
뇫 100
뇌 100
뇅 100
넸 100
냨 100
냢 100
냒 100
낼 100
낦 100
꾨 100
꼘 100
깸 100
길 100
긨 100
굨 100
괸 100
곘 100
갸 100
ꫝ 100
ꪪ 100
ꪨ 100
ꨘ 100
꧘ 100
ꡘ 100
ꠘ 100
Ꜩ 100
ꛘ 100
ꘘ 100
ꖸ 100
ꒈ 100
ꐨ 100
ꏩ 100
ꏐ 100
ꏅ 100
ꎦ 100
ꍸ 100
ꍈ 100
ꌈ 100
ꋳ 100
ꋱ 100
ꋐ 100
ꋋ 100
ꋊ 100
ꋉ 100
ꈘ 100
ꇸ 100
ꇯ 100
ꇫ 100
ꄨ 100
ꃨ 100
ꃘ 100
ꀘ 100
鿈 100
龨 100
龤 100
龠 100
齶 100
齜 100
齏 100
齄 100
鼷 100
鼳 100
鼙 100
鼁 100
黽 100
黵 100
黰 100
麺 100
麴 100
麜 100
麈 100
鹮 100
鹟 100
鸼 100
鸺 100
鸹 100
鸝 100
鷿 100
鷥 100
鶹 100
鶋 100
鵵 100
鵙 100
鵈 100
鴱 100
鴢 100
鴙 100
鴑 100
鳽 100
鳙 100
鳘 100
鳒 100
鳈 100
鲥 100
鲕 100
鱲 100
鱟 100
鱖 100
鰫 100
鰛 100
鰙 100
鰘 100
鰇 100
鯽 100
鯺 100
鯸 100
鯵 100
鯕 100
鯁 100
鬰 100
鬮 100
鬏 100
髹 100
髲 100
髙 100
髈 100
髆 100
骱 100
骞 100
骈 100
驺 100
驵 100
驥 100
驣 100
驈 100
驆 100
騫 100
騩 100
騉 100
駢 100
駜 100
駋 100
駈 100
馿 100
馻 100
饣 100
饌 100
饈 100
餤 100
餁 100
飗 100
飅 100
顰 100
顑 100
顃 100
頫 100
韷 100
韮 100
韫 100
韙 100
鞳 100
鞯 100
鞕 100
霽 100
霵 100
霈 100
雿 100
雠 100
雐 100
雊 100
隒 100
隄 100
陉 100
陂 100
阸 100
阣 100
阗 100
阏 100
闚 100
閰 100
閏 100
镈 100
锬 100
锫 100
锓 100
锎 100
铩 100
铖 100
钲 100
钘 100
鑤 100
鑞 100
鑚 100
鑗 100
鑀 100
鐽 100
鐫 100
鐙 100
鐇 100
鎨 100
鎣 100
鎑 100
鍳 100
鍪 100
鍤 100
鍝 100
錼 100
錙 100
錔 100
錒 100
錆 100
錀 100
鋨 100
鋦 100
鋘 100
銨 100
銡 100
銍 100
鉿 100
鉰 100
鉪 100
鉨 100
鉘 100
鉉 100
鈰 100
鈤 100
鈡 100
鈘 100
鈇 100
釡 100
醾 100
醰 100
醪 100
醅 100
醂 100
酼 100
酹 100
酄 100
酃 100
鄸 100
鄴 100
鄎 100
郱 100
郩 100
郠 100
郟 100
郐 100
郋 100
郉 100
邿 100
邽 100
邶 100
邳 100
邙 100
邘 100
邕 100
邇 100
遶 100
遄 100
逯 100
迒 100
迋 100
迀 100
辂 100
轳 100
轣 100
輥 100
軷 100
軝 100
軔 100
軓 100
躭 100
躥 100
躙 100
躘 100
躑 100
蹝 100
蹜 100
蹍 100
踼 100
踬 100
踨 100
踙 100
踔 100
踅 100
跼 100
跘 100
跐 100
趮 100
赒 100
赉 100
贳 100
贔 100
贋 100
賻 100
賥 100
賘 100
貰 100
豲 100
豜 100
豍 100
豊 100
谫 100
谥 100
诒 100
诎 100
讞 100
讜 100
讋 100
譻 100
譲 100
譝 100
譆 100
謽 100
謳 100
謔 100
謏 100
諴 100
諍 100
諃 100
諀 100
誾 100
誶 100
誚 100
詁 100
訸 100
訢 100
訐 100
訄 100
觳 100
觪 100
觜 100
觓 100
觏 100
覾 100
覨 100
襭 100
襬 100
襢 100
襓 100
襒 100
褾 100
褽 100
褞 100
褙 100
褘 100
褕 100
褆 100
裵 100
裰 100
裯 100
袼 100
袴 100
袡 100
袗 100
衁 100
蠺 100
蠲 100
蠡 100
蟞 100
蟜 100
蟐 100
蟎 100
螿 100
螽 100
螵 100
螓 100
螑 100
螐 100
蝛 100
蜩 100
蜎 100
蛳 100
蛒 100
蚸 100
蚢 100
蚉 100
虰 100
虭 100
虨 100
虢 100
蘺 100
蘢 100
蘒 100
藾 100
藸 100
藦 100
藘 100
藎 100
薫 100
薘 100
薗 100
薈 100
蕻 100
蕲 100
蕦 100
蕚 100
蕒 100
蕆 100
蔕 100
蔈 100
蓠 100
蓐 100
蓊 100
蒫 100
蒃 100
蒁 100
蒀 100
葽 100
葴 100
葢 100
萻 100
萭 100
萢 100
菟 100
菎 100
菋 100
菂 100
菀 100
莼 100
莬 100
莈 100
荬 100
茺 100
茯 100
苮 100
苈 100
芐 100
芀 100
艽 100
舴 100
舡 100
舙 100
舎 100
舄 100
臵 100
臡 100
臞 100
臝 100
臗 100
膲 100
膣 100
膕 100
膔 100
膑 100
膎 100
膅 100
膂 100
腧 100
腤 100
腠 100
腜 100
腙 100
腗 100
腒 100
脰 100
脇 100
胿 100
胲 100
胠 100
胙 100
肻 100
肭 100
肙 100
聸 100
聟 100
聜 100
聕 100
聇 100
聄 100
耺 100
耹 100
耬 100
耧 100
耢 100
翶 100
翯 100
翬 100
翫 100
翏 100
翈 100
羜 100
羓 100
羀 100
罨 100
罥 100
罤 100
罣 100
罟 100
罘 100
罎 100
缳 100
缣 100
缡 100
缁 100
绬 100
绁 100
纴 100
纎 100
纆 100
繯 100
繒 100
縳 100
縲 100
縭 100
縦 100
縑 100
縍 100
縌 100
縆 100
縂 100
緃 100
綳 100
綯 100
綧 100
綏 100
絿 100
絽 100
絷 100
絣 100
絝 100
絜 100
絍 100
絉 100
絅 100
紸 100
紶 100
紵 100
紥 100
粲 100
粯 100
粢 100
粛 100
粖 100
粀 100
籶 100
籴 100
籧 100
籞 100
籅 100
簞 100
簖 100
簐 100
簂 100
篼 100
篵 100
篬 100
篠 100
篞 100
篚 100
篐 100
篌 100
箪 100
箌 100
箅 100
筸 100
筰 100
筮 100
筦 100
筜 100
筈 100
筅 100
筄 100
笽 100
笯 100
笐 100
笎 100
笉 100
笀 100
竸 100
竱 100
竪 100
竦 100
竏 100
窴 100
窧 100
窞 100
窔 100
穧 100
穣 100
穏 100
穋 100
穊 100
穈 100
稪 100
稃 100
稂 100
秾 100
秭 100
秚 100
秄 100
禵 100
禝 100
禐 100
禊 100
祲 100
祪 100
祃 100
礻 100
礑 100
礍 100
礀 100
磢 100
磠 100
磄 100
碹 100
碦 100
碤 100
碖 100
碄 100
碀 100
硢 100
硘 100
硍 100
砙 100
砗 100
矻 100
矺 100
瞵 100
瞆 100
睄 100
睃 100
眧 100
眜 100
眓 100
眍 100
県 100
眂 100
盩 100
皾 100
皴 100
皤 100
皍 100
皉 100
癛 100
癍 100
癃 100
瘼 100
瘵 100
瘰 100
瘮 100
瘥 100
瘗 100
瘈 100
痯 100
痡 100
痃 100
疬 100
疠 100
畺 100
畹 100
畬 100
畨 100
畤 100
畣 100
畋 100
甿 100
甼 100
甪 100
瓾 100
瓼 100
瓺 100
瓫 100
瓖 100
璻 100
璙 100
璌 100
璈 100
瑋 100
瑉 100
瑃 100
瑂 100
琺 100
琫 100
琀 100
珜 100
珕 100
珔 100
玘 100
玗 100
獯 100
獚 100
獕 100
獉 100
猻 100
猱 100
猯 100
猄 100
狷 100
狫 100
狪 100
狊 100
狆 100
犾 100
犳 100
牼 100
牮 100
牬 100
牐 100
爮 100
爫 100
燹 100
燸 100
燘 100
燁 100
熳 100
熝 100
熘 100
熓 100
煫 100
煘 100
煓 100
煊 100
焾 100
焠 100
焓 100
焄 100
烚 100
炻 100
炱 100
炨 100
灲 100
灥 100
灡 100
瀞 100
瀋 100
濸 100
濳 100
濏 100
澿 100
潹 100
潵 100
潬 100
潎 100
潋 100
漟 100
漈 100
滸 100
滬 100
滙 100
溽 100
湼 100
湱 100
湜 100
湏 100
渙 100
渓 100
渌 100
渋 100
淥 100
淢 100
淐 100
涬 100
浲 100
浡 100
浠 100
浄 100
浀 100
洠 100
洐 100
洃 100
洀 100
泘 100
沚 100
汵 100
汭 100
汚 100
汎 100
氽 100
氅 100
毬 100
毃 100
殳 100
殱 100
殫 100
殢 100
殌 100
歿 100
歺 100
歭 100
歘 100
歏 100
歀 100
欹 100
欵 100
欤 100
欘 100
欐 100
欏 100
欋 100
欂 100
櫳 100
櫩 100
櫕 100
櫌 100
檩 100
檨 100
橼 100
橵 100
橨 100
橕 100
橔 100
樯 100
樫 100
樄 100
槼 100
槠 100
槚 100
槄 100
槀 100
榱 100
榦 100
榟 100
榍 100
楰 100
楜 100
楍 100
楆 100
楁 100
椮 100
椨 100
椤 100
検 100
椏 100
棸 100
棶 100
梼 100
梱 100
梘 100
梖 100
梌 100
桾 100
桳 100
桱 100
桭 100
桜 100
桖 100
栮 100
栦 100
栢 100
栘 100
栒 100
栌 100
柛 100
柁 100
枌 100
杼 100
杪 100
杛 100
杍 100
朹 100
朶 100
朡 100
朓 100
朒 100
曷 100
曶 100
曱 100
曫 100
曨 100
曧 100
曟 100
曚 100
曗 100
曍 100
暺 100
暥 100
暤 100
晳 100
晥 100
晣 100
晜 100
晇 100
昻 100
昺 100
昲 100
昦 100
昐 100
昃 100
旲 100
斿 100
斪 100
敯 100
敪 100
敧 100
敇 100
擻 100
擯 100
撳 100
撟 100
撚 100
摲 100
摜 100
摙 100
摗 100
摐 100
搿 100
搷 100
搦 100
揻 100
揳 100
揧 100
揜 100
揙 100
揗 100
揑 100
揌 100
揈 100
揂 100
掾 100
掔 100
掑 100
掁 100
捵 100
捰 100
捤 100
捖 100
捃 100
挮 100
挭 100
挬 100
挓 100
挏 100
拵 100
拲 100
抦 100
抏 100
抍 100
扜 100
扏 100
扌 100
扃 100
戭 100
戞 100
懠 100
懐 100
懆 100
憟 100
憈 100
慸 100
慤 100
慡 100
慝 100
慆 100
慃 100
愽 100
愴 100
惻 100
惵 100
惎 100
悮 100
悫 100
悗 100
悎 100
悇 100
悀 100
恴 100
恊 100
怿 100
怲 100
怛 100
怚 100
怘 100
怑 100
忷 100
忮 100
忟 100
忕 100
忉 100
徸 100
徆 100
彍 100
彋 100
彀 100
弚 100
廴 100
廰 100
廯 100
廍 100
廇 100
庹 100
庬 100
幃 100
帞 100
巟 100
巋 100
巈 100
嶲 100
嶚 100
嵛 100
崮 100
崧 100
崥 100
崕 100
崑 100
崌 100
崂 100
峷 100
峱 100
岽 100
岺 100
岣 100
岢 100
岓 100
岋 100
屘 100
専 100
寱 100
寜 100
寑 100
宼 100
宍 100
宀 100
孼 100
嬧 100
嬛 100
嬈 100
嫵 100
嫐 100
媶 100
媪 100
媖 100
媌 100
媉 100
婼 100
婺 100
婸 100
婩 100
婧 100
婜 100
婛 100
婘 100
婑 100
婍 100
娗 100
娒 100
姵 100
姮 100
妐 100
奭 100
夲 100
壾 100
壣 100
壚 100
壌 100
壆 100
墿 100
墼 100
墦 100
墡 100
塽 100
塬 100
塥 100
塈 100
堣 100
堝 100
堐 100
堊 100
堄 100
埽 100
埵 100
埲 100
埱 100
埤 100
埙 100
埈 100
垶 100
垯 100
垞 100
垈 100
坸 100
坜 100
坉 100
坈 100
圻 100
圬 100
圇 100
団 100
囓 100
嚶 100
嚁 100
噿 100
噲 100
嘨 100
嗼 100
嗻 100
嗩 100
喾 100
啗 100
唼 100
唹 100
唲 100
唦 100
唗 100
唒 100
哵 100
哱 100
哕 100
咢 100
呫 100
吿 100
吇 100
厹 100
卬 100
卙 100
卌 100
匴 100
勰 100
劬 100
劁 100
剗 100
刼 100
刲 100
刞 100
刉 100
凪 100
凨 100
凘 100
凗 100
凖 100
凎 100
冖 100
兤 100
儠 100
儍 100
儋 100
僣 100
僠 100
僘 100
僗 100
僖 100
僈 100
傰 100
傩 100
傔 100
傎 100
偾 100
偲 100
偬 100
偘 100
偍 100
偄 100
倻 100
倮 100
倣 100
倂 100
倀 100
俥 100
俢 100
俔 100
俈 100
侜 100
侒 100
侇 100
佨 100
佧 100
佉 100
佂 100
伻 100
伵 100
伨 100
伣 100
伋 100
仳 100
仭 100
亓 100
乕 100
丼 100
䳸 100
䳘 100
䲟 100
䰠 100
䮸 100
䭒 100
䬸 100
䪨 100
䪈 100
䩘 100
䦆 100
䤘 100
䣸 100
䢈 100
䡘 100
䠨 100
䞘 100
䛸 100
䚸 100
䚚 100
䚘 100
䙸 100
䙊 100
䙄 100
䙃 100
䙁 100
䘱 100
䘠 100
䕨 100
䕔 100
䕓 100
䔸 100
䓬 100
䑸 100
䐨 100
䏝 100
䎨 100
䍈 100
䌨 100
䈸 100
䇸 100
䇈 100
䆁 100
䅨 100
䅌 100
䅈 100
䃈 100
䂸 100
䁘 100
䀨 100
䀉 100
㾗 100
㼈 100
㹉 100
㵘 100
㵈 100
㱨 100
㬸 100
㫈 100
㩸 100
㩥 100
㥨 100
㣨 100
㢸 100
㡸 100
㠱 100
㠨 100
㞸 100
㞈 100
㝸 100
㜨 100
㘲 100
㕸 100
㔠 100
㓸 100
㒸 100
㒨 100
㒈 100
㐸 100
㐱 100
㐍 100
㏸ 100
㎢ 100
㎜ 100
㎘ 100
㍈ 100
㌶ 100
㌍ 100
㋘ 100
㈶ 100
㈘ 100
ㇸ 100
ㅘ 100
ㄵ 100
ㄞ 100
ポ 100
ペ 100
ヂ 100
ぅ 100
〘 100
⾸ 100
⽴ 100
⽈ 100
⺸ 100
⸈ 100
⸀ 100
ⷘ 100
ⵦ 100
ⵡ 100
ⱳ 100
Ⱨ 100
Ⱘ 100
⫈ 100
⩈ 100
⨨ 100
⥄ 100
⤸ 100
⤨ 100
⢨ 100
⢘ 100
⡈ 100
⠨ 100
⟩ 100
⟨ 100
➸ 100
❖ 100
✝ 100
✀ 100
♡ 100
◀ 100
▴ 100
╫ 100
┭ 100
┠ 100
┝ 100
┓ 100
┉ 100
ⓨ 100
⒘ 100
⒒ 100
⒉ 100
␤ 100
␋ 100
␃ 100
⎭ 100
⎧ 100
⋨ 100
⋄ 100
⊗ 100
⊈ 100
⊂ 100
≯ 100
≫ 100
≢ 100
≒ 100
≌ 100
≃ 100
∷ 100
⇩ 100
↸ 100
↗ 100
ⅶ 100
Ⅺ 100
ⅈ 100
Å 100
ℒ 100
₪ 100
₂ 100
⁭ 100
⁬ 100
⁔ 100
⁍ 100
⁌ 100
⁆ 100
‼ 100
‸ 100
‱ 100
Ᾰ 100
ᾈ 100
ὸ 100
Ὀ 100
Ἀ 100
Ỳ 100
Ự 100
ụ 100
ợ 100
ỡ 100
ớ 100
ỏ 100
Ọ 100
Ỉ 100
Ẽ 100
Ẻ 100
ằ 100
ầ 100
ᶨ 100
ᶘ 100
ᵸ 100
ᵌ 100
ᴨ 100
ᰘ 100
ᯈ 100
ᮨ 100
᭸ 100
ᨘ 100
ᦸ 100
ᦨ 100
ᤈ 100
ᡤ 100
ᠸ 100
ᠨ 100
ᙘ 100
ᘸ 100
ᕸ 100
ᒸ 100
ᐘ 100
ፈ 100
ሁ 100
ᇈ 100
ᅨ 100
ᄨ 100
ტ 100
ႄ 100
ဈ 100
က 100
ྸ 100
ྨ 100
ཨ 100
ས 100
ཛ 100
ཚ 100
ག 100
ཁ 100
໘ 100
ຈ 100
ි 100
൮ 100
൨ 100
ಈ 100
୰ 100
ৈ 100
ন 100
ঘ 100
स 100
࠘ 100
ߘ 100
܇ 100
۟ 100
ۗ 100
ڪ 100
ٸ 100
״ 100
צ 100
ׂ 100
֭ 100
Ո 100
Ԉ 100
Ӫ 100
Ӥ 100
ӑ 100
Ҳ 100
Ұ 100
Ϩ 100
ϛ 100
ΐ 100
Ά 100
ʹ 100
͘ 100
͈ 100
̰ 100
̔ 100
˨ 100
ʿ 100
ȧ 100
ț 100
Ȏ 100
ȍ 100
Ǵ 100
ǳ 100
ǚ 100
Ǚ 100
Ƹ 100
ĵ 100
ĥ 100
Ġ 100
Ĝ 100
Ą 100
▁d 100
es 100
on 100
en 100
ال 100
▁l 100
▁a 100
▁ال 100
ti 100
▁de 100
▁p 100
er 100
▁t 100
in 100
▁c 100
▁s 100
re 100
an 100
or 100
ar 100
ci 100
al 100
ent 100
▁la 100
os 100
▁e 100
is 100
he 100
tion 100
▁п 100
ст 100
it 100
▁. 100
▁m 100
ен 100
▁o 100
qu 100
▁the 100
as 100
ro 100
ur 100
▁و 100
▁in 100
▁f 100
un 100
▁в 100
te 100
ра 100
ation 100
om 100
но 100
▁م 100
▁с 100
ad 100
▁n 100
ic 100
▁en 100
le 100
ra 100
▁о 100
▁и 100
▁C 100
▁of 100
▁qu 100
ment 100
▁الم 100
▁con 100
на 100
▁1 100
ро 100
ية 100
▁re 100
▁an 100
ре 100
▁أ 100
▁b 100
▁2 100
то 100
ón 100
▁y 100
▁ل 100
id 100
ta 100
res 100
ed 100
▁ب 100
▁to 100
ec 100
го 100
ات 100
ни 100
us 100
aci 100
▁( 100
ко 100
▁S 100
▁, 100
في 100
il 100
▁по 100
ени 100
▁ت 100
▁w 100
▁h 100
▁A 100
ны 100
▁and 100
▁- 100
▁des 100
▁д 100
▁que 100
▁pro 100
el 100
ль 100
▁par 100
ol 100
ri 100
те 100
▁el 100
at 100
ва 100
▁es 100
▁E 100
ul 100
▁un 100
▁I 100
▁ع 100
▁P 100
ци 100
▁et 100
▁le 100
▁v 100
00 100
▁في 100
ce 100
ان 100
ри 100
ли 100
ing 100
▁g 100
▁T 100
ter 100
ет 100
ion 100
за 100
▁M 100
▁L 100
▁l' 100
ار 100
▁на 100
▁м 100
ant 100
ut 100
▁les 100
ام 100
▁se 100
▁los 100
our 100
ré 100
▁com 100
во 100
да 100
▁D 100
ка 100
ла 100
не 100
▁من 100
ين 100
та 100
▁N 100
▁إ 100
me 100
▁à 100
▁الت 100
لى 100
ir 100
▁th 100
ación 100
ми 100
im 100
▁? 100
am 100
▁las 100
em 100
ig 100
tiv 100
▁su 100
▁у 100
▁ي 100
▁ه 100
ть 100
▁for 100
ти 100
ab 100
ول 100
ou 100
ер 100
▁R 100
pp 100
▁ا 100
ви 100
▁del 100
▁со 100
▁б 100
ers 100
▁G 100
▁وال 100
ле 100
ло 100
et 100
▁on 100
▁ра 100
ch 100
▁no 100
▁الأ 100
▁al 100
▁ч 100
ها 100
▁d' 100
▁U 100
را 100
ations 100
▁ac 100
▁du 100
ения 100
end 100
ки 100
ся 100
iv 100
tr 100
▁про 100
bl 100
ans 100
ных 100
▁200 100
▁ex 100
ort 100
and 100
▁ко 100
ما 100
▁3 100
op 100
ля 100
сти 100
to 100
ير 100
▁об 100
▁as 100
ون 100
ست 100
▁res 100
▁é 100
▁au 100
ру 100
دة 100
▁أن 100
ес 100
ici 100
▁so 100
▁ك 100
ones 100
ement 100
▁j 100
ред 100
▁не 100
tin 100
▁19 100
▁O 100
ем 100
for 100
tu 100
▁за 100
um 100
ста 100
▁para 100
la 100
ди 100
▁Com 100
ales 100
▁" 100
ité 100
▁Con 100
▁الع 100
▁до 100
tic 100
▁dé 100
▁B 100
ción 100
ts 100
يا 100
ire 100
sion 100
ств 100
▁or 100
щи 100
▁لل 100
ient 100
▁Un 100
ac 100
نا 100
▁при 100
ff 100
bre 100
▁ح 100
od 100
▁F 100
lo 100
▁est 100
▁على 100
▁э 100
ay 100
ia 100
uc 100
ie 100
▁inter 100
té 100
se 100
ver 100
ции 100
iz 100
up 100
мо 100
ей 100
тель 100
▁我 100
▁го 100
▁H 100
ces 100
ado 100
قد 100
ist 100
st 100
▁4 100
01 100
▁be 100
ма 100
га 100
▁О 100
ري 100
▁pour 100
ду 100
▁С 100
que 100
▁J 100
ag 100
th 100
▁that 100
▁ré 100
▁ad 100
▁! 100
ted 100
لي 100
▁cons 100
▁ре 100
idad 100
io 100
ud 100
ve 100
ного 100
gra 100
▁5 100
▁co 100
▁от 100
ве 100
▁П 100
▁ن 100
▁In 100
су 100
си 100
oc 100
سا 100
▁К 100
по 100
до 100
▁во 100
▁الد 100
бо 100
▁per 100
form 100
gan 100
▁por 100
ven 100
es, 100
ue 100
ér 100
ور 100
ной 100
cial 100
ational 100
▁comp 100
au 100
▁ج 100
▁The 100
imp 100
ение 100
ча 100
▁что 100
ith 100
▁199 100
▁dans 100
▁dis 100
▁В 100
cl 100
اد 100
aciones 100
▁س 100
▁is 100
▁المت 100
ble 100
▁it 100
зо 100
▁me 100
.. 100
ly 100
▁sur 100
▁的 100
▁إلى 100
хо 100
▁Н 100
vel 100
▁а 100
min 100
ier 100
مة 100
ados 100
s, 100
▁rec 100
де 100
▁tra 100
▁' 100
▁пред 100
لا 100
▁W 100
ap 100
قر 100
▁6 100
▁... 100
tre 100
со 100
▁ف 100
▁الب 100
erv 100
ance 100
▁with 100
pe 100
▁imp 100
fic 100
▁r 100
▁pr 100
сто 100
én 100
ma 100
чи 100
ía 100
enci 100
وا 100
▁你 100
▁к 100
200 100
iti 100
▁ar 100
tions 100
لك 100
ще 100
ues 100
▁ch 100
يد 100
▁intern 100
▁الس 100
ten 100
▁بال 100
▁الإ 100
▁ne 100
▁pl 100
лю 100
ber 100
ión 100
▁ha 100
са 100
les 100
ond 100
ence 100
се 100
ذا 100
▁wh 100
ги 100
ting 100
ord 100
ep 100
tar 100
▁ка 100
▁د 100
ica 100
▁La 100
ты 100
▁lo 100
мен 100
ener 100
вани 100
▁rep 100
عل 100
). 100
▁av 100
▁то 100
ности 100
▁الج 100
▁201 100
▁ме 100
és 100
ные 100
▁fa 100
ры 100
▁الح 100
▁вы 100
ill 100
▁by 100
ere 100
tra 100
tes 100
ек 100
ity 100
ure 100
ien 100
ме 100
▁раз 100
▁ق 100
▁пра 100
лу 100
ate 100
▁pas 100
▁tr 100
mo 100
mes 100
же 100
▁En 100
▁pre 100
чес 100
▁fin 100
▁at 100
▁una 100
▁бы 100
вл 100
شر 100
e, 100
▁V 100
▁عن 100
ائ 100
▁ma 100
▁ra 100
مل 100
urs 100
▁та 100
▁7 100
па 100
стра 100
اب 100
▁pers 100
duc 100
ont 100
onn 100
si 100
▁El 100
ex 100
▁ap 100
▁под 100
▁qui 100
era 100
▁г 100
gh 100
/1 100
اء 100
.1 100
und 100
ую 100
▁ent 100
cip 100
▁الق 100
▁де 100
▁те 100
▁وت 100
olu 100
mis 100
рга 100
ства 100
▁app 100
مي 100
uman 100
ée 100
لة 100
▁الن 100
▁No 100
acion 100
▁Y 100
▁he 100
▁exp 100
وق 100
a, 100
▁pol 100
▁ti 100
ня 100
), 100
▁resp 100
▁ses 100
▁sobre 100
عد 100
eneral 100
▁ag 100
▁Le 100
▁you 100
▁М 100
пе 100
ор 100
жи 100
▁التي 100
▁الف 100
▁pres 100
ard 100
▁reg 100
من 100
▁Ко 100
أن 100
ies 100
▁parti 100
con 100
▁aux 100
▁для 100
s. 100
اق 100
▁une 100
вет 100
▁pe 100
▁organ 100
▁это 100
▁sa 100
gram 100
▁е 100
енных 100
▁Sec 100
fer 100
▁ob 100
go 100
▁الدول 100
▁Д 100
▁9 100
про 100
ign 100
сть 100
▁pu 100
titu 100
▁ind 100
▁8 100
tive 100
▁inform 100
▁pré 100
نة 100
▁кото 100
ect 100
idas 100
تم 100
▁are 100
able 100
ques 100
▁mo 100
ку 100
ada 100
وم 100
▁As 100
tri 100
encia 100
▁Nations 100
▁ins 100
ai 100
▁Г 100
ante 100
lic 100
cer 100
▁خ 100
▁А 100
му 100
ous 100
▁di 100
вы 100
▁ذ 100
عا 100
жа 100
قة 100
ство 100
ско 100
حدة 100
▁Pro 100
ens 100
mit 100
▁ce 100
▁aut 100
ge 100
▁， 100
ту 100
بر 100
▁ش 100
▁do 100
ргани 100
▁я 100
ني 100
ря 100
pos 100
▁мо 100
▁n' 100
▁was 100
че 100
عة 100
▁اﻷ 100
▁¿ 100
ente 100
دي 100
ons 100
ées 100
аль 100
lement 100
▁الو 100
تر 100
це 100
▁pos 100
mp 100
▁ر 100
جل 100
ari 100
▁؟ 100
▁из 100
▁الخ 100
uld 100
vern 100
ech 100
▁了 100
▁ф 100
يم 100
mente 100
jo 100
ique 100
▁кон 100
ций 100
ши 100
рганиза 100
▁不 100
стви 100
▁т 100
نس 100
iento 100
▁На 100
▁مع 100
▁cu 100
og 100
▁الأم 100
ux 100
ении 100
ow 100
ется 100
يل 100
▁لا 100
/2 100
كن 100
▁esta 100
▁الا 100
тов 100
▁العام 100
▁) 100
▁10 100
▁рас 100
▁ин 100
委员 100
▁، 100
▁أو 100
▁ab 100
ющи 100
сь 100
عم 100
ный 100
国家 100
▁المتحدة 100
▁Est 100
▁ter 100
/C 100
ork 100
委员会 100
va 100
ale 100
es. 100
▁sus 100
зи 100
ine 100
▁ri 100
ke 100
▁sh 100
▁года 100
▁pa 100
مو 100
ère 100
▁K 100
rol 100
▁الص 100
ited 100
▁pri 100
▁这 100
▁activ 100
ba 100
99 100
▁ما 100
هم 100
uer 100
tos 100
вер 100
ther 100
par 100
▁пе 100
tif 100
▁在 100
pport 100
ным 100
▁human 100
ás 100
▁comm 100
об 100
ult 100
ice 100
▁Es 100
vo 100
aux 100
igh 100
会议 100
▁entre 100
ction 100
اف 100
ود 100
▁incl 100
▁: 100
vis 100
rom 100
▁program 100
дер 100
يس 100
гра 100
▁dro 100
ют 100
▁стра 100
ich 100
пра 100
▁op 100
▁Par 100
дин 100
▁sec 100
тив 100
ению 100
co 100
ذه 100
▁international 100
ية، 100
▁qu' 100
▁Sta 100
ument 100
▁med 100
▁ou 100
velop 100
▁так 100
▁الر 100
▁serv 100
зна 100
جنة 100
do 100
▁Т 100
ких 100
ров 100
м, 100
til 100
▁mis 100
жду 100
▁是 100
▁man 100
▁eff 100
▁Comité 100
حد 100
▁li 100
ures 100
▁И 100
▁هذا 100
emb 100
▁Р 100
▁trans 100
联合 100
сле 100
قي 100
жен 100
éc 100
its 100
anci 100
дар 100
ould 100
2. 100
цио 100
▁cas 100
▁its 100
▁go 100
all 100
der 100
▁from 100
ando 100
mission 100
اً 100
▁Ch 100
▁сво 100
▁15 100
di 100
▁De 100
▁Th 100
ary 100
▁لم 100
▁غ 100
▁الل 100
от 100
tern 100
вля 100
حة 100
▁Conven 100
acional 100
▁Q 100
ция 100
blic 100
工作 100
вать 100
мы 100
▁mar 100
li 100
adas 100
вания 100
án 100
▁como 100
بة 100
▁дол 100
اص 100
ну 100
ang 100
▁إن 100
▁Co 100
ido 100
ществ 100
retar 100
pecial 100
▁not 100
▁11 100
emp 100
ses 100
▁General 100
问题 100
▁United 100
ug 100
so 100
roup 100
▁si 100
بي 100
3. 100
▁sta 100
▁have 100
r. 100
عية 100
▁他 100
/6 100
▁一 100
▁Go 100
amb 100
▁'s 100
▁Б 100
عت 100
един 100
▁all 100
ан 100
ins 100
ность 100
▁Conse 100
رة 100
bil 100
rech 100
lar 100
▁الذ 100
▁po 100
/5 100
▁righ 100
▁inv 100
ais 100
▁которы 100
▁ذلك 100
род 100
спо 100
▁il 100
bu 100
▁gén 100
ty 100
مية 100
iol 100
бы 100
▁form 100
▁أي 100
ants 100
▁rel 100
o, 100
▁все 100
▁mu 100
ния 100
жд 100
unci 100
طة 100
وج 100
国际 100
▁вопро 100
aires 100
▁Об 100
▁Se 100
os, 100
судар 100
▁Al 100
▁am 100
ное 100
gr 100
▁Rep 100
лен 100
报告 100
ide 100
▁ста 100
ne 100
4. 100
▁derech 100
联合国 100
каза 100
انون 100
oy 100
▁ли 100
▁gr 100
▁rela 100
aire 100
▁plus 100
est 100
fr 100
▁По 100
rit 100
▁été 100
ème 100
ase 100
▁has 100
ular 100
▁ми 100
▁ص 100
man 100
0. 100
▁sub 100
▁Je 100
▁Со 100
conom 100
يز 100
idades 100
ON 100
▁ont 100
▁this 100
app 100
сно 100
▁است 100
انت 100
рганизации 100
наль 100
ain 100
▁وا 100
▁bien 100
▁cap 100
ays 100
gal 100
tor 100
▁وأ 100
يات 100
▁12 100
▁organiz 100
if 100
发展 100
▁الش 100
de 100
▁между 100
ке 100
ارة 100
▁Il 100
▁prop 100
olution 100
▁concer 100
▁son 100
▁си 100
▁recom 100
лож 100
▁تع 100
arrol 100
sent 100
cul 100
▁sont 100
▁UN 100
▁но 100
▁государ 100
ui 100
▁су 100
▁Naciones 100
▁partic 100
▁воз 100
out 100
▁adop 100
ced 100
ell 100
رف 100
▁conf 100
▁предста 100
cess 100
▁sit 100
▁us 100
▁Unidas 100
▁？ 100
▁k 100
ческо 100
вя 100
rgan 100
▁Э 100
▁والم 100
ун 100
▁person 100
تص 100
ений 100
▁ط 100
entes 100
▁d'un 100
▁هذه 100
Éta 100
▁particip 100
حت 100
▁ser 100
ès 100
isation 100
▁также 100
ъедин 100
▁contra 100
eces 100
ero 100
ual 100
6. 100
▁which 100
ait 100
▁develop 100
▁deci 100
▁Secretar 100
▁avec 100
▁المع 100
кла 100
▁tod 100
ive 100
ris 100
lec 100
بل 100
▁viol 100
كل 100
▁sy 100
ater 100
cri 100
irec 100
▁consid 100
jec 100
▁dem 100
شار 100
7. 100
клю 100
ене 100
rou 100
ong 100
▁це 100
▁разви 100
народ 100
▁الط 100
isión 100
▁рабо 100
ild 100
▁acc 100
▁their 100
фор 100
▁или 100
راء 100
▁18 100
▁Объедин 100
jet 100
tem 100
▁Re 100
циаль 100
elle 100
▁An 100
mitte 100
ند 100
ial 100
стоя 100
▁coun 100
ress 100
تي 100
sem 100
truc 100
ном 100
ocument 100
▁Ad 100
би 100
▁jus 100
ités 100
ления 100
组织 100
.2 100
▁пре 100
ene 100
▁13 100
▁Les 100
▁وم 100
ak 100
arrollo 100
امج 100
ше 100
▁génér 100
▁бу 100
▁prote 100
▁coop 100
▁commun 100
▁paí 100
▁seg 100
пи 100
▁اﻻ 100
▁ма 100
éri 100
▁бо 100
унк 100
▁session 100
▁المن 100
ــ 100
incip 100
▁s' 100
▁بش 100
dad 100
▁car 100
tain 100
▁sp 100
▁Наций 100
▁pla 100
être 100
▁Объединенных 100
▁hab 100
▁éta 100
1. 100
▁import 100
iones 100
age 100
▁cent 100
ome 100
هد 100
خر 100
сту 100
الة 100
▁exam 100
قرار 100
▁اللجنة 100
opp 100
5. 100
ciones 100
/A 100
ores 100
▁الث 100
▁Я 100
мите 100
▁как 100
وع 100
وي 100
ответ 100
سب 100
▁Intern 100
▁Commission 100
نية 100
as, 100
раль 100
201 100
are 100
▁rés 100
▁пере 100
istr 100
ida 100
▁Организации 100
▁У 100
resent 100
▁más 100
▁situ 100
velopp 100
ip 100
ivers 100
fo 100
▁oc 100
▁national 100
▁والت 100
▁обес 100
▁соответ 100
ation, 100
's 100
رب 100
нима 100
▁plan 100
قوق 100
jer 100
▁الأمم 100
▁out 100
ная 100
▁بين 100
ريق 100
▁تن 100
▁Committe 100
дни 100
سة 100
enti 100
fici 100
цен 100
leg 100
▁لت 100
ствен 100
ite 100
esti 100
вед 100
▁бе 100
ities 100
▁neces 100
vernment 100
يف 100
▁че 100
сси 100
▁développ 100
提供 100
▁14 100
▁(A 100
ition 100
199 100
▁l'é 100
lé 100
ными 100
▁يت 100
▁vo 100
▁been 100
▁ten 100
▁work 100
тия 100
руп 100
▁قد 100
رات 100
▁ass 100
▁emp 100
▁[ 100
du 100
▁١ 100
سي 100
جت 100
لد 100
▁min 100
▁ها 100
▁الذي 100
ional 100
▁prov 100
ван 100
ходи 100
ia, 100
ecto 100
▁concern 100
éd 100
▁осу 100
كون 100
دم 100
وف 100
▁had 100
ativ 100
关于 100
▁dur 100
كت 100
ph 100
▁princip 100
▁It 100
▁хо 100
وض 100
sembl 100
وب 100
▁we 100
ظر 100
▁Convention 100
ية. 100
ose 100
▁contin 100
tro 100
▁Qu 100
ios 100
ille 100
/200 100
мот 100
▁آ 100
ES 100
aliz 100
نسان 100
000 100
витель 100
no 100
▁n't 100
▁deb 100
▁ни 100
▁were 100
зы 100
ade 100
ors 100
▁document 100
▁我们 100
▁Committee 100
▁inc 100
гу 100
ран 100
لب 100
гла 100
aut 100
▁обеспе 100
ina 100
▁Wh 100
ros 100
8. 100
▁te 100
▁وإ 100
ices 100
جلس 100
сам 100
فيذ 100
▁mes 100
▁je 100
емы 100
ticle 100
грам 100
ние 100
int 100
▁développement 100
政府 100
▁تح 100
▁tu 100
▁non 100
▁soci 100
▁ques 100
▁rég 100
antes 100
▁personn 100
▁cl 100
ear 100
val 100
▁Min 100
orte 100
▁pays 100
عض 100
▁свя 100
бле 100
forme 100
▁وفي 100
，并 100
سل 100
فا 100
uro 100
9. 100
▁ni 100
▁مج 100
fin 100
one 100
▁droits 100
▁will 100
جتما 100
▁осуществ 100
ورة 100
▁cre 100
▁20 100
▁отно 100
жно 100
▁includ 100
пу 100
ements 100
▁وب 100
olog 100
cep 100
▁غير 100
бе 100
▁may 100
فاق 100
▁nom 100
▁дру 100
ren 100
ща 100
▁capaci 100
▁16 100
▁30 100
iss 100
▁ve 100
▁Estados 100
▁сек 100
фи 100
tribu 100
ействи 100
▁عام 100
per 100
che 100
رك 100
ario 100
ضا 100
▁его 100
дов 100
▁vis 100
▁وي 100
▁cor 100
كو 100
以及 100
方面 100
mas 100
▁report 100
echn 100
▁être 100
ish 100
mer 100
iste 100
коно 100
وص 100
نت 100
▁осно 100
смот 100
br 100
▁المح 100
ific 100
▁بشأن 100
▁。 100
▁present 100
▁ض 100
ments 100
▁их 100
▁mi 100
▁rapport 100
mos 100
ambi 100
▁العامة 100
▁сред 100
▁международ 100
▁2. 100
abil 100
▁institu 100
▁докла 100
abor 100
عي 100
▁< 100
▁rights 100
12 100
ميع 100
▁desarrollo 100
▁ва 100
▁other 100
▁under 100
▁Ar 100
ды 100
▁l'A 100
ions 100
serv 100
▁1. 100
ños 100
ld 100
▁cet 100
▁Кон 100
قت 100
عات 100
包括 100
▁Ex 100
▁men 100
▁有 100
▁also 100
▁social 100
ours 100
▁col 100
▁обла 100
▁Éta 100
cid 100
tis 100
>> 100
ющих 100
社会 100
влен 100
форма 100
▁Ac 100
NU 100
za 100
▁للم 100
▁Unies 100
odo 100
енераль 100
▁المؤ 100
▁17 100
▁recomm 100
); 100
ثل 100
при 100
ис 100
▁обра 100
رت 100
▁fait 100
▁Mr. 100
▁الاست 100
▁المست 100
▁He 100
ile 100
سم 100
▁u 100
ico 100
ass 100
方案 100
▁pued 100
▁organis 100
▁З 100
▁слу 100
执行 100
ources 100
▁Генераль 100
▁приня 100
лове 100
тру 100
سات 100
▁الك 100
▁should 100
情况 100
ident 100
dd 100
其他 100
▁ces 100
▁ча 100
▁<< 100
▁зна 100
▁derechos 100
▁particular 100
ated 100
ак 100
▁consider 100
▁You 100
▁dispos 100
▁ver 100
ordin 100
tal 100
▁-- 100
je 100
ambién 100
lev 100
шения 100
▁bas 100
omen 100
ствую 100
▁States 100
pu 100
ical 100
▁ات 100
льта 100
low 100
▁mon 100
▁So 100
行动 100
机构 100
пас 100
اني 100
циональ 100
чения 100
чески 100
шь 100
▁II 100
▁tout 100
مكن 100
ную 100
/4 100
▁promo 100
bier 100
▁contribu 100
ئيس 100
uel 100
ков 100
ouvern 100
щих 100
том 100
يع 100
▁sol 100
рен 100
▁leur 100
ться 100
0, 100
▁techn 100
▁otr 100
▁челове 100
вен 100
arg 100
نامج 100
通过 100
сов 100
ются 100
чен 100
قرير 100
با 100
代表 100
▁Е 100
embre 100
▁sal 100
вления 100
进行 100
ومات 100
▁¡ 100
ace 100
特别 100
пол 100
пы 100
▁represent 100
▁Des 100
▁perí 100
трудни 100
▁enc 100
ícul 100
вой 100
ски 100
ture 100
зу 100
▁那 100
▁информа 100
صل 100
a. 100
х, 100
grama 100
دد 100
▁financi 100
▁сотрудни 100
▁كل 100
voir 100
▁fam 100
▁aplic 100
жда 100
▁التن 100
ust 100
▁العمل 100
tud 100
ivil 100
▁appro 100
决议 100
قل 100
▁États 100
ظم 100
▁програм 100
ember 100
人权 100
▁fem 100
▁public 100
كان 100
▁resolu 100
قا 100
▁которые 100
hor 100
crimin 100
▁ren 100
vent 100
▁would 100
▁Ч 100
ар 100
тся 100
▁loc 100
▁l'in 100
▁з 100
▁trava 100
/Add 100
▁up 100
iques 100
▁ca 100
istra 100
▁المو 100
ament 100
▁diff 100
acionales 100
عمال 100
uncil 100
▁gu 100
mb 100
▁can 100
▁تت 100
ша 100
▁жен 100
endo 100
▁поли 100
▁после 100
omme 100
ític 100
▁paragra 100
▁mod 100
жет 100
▁مت 100
10 100
秘书 100
▁L' 100
рета 100
وس 100
▁испо 100
/3 100
▁Conseil 100
▁Group 100
تها 100
▁就 100
الي 100
/L 100
▁علي 100
يئ 100
▁sin 100
妇女 100
▁дея 100
▁direc 100
pl 100
седа 100
▁cooper 100
▁ref 100
راف 100
vir 100
▁Confer 100
дет 100
clar 100
الية 100
▁ус 100
▁2008 100
▁чтобы 100
▁traba 100
ением 100
ца 100
什么 100
▁memb 100
▁عمل 100
▁Council 100
rés 100
▁Comisión 100
ха 100
лей 100
公约 100
كة 100
av 100
jor 100
رض 100
.3 100
▁group 100
▁países 100
ura 100
▁Pres 100
col 100
▁development 100
▁се 100
ach 100
▁vous 100
CE 100
▁cer 100
uridad 100
安全 100
▁sou 100
▁child 100
▁ان 100
خص 100
бли 100
▁\ 100
os. 100
▁помо 100
gis 100
▁Su 100
لدان 100
iew 100
ah 100
▁2006 100
ess 100
есси 100
كر 100
一个 100
▁эти 100
جب 100
▁بر 100
▁général 100
ération 100
ذلك 100
▁поддер 100
erci 100
▁ты 100
▁Комите 100
tícul 100
▁пунк 100
▁período 100
▁requ 100
▁деятель 100
قدم 100
▁Government 100
有关 100
miento 100
▁demand 100
ún 100
▁الإنسان 100
now 100
anc 100
ба 100
يه 100
وية 100
▁there 100
ministra 100
▁الدولي 100
ms 100
y, 100
нии 100
▁груп 100
urity 100
▁ис 100
▁dev 100
▁21 100
▁сле 100
▁ann 100
تصاد 100
▁On 100
وات 100
▁l'h 100
ían 100
所有 100
▁好 100
eting 100
人员 100
▁2005 100
▁Consejo 100
▁Human 100
▁3. 100
ecu 100
▁области 100
▁b) 100
▁المسا 100
". 100
▁sex 100
▁propos 100
▁cri 100
az 100
غي 100
мя 100
ese 100
▁права 100
ière 100
قلي 100
valu 100
цион 100
▁المد 100
pec 100
▁вклю 100
нов 100
▁Cons 100
ador 100
▁اﻹ 100
tación 100
▁женщи 100
▁Is 100
cho 100
▁relativ 100
blig 100
▁mujer 100
ator 100
TI 100
活动 100
▁implement 100
خرى 100
ición 100
راض 100
جة 100
rib 100
▁الات 100
▁produc 100
чение 100
▁25 100
лее 100
19 100
▁fond 100
▁han 100
دول 100
вание 100
没有 100
ation. 100
ской 100
مان 100
ok 100
щей 100
▁autor 100
▁фи 100
▁countri 100
▁spé 100
вод 100
обходи 100
▁уча 100
▁сист 100
▁fo 100
шении 100
as. 100
цию 100
ár 100
▁بم 100
use 100
خل 100
▁main 100
▁други 100
▁ز 100
золю 100
зопас 100
art 100
be 100
land 100
▁يمكن 100
RA 100
▁2004 100
imiento 100
ents 100
orts 100
▁actu 100
гово 100
▁ro 100
建议 100
▁services 100
مار 100
▁equ 100
▁هنا 100
▁programme 100
▁l'ex 100
elles 100
мер 100
▁كان 100
▁Si 100
▁22 100
▁proy 100
anis 100
o. 100
écur 100
al, 100
чая 100
▁السل 100
，以 100
▁долж 100
▁For 100
علق 100
▁ث 100
▁también 100
▁nor 100
▁الخاص 100
ouvernement 100
▁Dec 100
▁C' 100
arios 100
▁吗 100
▁Organ 100
ties 100
项目 100
▁civil 100
▁Ф 100
ib 100
гио 100
▁comme 100
ian 100
ck 100
oi 100
▁educ 100
écurité 100
11 100
lit 100
▁pris 100
▁met 100
ourn 100
▁informe 100
صد 100
缔约 100
▁пер 100
ми, 100
udg 100
▁cette 100
▁Mar 100
▁mill 100
▁بت 100
ible 100
ances 100
▁dom 100
جراء 100
we 100
▁need 100
3, 100
عدة 100
▁2007 100
دارة 100
▁явля 100
ثة 100
▁jur 100
经济 100
▁جميع 100
▁estable 100
大会 100
льзо 100
cion 100
.4 100
EN 100
▁الوط 100
сы 100
▁أف 100
▁للت 100
eng 100
▁2009 100
يرة 100
▁المج 100
理事 100
▁provis 100
iat 100
й, 100
合作 100
ight 100
▁العال 100
▁أجل 100
▁law 100
кре 100
▁الجم 100
▁24 100
▁famil 100
ización 100
▁необходи 100
/199 100
▁دول 100
гда 100
مم 100
▁تش 100
▁observ 100
▁such 100
▁Л 100
▁donn 100
▁ين 100
▁nota 100
▁31 100
▁вре 100
ческих 100
▁sécurité 100
▁faci 100
▁oblig 100
▁polític 100
▁faire 100
▁пла 100
я, 100
▁comun 100
▁человека 100
▁know 100
tas 100
пред 100
med 100
▁including 100
кономи 100
sions 100
ских 100
▁exper 100
▁ju 100
▁وج 100
▁accord 100
▁información 100
▁util 100
سية 100
tement 100
▁projet 100
▁ai 100
▁part 100
▁mil 100
▁ве 100
▁تق 100
٩٩ 100
▁any 100
الات 100
tention 100
aron 100
▁qu'il 100
icios 100
▁mater 100
istance 100
علومات 100
ales, 100
сили 100
▁We 100
▁лю 100
▁medidas 100
▁aff 100
▁sys 100
óm 100
▁2002 100
▁сто 100
عاون 100
▁disp 100
une 100
lear 100
▁(200 100
нан 100
▁cues 100
▁того 100
这些 100
▁iss 100
لف 100
▁apoy 100
▁развития 100
он 100
ناء 100
▁(S 100
▁está 100
▁الأط 100
▁уров 100
مت 100
termin 100
دام 100
imin 100
▁International 100
▁право 100
teur 100
▁pod 100
reat 100
ally 100
▁d'une 100
理事会 100
ступ 100
يان 100
вых 100
▁examin 100
▁حقوق 100
зда 100
▁a) 100
▁né 100
oci 100
▁af 100
مر 100
▁198 100
▁meeting 100
زيز 100
▁sign 100
▁المنا 100
rough 100
▁прав 100
ulta 100
▁droit 100
ob 100
区域 100
▁Про 100
▁travail 100
her 100
20 100
▁مؤ 100
▁conform 100
blica 100
▁با 100
▁وه 100
вает 100
pr 100
▁возмо 100
ative 100
ind 100
▁politi 100
a) 100
ribun 100
▁nombre 100
▁Los 100
ظمة 100
ères 100
▁البر 100
▁резолю 100
tículo 100
▁име 100
▁mond 100
▁discrimin 100
▁inclu 100
▁i 100
▁internacional 100
▁проек 100
▁:: 100
циа 100
▁right 100
▁следу 100
ister 100
▁ومن 100
ского 100
▁23 100
ième 100
ública 100
▁Tu 100
▁2010 100
▁inte 100
пре 100
▁they 100
▁protection 100
اري 100
▁proced 100
▁constitu 100
ables 100
кра 100
▁Por 100
ran 100
тельно 100
led 100
gen 100
rup 100
▁ком 100
▁sig 100
▁again 100
▁полож 100
▁согла 100
▁الدولية 100
▁секрета 100
ска 100
gun 100
▁2011 100
ترة 100
▁women 100
▁todos 100
▁inf 100
кой 100
зопасности 100
▁State 100
ural 100
▁sé 100
▁السا 100
▁القانون 100
▁information 100
▁one 100
▁да 100
▁2012 100
▁but 100
ثر 100
▁cos 100
▁За 100
iqu 100
▁effec 100
▁mand 100
▁будет 100
▁وف 100
▁fac 100
إن 100
стве 100
▁البلدان 100
جا 100
儿童 100
▁présent 100
▁nuc 100
ías 100
ضع 100
▁l'homme 100
▁my 100
aran 100
endre 100
ror 100
▁parte 100
▁4. 100
▁priv 100
бря 100
ته 100
tég 100
insi 100
ban 100
▁oper 100
▁полити 100
tice 100
▁Совет 100
▁tous 100
▁которо 100
ارد 100
érence 100
规定 100
▁же 100
sible 100
▁pra 100
▁بأن 100
tivo 100
▁сесси 100
лы 100
▁bet 100
▁пот 100
vre 100
ca 100
حو 100
根据 100
бу 100
лет 100
▁fund 100
frica 100
рабо 100
▁apro 100
▁тре 100
▁id 100
دا 100
ورية 100
▁contre 100
king 100
▁ta 100
теля 100
щего 100
أة 100
طار 100
сте 100
ior 100
قيق 100
▁мер 100
чет 100
▁националь 100
y- 100
ву 100
ences 100
امل 100
▁who 100
gu 100
ках 100
▁28 100
▁سي 100
▁M. 100
▁respons 100
▁Estado 100
gramme 100
▁actividades 100
▁some 100
▁الأول 100
▁بما 100
▁his 100
iciones 100
خت 100
raf 100
org 100
▁resolución 100
taire 100
▁Secré 100
▁她 100
需要 100
▁support 100
els 100
кти 100
adre 100
▁тех 100
com 100
▁дан 100
▁proces 100
حك 100
▁Это 100
▁general 100
▁تد 100
▁отношении 100
▁programmes 100
شروع 100
ному 100
▁Assembl 100
管理 100
باد 100
انية 100
▁vol 100
▁الما 100
▁ول 100
amiento 100
емо 100
ctic 100
преде 100
▁coordin 100
▁l'O 100
▁provid 100
▁d'é 100
сп 100
▁26 100
▁ро 100
▁este 100
ublic 100
计划 100
▁финан 100
ент 100
▁созда 100
mment 100
и, 100
opul 100
权利 100
ции, 100
résent 100
▁المر 100
ner 100
▁المش 100
▁resolution 100
▁cal 100
▁proc 100
ждения 100
▁cré 100
▁什么 100
▁الفقر 100
▁year 100
TA 100
▁Tra 100
لال 100
▁الآ 100
▁было 100
▁question 100
▁ее 100
يج 100
ño 100
▁соответствую 100
▁especial 100
ству 100
tific 100
▁num 100
▁27 100
▁ainsi 100
▁жи 100
ление 100
мисси 100
estig 100
teg 100
ему 100
▁gra 100
▁са 100
IS 100
▁وع 100
стано 100
ican 100
▁اله 100
▁هو 100
▁Ré 100
▁правитель 100
idos 100
ئية 100
amble 100
▁ви 100
▁her 100
لاح 100
▁образо 100
▁derecho 100
▁system 100
м. 100
conomic 100
▁z 100
▁nou 100
جم 100
حا 100
▁tou 100
ussi 100
▁hac 100
决定 100
amente 100
рио 100
法律 100
соб 100
▁enti 100
▁leurs 100
▁للأ 100
ظام 100
▁Ю 100
▁égal 100
▁prof 100
▁continu 100
公约》 100
clus 100
▁mat 100
кумен 100
dic 100
采取 100
▁nue 100
▁Да 100
tivos 100
жения 100
技术 100
▁sect 100
▁Dep 100
▁2001 100
ollow 100
ll 100
▁этой 100
тро 100
комен 100
bles 100
▁Asamble 100
rait 100
air 100
ющие 100
tique 100
▁st 100
可能 100
ER 100
▁государства 100
▁proble 100
ينا 100
▁pen 100
tés 100
▁он 100
▁stra 100
ito 100
▁Euro 100
▁pár 100
cent 100
bierno 100
▁Cent 100
ئل 100
▁провед 100
▁économ 100
▁انت 100
▁представи 100
amp 100
عضاء 100
▁связи 100
▁1998 100
▁！ 100
conóm 100
tifs 100
▁полу 100
▁dép 100
ied 100
措施 100
قديم 100
提出 100
▁Tr 100
▁more 100
▁your 100
▁2000 100
علقة 100
ческой 100
enda 100
▁000 100
ствии 100
lication 100
pond 100
▁peri 100
embros 100
▁5. 100
sibil 100
▁mais 100
وى 100
cy 100
▁деятельности 100
▁说 100
▁disc 100
▁Х 100
▁од 100
▁мен 100
▁programa 100
▁Asamblea 100
▁deleg 100
▁гра 100
ID 100
amos 100
▁establ 100
лько 100
▁ens 100
логи 100
ليات 100
▁mesures 100
▁более 100
▁перио 100
▁deux 100
▁sup 100
фер 100
три 100
ursos 100
-200 100
ême 100
▁تم 100
بد 100
▁également 100
ческого 100
mar 100
▁rev 100
▁territ 100
ree 100
▁Ра 100
▁использо 100
▁through 100
▁about 100
лага 100
uesto 100
▁into 100
▁prior 100
▁женщин 100
▁подго 100
рован 100
▁bo 100
▁Ас 100
▁femmes 100
dition 100
وك 100
▁وقد 100
▁made 100
лов 100
▁регио 100
loy 100
▁résolution 100
رائ 100
▁году 100
▁рассмот 100
ights 100
▁مست 100
▁对 100
▁действи 100
▁أع 100
▁каса 100
تمر 100
▁Пред 100
стро 100
itar 100
▁وك 100
▁situation 100
بغي 100
▁administra 100
▁сооб 100
▁supp 100
▁esc 100
e. 100
▁很 100
▁así 100
ней 100
ved 100
▁人 100
води 100
支持 100
▁докумен 100
▁consult 100
UN 100
▁فيما 100
▁countries 100
▁popul 100
▁children 100
▁السيا 100
▁spécial 100
дол 100
▁29 100
▁d'in 100
▁Ne 100
▁بالت 100
▁against 100
▁efforts 100
кон 100
▁第 100
▁организа 100
самбле 100
rie 100
▁l’ 100
▁рекомен 100
▁пробле 100
▁стать 100
دمات 100
шение 100
شطة 100
▁fr 100
▁'m 100
tt 100
جه 100
▁الجمعية 100
▁lim 100
可以 100
ход 100
▁того, 100
ОН 100
▁بعد 100
стни 100
vention 100
цией 100
▁over 100
▁cond 100
▁الاق 100
▁التع 100
▁Не 100
▁cour 100
▁place 100
رد 100
cup 100
▁process 100
istencia 100
encias 100
知道 100
pri 100
▁realiz 100
▁свои 100
▁المتعلقة 100
General 100
يا، 100
▁était 100
▁aplicación 100
بات 100
▁Sr. 100
uen 100
▁أك 100
itions 100
peci 100
▁meas 100
▁regard 100
▁mejor 100
▁artículo 100
agement 100
وت 100
وز 100
▁орга 100
твер 100
▁Ассамбле 100
▁вопросам 100
b) 100
ry 100
▁Pol 100
▁1999 100
خذ 100
▁nous 100
▁吧 100
▁وق 100
rig 100
▁peop 100
red 100
viron 100
lob 100
men 100
▁protec 100
vi 100
▁настоя 100
▁Secretario 100
▁Rec 100
▁What 100
▁enf 100
", 100
▁Per 100
ará 100
lan 100
яза 100
▁cele 100
▁أم 100
▁还 100
ivel 100
▁6. 100
телей 100
wn 100
▁divers 100
▁всех 100
ode 100
try 100
5, 100
30 100
▁уч 100
▁ci 100
▁بد 100
▁هل 100
▁ef 100
▁рам 100
▁follow 100
▁为 100
▁Seg 100
▁DE 100
▁fir 100
كتب 100
▁были 100
▁particul 100
▁соответствии 100
▁Gobierno 100
tim 100
ça 100
ys 100
▁До 100
秘书长 100
/S 100
系统 100
▁budg 100
стей 100
▁أنا 100
▁sesiones 100
▁Ind 100
ة، 100
▁new 100
цес 100
▁d'ac 100
blique 100
▁الي 100
tiva 100
▁Rights 100
вление 100
保护 100
▁sera 100
دى 100
▁Assembly 100
▁боль 100
trument 100
IN 100
мет 100
▁recommend 100
▁2003 100
▁questions 100
基金 100
вали 100
тра 100
▁Z 100
▁экономи 100
щие 100
из 100
alth 100
和平 100
пециаль 100
▁كما 100
▁activités 100
▁想 100
tical 100
▁polic 100
▁A/C 100
▁well 100
▁syst 100
▁tw 100
▁lab 100
وان 100
حب 100
▁Gu 100
يادة 100
▁(C 100
reg 100
ast 100
▁الرئيس 100
▁facilit 100
▁total 100
щения 100
▁those 100
▁ord 100
стран 100
риа 100
фек 100
▁suiv 100
▁ça 100
▁terror 100
امية 100
▁personas 100
orld 100
政策 100
Un 100
mento 100
▁تنفيذ 100
▁'re 100
публи 100
teurs 100
▁que, 100
▁fe 100
，在 100
▁буду 100
▁أيضا 100
▁ون 100
▁Develop 100
▁القرار 100
udici 100
▁implementation 100
资源 100
▁base 100
labor 100
4, 100
ación, 100
ministr 100
рования 100
▁обяза 100
▁эк 100
los 100
▁(2 100
▁要 100
ancia 100
ssembl 100
▁لح 100
arse 100
▁мы 100
▁ذات 100
ack 100
▁peut 100
▁необходимо 100
▁fon 100
▁知道 100
▁l'en 100
epend 100
فاقية 100
вого 100
▁funci 100
▁reun 100
оста 100
▁what 100
▁Programme 100
ara 100
▁поддерж 100
▁بح 100
бя 100
▁autres 100
ender 100
▁Dé 100
▁paragraph 100
▁Me 100
▁proyecto 100
hed 100
▁преду 100
فس 100
ween 100
▁temp 100
فال 100
▁مجلس 100
▁déci 100
▁esp 100
▁cont 100
▁incre 100
▁Ме 100
ssemblée 100
èg 100
▁Der 100
▁hay 100
成员 100
ank 100
قات 100
▁Ка 100
istema 100
держа 100
▁d'ex 100
▁быть 100
▁сотрудниче 100
促进 100
继续 100
15 100
▁защи 100
▁был 100
必须 100
▁legis 100
enta 100
▁time 100
/7 100
服务 100
▁respecto 100
مين 100
▁част 100
рения 100
▁ay 100
طر 100
ely 100
▁٢ 100
ric 100
▁c) 100
▁ress 100
▁decision 100
提交 100
ساء 100
ферен 100
▁regional 100
следо 100
▁str 100
▁ру 100
ectos 100
▁Proto 100
طل 100
▁Secrétaire 100
先生 100
▁This 100
▁investig 100
▁(E 100
▁ph 100
▁J' 100
▁result 100
▁objec 100
ديد 100
▁целя 100
▁parties 100
号决议 100
ribunal 100
oment 100
▁hom 100
▁1996 100
▁процес 100
ضاف 100
▁trabajo 100
▁Las 100
▁مو 100
tir 100
мени 100
CI 100
▁todo 100
▁liber 100
▁Rapp 100
alestin 100
▁الحك 100
▁Special 100
iente 100
▁mul 100
加强 100
▁1997 100
▁– 100
▁Off 100
действи 100
▁看 100
▁Cu 100
▁تقرير 100
ثي 100
▁Derech 100
▁рамках 100
كومة 100
▁between 100
اج 100
وة 100
ффек 100
重要 100
зульта 100
ин 100
▁val 100
▁тер 100
▁يع 100
▁لقد 100
▁المجلس 100
mon 100
tiques 100
الت 100
▁notamment 100
▁tro 100
▁prog 100
чить 100
▁tak 100
t, 100
▁дости 100
▁этого 100
▁стран 100
▁VI 100
▁١٩٩ 100
OM 100
ientos 100
▁apoyo 100
▁Mi 100
tend 100
缔约国 100
▁Europe 100
▁الشر 100
сур 100
▁initi 100
▁الثاني 100
▁représent 100
ها. 100
л. 100
世界 100
▁Convención 100
▁Republic 100
▁mund 100
ires 100
▁prepar 100
торо 100
▁يا 100
غير 100
▁والأ 100
▁mal 100
▁المادة 100
▁الإن 100
▁Direc 100
-2 100
▁предоста 100
▁instrument 100
主义 100
1) 100
سلحة 100
y-General 100
▁recommand 100
▁страна 100
▁خلال 100
▁ur 100
▁grand 100
▁учре 100
▁пол 100
行为 100
▁comple 100
▁государств 100
فة 100
▁fig 100
▁servicios 100
▁tant 100
▁объ 100
▁أنه 100
▁them 100
ail 100
▁ресур 100
▁hacer 100
▁otros 100
▁could 100
▁nacional 100
▁соста 100
هورية 100
AN 100
ie, 100
صول 100
▁And 100
щее 100
ффектив 100
▁générale 100
▁don 100
ange 100
▁ок 100
这一 100
▁может 100
▁recursos 100
▁التح 100
▁dos 100
▁level 100
i) 100
▁па 100
▁ese 100
por 100
enn 100
▁reci 100
▁但 100
影响 100
▁nat 100
确保 100
ظمات 100
▁humanos 100
目标 100
▁وأن 100
主席 100
▁都 100
ations, 100
▁Conference 100
▁fi 100
اع 100
▁пу 100
▁результа 100
raft 100
，包括 100
▁dont 100
كات 100
fore 100
▁ست 100
▁elec 100
▁(ال 100
ابير 100
▁determin 100
дела 100
▁non- 100
▁mise 100
fe 100
▁niños 100
▁garan 100
届会议 100
▁fra 100
▁هي 100
iment 100
ين، 100
مثل 100
بار 100
▁mandat 100
月2 100
▁время 100
▁inté 100
ôle 100
ريب 100
▁sous 100
▁تلك 100
▁c' 100
ها، 100
▁опреде 100
▁d'aut 100
50 100
▁région 100
▁organizaciones 100
▁À 100
قرر 100
▁Reg 100
hip 100
él 100
▁Конвен 100
▁formul 100
cu 100
ضر 100
▁فإن 100
▁if 100
▁jour 100
▁seguridad 100
▁República 100
ias 100
▁sistema 100
▁these 100
urther 100
mun 100
▁يتعلق 100
▁concernant 100
ئي 100
▁Res 100
вши 100
▁add 100
▁Ты 100
als 100
igr 100
лиза 100
/أ 100
▁целях 100
▁sector 100
▁conte 100
tención 100
article 100
▁том, 100
▁Комитет 100
▁Social 100
rá 100
vironment 100
سط 100
فين 100
بع 100
пера 100
▁упра 100
soci 100
tut 100
فل 100
▁Что 100
▁nivel 100
▁mati 100
vers 100
▁зая 100
▁nécess 100
ний 100
信息 100
cement 100
▁respec 100
▁Development 100
▁% 100
▁membres 100
认为 100
▁personnes 100
▁المائ 100
▁programas 100
努力 100
▁لأ 100
▁Secretary-General 100
▁dol 100
▁каче 100
tur 100
▁To 100
мина 100
▁like 100
▁l'app 100
▁сторо 100
▁renfor 100
ales. 100
▁Рес 100
▁7. 100
▁réun 100
▁напра 100
طلب 100
راق 100
▁aprob 100
ink 100
idente 100
▁Groupe 100
▁الاقتصاد 100
лось 100
phe 100
TION 100
▁اﻷمم 100
بق 100
和国 100
خاص 100
美元 100
стру 100
▁去 100
任何 100
.org 100
рии 100
rafo 100
▁الأمن 100
▁является 100
): 100
▁возмож 100
ющихся 100
▁他们 100
▁разрабо 100
كا 100
环境 100
▁ку 100
▁вс 100
▁author 100
▁الغ 100
注意 100
▁комите 100
тер 100
▁ш 100
▁Республи 100
▁Serv 100
▁وح 100
▁nive 100
▁pai 100
uerz 100
cre 100
能力 100
▁меня 100
▁50 100
▁没 100
férence 100
▁humanit 100
▁sep 100
زام 100
▁они 100
▁mer 100
▁Ins 100
▁связа 100
教育 100
лови 100
▁violence 100
▁qué 100
▁Sal 100
▁也 100
▁доклад 100
▁did 100
atives 100
▁эффектив 100
يت 100
▁Oh 100
要求 100
▁عم 100
▁Mis 100
▁internationale 100
▁personal 100
рта 100
▁personnel 100
▁che 100
▁budget 100
uvre 100
فر 100
▁أخرى 100
▁evalu 100
▁conn 100
нитель 100
блю 100
▁require 100
▁offici 100
ore 100
urr 100
▁aussi 100
▁гражда 100
ines 100
ólar 100
ума 100
прия 100
▁بالم 100
oir 100
▁كانون 100
▁Grup 100
ору 100
▁vic 100
-201 100
tiones 100
▁الاجتما 100
▁الوطنية 100
خا 100
ureau 100
▁eng 100
▁الفر 100
▁perman 100
▁l'Assemblée 100
▁celebr 100
стре 100
ious 100
▁التد 100
cimiento 100
orteur 100
▁nuclear 100
▁могу 100
▁усили 100
▁dólar 100
▁period 100
▁примен 100
ركز 100
)، 100
رج 100
▁lui 100
ining 100
ory 100
▁социаль 100
▁* 100
▁rece 100
▁da 100
oint 100
tac 100
▁elle 100
rganisation 100
▁会 100
يث 100
▁assistance 100
eder 100
▁conflic 100
port 100
▁grup 100
ком 100
тере 100
сма 100
سين 100
▁член 100
خدام 100
▁Pe 100
▁сессии 100
▁Ш 100
共和国 100
▁بعض 100
▁otras 100
▁إذا 100
ving 100
icos 100
▁people 100
▁fourn 100
▁عدد 100
文件 100
▁todas 100
xim 100
▁number 100
2, 100
ности, 100
▁region 100
▁posi 100
فت 100
tives 100
▁работы 100
lam 100
▁مجال 100
▁Internacional 100
▁deber 100
援助 100
▁тем 100
▁cadre 100
ves 100
тельства 100
▁recomend 100
ocra 100
▁refer 100
▁pay 100
▁dollar 100
ément 100
▁حس 100
شرين 100
▁internacionales 100
ates 100
▁conven 100
▁respon 100
▁Комисси 100
▁fav 100
▁him 100
erg 100
▁activities 100
▁ris 100
zar 100
▁} 100
.5 100
ством 100
ريد 100
RC 100
pend 100
▁заседа 100
▁مشروع 100
▁reques 100
adores 100
▁mé 100
▁Dis 100
14 100
▁cum 100
▁قرار 100
сматри 100
▁ressources 100
▁take 100
▁Бе 100
ismo 100
▁long 100
▁même 100
сульта 100
work 100
▁Grupo 100
جراءات 100
▁two 100
▁im 100
▁резолюции 100
▁المعلومات 100
▁مس 100
▁如 100
▁لن 100
ru 100
▁(a) 100
ards 100
▁Pour 100
راد 100
unta 100
▁بأ 100
▁来 100
ribu 100
дь 100
لية 100
协调 100
▁الأطراف 100
▁country 100
IC 100
ject 100
вест 100
▁only 100
حاد 100
▁asistencia 100
审议 100
unt 100
▁relev 100
1, 100
▁tex 100
，但 100
▁лиц 100
▁mayor 100
ras 100
vé 100
résident 100
▁هناك 100
ماية 100
يط 100
tul 100
ning 100
кры 100
чных 100
▁(b) 100
cher 100
▁Qué 100
▁judici 100
▁párrafo 100
ivid 100
ября 100
▁продол 100
草案 100
▁مش 100
▁internation 100
▁إطار 100
publique 100
部门 100
ization 100
قط 100
▁At 100
▁años 100
▁obje 100
ях 100
i, 100
▁дела 100
▁выпол 100
18 100
▁inici 100
▁order 100
▁compte 100
طقة 100
ost 100
▁members 100
▁contr 100
▁2013 100
▁Lo 100
▁спо 100
енно 100
OR 100
▁عل 100
▁just 100
▁برنامج 100
بلغ 100
▁tem 100
itor 100
▁partie 100
ful 100
▁paix 100
cha 100
▁Mal 100
امة 100
▁use 100
▁ful 100
/ي 100
تى 100
▁ди 100
ولا 100
estion 100
▁عند 100
▁legal 100
▁toutes 100
ائمة 100
met 100
▁случа 100
▁над 100
чно 100
respond 100
ja 100
ولوج 100
▁point 100
▁тор 100
▁here 100
▁Derechos 100
▁المس 100
▁pero 100
审查 100
jecu 100
▁ولا 100
▁основ 100
alis 100
▁respect 100
▁económ 100
/201 100
ientes 100
صر 100
▁بها 100
▁При 100
▁به 100
▁важ 100
▁prés 100
ديدة 100
▁деле 100
▁high 100
▁{ 100
▁security 100
▁يكون 100
▁أنت 100
▁Совета 100
ades 100
вые 100
▁algun 100
كم 100
▁measures 100
16 100
ئة 100
ющей 100
▁système 100
▁Minister 100
ished 100
▁безопасности 100
ision 100
ati 100
▁помощи 100
▁fut 100
▁включая 100
w. 100
▁Rapporteur 100
13 100
▁和 100
▁cul 100
▁shall 100
▁correspond 100
▁года, 100
▁glob 100
ؤول 100
▁important 100
ليم 100
нию 100
▁finan 100
▁призна 100
▁inst 100
▁get 100
ША 100
нет 100
ized 100
er, 100
old 100
OS 100
▁оказа 100
ot 100
▁上 100
лся 100
лись 100
▁tom 100
▁اعت 100
▁examen 100
▁dés 100
▁control 100
dos 100
лек 100
▁esf 100
▁тран 100
▁委员会 100
act 100
amen 100
ustri 100
▁المائة 100
▁matière 100
كال 100
▁quel 100
▁США 100
作为 100
▁فيها 100
▁بص 100
نسي 100
▁Security 100
▁تأ 100
▁A. 100
ann 100
▁دور 100
تمع 100
举行 100
креп 100
formation 100
▁l'Organisation 100
▁peace 100
▁ию 100
an, 100
éra 100
▁mujeres 100
期间 100
▁цен 100
▁оцен 100
▁подготов 100
▁الفقرة 100
▁medi 100
▁d'autres 100
AL 100
нди 100
的报告 100
▁(c 100
▁than 100
▁relación 100
▁contex 100
建立 100
État 100
▁declar 100
▁coopération 100
если 100
▁этом 100
▁había 100
веща 100
/8 100
▁1995 100
▁produ 100
▁والا 100
战略 100
▁Он 100
▁Fin 100
▁fonction 100
▁8. 100
▁off 100
▁miembros 100
▁الز 100
тор 100
▁nos 100
▁vig 100
▁trav 100
▁cir 100
▁acuer 100
▁amp 100
▁fue 100
▁обеспечения 100
لت 100
▁dist 100
▁Parties 100
▁كانت 100
слу 100
ís 100
▁ЮН 100
هود 100
▁المق 100
هر 100
ﻻت 100
▁labor 100
▁l'ac 100
▁va 100
vement 100
terior 100
▁должны 100
▁участи 100
▁cooperación 100
▁article 100
ضاء 100
oire 100
▁país 100
tien 100
▁señ 100
ég 100
صلة 100
使用 100
武器 100
▁Vous 100
▁уче 100
aba 100
arta 100
▁пар 100
▁дня 100
▁других 100
كاف 100
全球 100
▁Sí 100
казы 100
▁prem 100
▁أد 100
ule 100
ality 100
bern 100
фри 100
参与 100
راً 100
ки, 100
▁moy 100
▁paz 100
▁системы 100
▁pertin 100
IT 100
▁fun 100
гов 100
▁(P 100
▁police 100
OP 100
pro 100
▁граждан 100
因为 100
/CN 100
áctic 100
emos 100
▁vez 100
▁responsabil 100
▁إلي 100
zo 100
▁cuestiones 100
▁الدولة 100
▁Pre 100
▁ينبغي 100
ONU 100
▁если 100
يئة 100
▁integr 100
▁avait 100
▁السيد 100
mitted 100
▁вне 100
iter 100
事务 100
ditions 100
▁197 100
حق 100
aff 100
▁Dans 100
▁sans 100
bat 100
▁doit 100
▁er 100
ugar 100
▁possible 100
▁بع 100
▁where 100
▁pou 100
▁institutions 100
ased 100
▁Mon 100
/Add.1 100
ww. 100
▁caus 100
▁أسا 100
-S 100
فير 100
يب 100
▁تقديم 100
ياً 100
部分 100
меча 100
طاق 100
▁هم 100
▁大 100
ارية 100
▁recon 100
NUD 100
▁لجنة 100
▁ess 100
▁услови 100
▁الوق 100
主要 100
▁опера 100
▁Вы 100
▁situación 100
▁relig 100
rab 100
ряд 100
very 100
开展 100
▁долл. 100
▁ensure 100
▁تعزيز 100
duction 100
▁mant 100
ждународ 100
▁связан 100
tado 100
的一 100
▁paragraphe 100
▁end 100
▁d’ 100
▁(199 100
▁ماذا 100
▁Seguridad 100
al. 100
▁التنمية 100
▁رئيس 100
▁much 100
▁propor 100
▁Am 100
研究 100
▁Gouvernement 100
▁тру 100
AR 100
вра 100
ga 100
17 100
▁содержа 100
теги 100
aient 100
▁الى 100
▁peu 100
▁funcion 100
▁gestion 100
▁Bo 100
▁profes 100
已经 100
▁1994 100
▁interes 100
un.org 100
тных 100
实施 100
▁تو 100
ye 100
▁resources 100
▁له 100
▁d) 100
eso 100
▁l'article 100
▁развити 100
tent 100
فض 100
▁Генерального 100
▁تر 100
▁ev 100
titution 100
各国 100
▁Mission 100
▁see 100
arias 100
▁Мы 100
ieu 100
▁التق 100
▁Ц 100
نف 100
▁المرأة 100
▁ответ 100
▁favor 100
▁économique 100
▁ак 100
тора 100
▁provide 100
▁práctic 100
▁acces 100
▁health 100
▁destin 100
торы 100
▁ав 100
▁9. 100
irm 100
▁soit 100
▁amb 100
预算 100
▁Sud 100
▁Fond 100
▁communic 100
▁address 100
▁том 100
▁Во 100
持续 100
tric 100
уча 100
uesta 100
▁做 100
▁руко 100
▁viv 100
相关 100
▁Cour 100
unto 100
нци 100
▁suis 100
实现 100
▁этих 100
▁technolog 100
▁draft 100
нения 100
▁X 100
rès 100
▁puede 100
▁esa 100
ез 100
tant 100
▁المشار 100
▁durante 100
▁Af 100
▁cla 100
非洲 100
▁A/6 100
ters 100
لق 100
▁charg 100
▁établ 100
فع 100
arge 100
liqu 100
▁aqu 100
▁一个 100
▁мне 100
عراض 100
▁Генеральной 100
bilidad 100
тей 100
，而 100
▁arm 100
▁she 100
▁потре 100
رخ 100
ارج 100
▁Protocol 100
▁Président 100
▁怎 100
▁enfants 100
▁гово 100
▁bec 100
▁cual 100
حر 100
▁100 100
عب 100
▁фор 100
▁التج 100
▁Conférence 100
▁afin 100
▁That 100
▁чис 100
▁hor 100
▁真 100
▁секретаря 100
▁République 100
кого 100
▁relevant 100
我们 100
▁note 100
ges 100
aria 100
▁addition 100
▁осуществления 100
عادة 100
▁cuenta 100
▁É 100
ough 100
ООН 100
▁III 100
èmes 100
▁special 100
▁conditions 100
▁trad 100
rê 100
mero 100
▁جم 100
reed 100
▁0 100
小组 100
▁lugar 100
▁'ll 100
minal 100
ят 100
▁التعاون 100
▁вз 100
той 100
▁segu 100
дей 100
▁exist 100
▁individ 100
▁certain 100
▁cuando 100
▁review 100
▁40 100
▁cours 100
▁solici 100
▁Et 100
▁период 100
frican 100
考虑 100
ations. 100
▁وضع 100
▁Международ 100
емых 100
ril 100
▁A/5 100
▁nacionales 100
▁она 100
▁أس 100
▁emb 100
m. 100
▁поз 100
▁protección 100
elf 100
▁milit 100
▁Conferencia 100
▁10. 100
мини 100
ral 100
▁repor 100
ваться 100
ió 100
argo 100
▁provided 100
راتيج 100
▁بإ 100
▁它 100
قييم 100
▁trabaj 100
sión 100
▁rais 100
▁justice 100
▁tiene 100
فق 100
▁الأمين 100
7, 100
▁appropri 100
untos 100
uary 100
ength 100
▁How 100
▁legisl 100
▁حد 100
шений 100
▁меры 100
▁must 100
su 100
▁Elle 100
струк 100
▁практи 100
▁Minist 100
rael 100
emplo 100
▁when 100
▁الخاصة 100
▁когда 100
关系 100
кие 100
▁مد 100
▁capacidad 100
бой 100
▁cult 100
▁compris 100
▁univers 100
▁indic 100
▁further 100
▁وس 100
支助 100
▁esto 100
▁принци 100
▁offic 100
▁قبل 100
cia 100
▁чи 100
▁была 100
▁دولار 100
▁Ма 100
▁ya 100
▁economic 100
▁٣ 100
ешь 100
斯坦 100
讨论 100
▁Ma 100
3) 100
▁camp 100
рак 100
▁local 100
▁tort 100
يانات 100
▁Tribunal 100
▁br 100
стой 100
rend 100
▁рекоменда 100
▁how 100
议程 100
▁Ms. 100
▁bel 100
▁бю 100
venir 100
▁dat 100
▁œ 100
▁مسا 100
▁beso 100
seign 100
▁Office 100
almente 100
的工作 100
▁being 100
▁extra 100
▁cumpl 100
▁Председа 100
▁啊 100
▁بل 100
ودة 100
0年 100
▁принима 100
▁expres 100
▁只 100
之间 100
▁cab 100
▁bene 100
▁cin 100
▁حسنا 100
▁заклю 100
املة 100
▁فر 100
▁Presidente 100
ages 100
领域 100
▁سن 100
II 100
▁cooperation 100
作出 100
/9 100
▁nation 100
因此 100
▁региональ 100
EP 100
▁Rel 100
▁procéd 100
вая 100
▁تشرين 100
ؤون 100
▁уровне 100
▁موا 100
ститу 100
cord 100
▁probl 100
ín 100
زم 100
/R 100
▁No. 100
جري 100
▁pass 100
tisf 100
▁ﻻ 100
ié 100
pris 100
▁action 100
▁j' 100
▁niveau 100
▁качестве 100
▁independ 100
ولة 100
▁لي 100
▁sigu 100
▁стратеги 100
▁tal 100
▁cro 100
▁impro 100
▁لدي 100
▁финансо 100
▁Все 100
يران 100
ety 100
▁должно 100
▁التنفيذ 100
انب 100
ностью 100
▁dólares 100
▁لإ 100
ми. 100
орди 100
▁participation 100
ов 100
▁تس 100
▁B. 100
▁où 100
ífic 100
éli 100
▁законо 100
▁только 100
▁произ 100
得到 100
▁issues 100
▁бор 100
▁عملية 100
re, 100
ден 100
指出 100
▁sab 100
▁البرنامج 100
▁péri 100
▁fundament 100
▁страны 100
organ 100
َّ 100
ческие 100
▁дис 100
вро 100
iendo 100
ванию 100
ino 100
▁first 100
шо 100
63 100
▁Especial 100
но- 100
ерь 100
▁положения 100
▁él 100
▁encour 100
政治 100
解决 100
▁May 100
)。 100
▁na 100
▁внима 100
有效 100
▁оста 100
▁خاص 100
▁تكون 100
ings 100
▁within 100
ger 100
луч 100
▁неза 100
т, 100
▁politiques 100
▁déclar 100
地区 100
▁которых 100
arme 100
▁están 100
راج 100
▁sais 100
urer 100
▁который 100
▁gas 100
▁основе 100
тов, 100
增加 100
▁дву 100
▁trou 100
▁Plan 100
▁plen 100
▁أش 100
▁establish 100
▁President 100
tariat 100
▁لع 100
ya 100
▁разли 100
▁Ми 100
AS 100
itical 100
лению 100
шен 100
ordre 100
▁dollars 100
▁ó 100
ver, 100
▁Desarrollo 100
▁случае 100
icas 100
дно 100
ating 100
▁الموارد 100
▁Мо 100
▁насе 100
▁Mo 100
▁New 100
дом 100
جات 100
▁Но 100
дстви 100
▁ба 100
▁acco 100
ital 100
▁during 100
ومية 100
▁ley 100
▁расхо 100
现在 100
участни 100
▁proceso 100
▁dici 100
▁контро 100
▁该 100
▁dit 100
▁جدول 100
ana 100
6, 100
ría 100
▁преступ 100
▁National 100
▁Feder 100
élior 100
▁financial 100
程序 100
▁satisf 100
ет, 100
▁vue 100
▁particulier 100
▁الإقلي 100
▁ليس 100
▁conclus 100
▁vers 100
низ 100
las 100
▁сдела 100
▁organisations 100
itation 100
▁def 100
▁loi 100
▁now 100
▁Non 100
▁chang 100
truction 100
▁مجمو 100
onnement 100
▁Do 100
▁ple 100
щества 100
bra 100
代表团 100
▁把 100
قص 100
▁ад 100
▁territor 100
▁Bureau 100
▁الأسا 100
is, 100
▁يش 100
سبة 100
▁Cor 100
▁التقرير 100
▁$ 100
tima 100
лась 100
qu' 100
▁good 100
▁cou 100
▁vie 100
ار/ 100
▁moment 100
▁эксп 100
▁œuvre 100
po 100
▁Ce 100
ólo 100
8, 100
▁Represent 100
ندوق 100
▁Fr 100
其中 100
▁our 100
▁عدم 100
▁المعني 100
▁discus 100
ently 100
▁سيا 100
▁der 100
▁состоя 100
нер 100
▁الثاني/ 100
▁victi 100
方面的 100
▁أكثر 100
-участни 100
ема 100
نمية 100
вается 100
ثير 100
他们 100
▁год 100
فظ 100
▁sen 100
ه، 100
▁От 100
кан 100
▁compro 100
anté 100
▁conformidad 100
entif 100
▁مثل 100
▁(d 100
▁شر 100
▁могут 100
ed. 100
úl 100
培训 100
▁гла 100
▁Work 100
▁pros 100
pa 100
ью 100
▁population 100
▁lors 100
EC 100
ita 100
▁им 100
特派 100
▁техни 100
▁Esta 100
شاء 100
人民 100
ider 100
نفيذ 100
▁debe 100
рез 100
écu 100
▁борь 100
▁conduc 100
▁بمو 100
úblic 100
▁حتى 100
▁Á 100
▁Ofic 100
estión 100
▁Oc 100
vier 100
▁لكن 100
▁titre 100
▁held 100
▁tien 100
▁повы 100
▁услу 100
▁toute 100
▁没有 100
وار 100
goci 100
úmero 100
▁red 100
كمة 100
▁December 100
▁tend 100
ffic 100
eld 100
▁ach 100
▁era 100
صب 100
▁المساعدة 100
▁المعنية 100
▁salud 100
ورات 100
цеду 100
нут 100
ub 100
▁الض 100
▁الدورة 100
▁Perman 100
▁conse 100
▁60 100
▁разработ 100
▁الإنما 100
▁yo 100
▁комп 100
▁ayud 100
▁представля 100
хра 100
ذك 100
ابعة 100
ровать 100
▁يق 100
▁reform 100
▁процен 100
ium 100
bernament 100
▁совеща 100
▁cada 100
▁nouvel 100
▁своей 100
سسات 100
جر 100
▁make 100
▁gouvernement 100
كي 100
▁والإ 100
▁following 100
▁Can 100
▁pap 100
▁organizations 100
▁دون 100
хи 100
ance, 100
ции. 100
特派团 100
ханиз 100
▁armas 100
▁ле 100
▁لأن 100
▁программы 100
▁12. 100
▁утвер 100
ارت 100
هدف 100
есь 100
▁relacion 100
اخل 100
4) 100
秘书处 100
▁говори 100
▁средств 100
▁измен 100
调查 100
▁continue 100
意见 100
tained 100
▁قانون 100
грани 100
▁Sh 100
▁Declar 100
▁خط 100
▁come 100
▁жиз 100
átic 100
iens 100
راب 100
نى 100
ministration 100
▁estu 100
▁m' 100
▁تمو 100
▁sido 100
ника 100
ugi 100
raq 100
шей 100
ación. 100
ise 100
itos 100
-d 100
▁Pac 100
вести 100
▁мира 100
▁Oficina 100
▁taken 100
▁Та 100
pé 100
حتيا 100
حي 100
▁пос 100
犯罪 100
▁d'app 100
▁Ob 100
In 100
▁(A/6 100
条约 100
ماد 100
▁anal 100
cis 100
NG 100
▁let 100
▁diciembre 100
▁النا 100
▁الفريق 100
▁bod 100
ружи 100
▁واست 100
▁помощ 100
كافحة 100
▁elabor 100
9, 100
▁estra 100
▁There 100
ment, 100
▁تست 100
▁speci 100
سيا 100
▁délé 100
écn 100
ies, 100
uy 100
▁консульта 100
▁ty 100
ints 100
FF 100
▁最 100
▁укреп 100
▁يجب 100
▁показа 100
engthen 100
زا 100
igual 100
▁staff 100
中心 100
igen 100
▁осуществля 100
igo 100
▁gener 100
sess 100
▁الآن 100
ская 100
anta 100
▁mediante 100
获得 100
▁defin 100
بت 100
注意到 100
▁2014 100
▁discrimination 100
ا، 100
▁view 100
пла 100
▁1993 100
صة 100
▁процеду 100
ألة 100
▁som 100
作用 100
عين 100
atri 100
▁السلام 100
ющим 100
tión 100
عداد 100
▁sos 100
ton 100
▁مر 100
▁повест 100
▁бюд 100
资料 100
▁سا 100
جز 100
воль 100
▁nouve 100
▁Div 100
▁自 100
ers, 100
حديد 100
▁到 100
▁事 100
▁comunic 100
▁party 100
рение 100
特别是 100
▁тебя 100
▁ir 100
bit 100
▁importante 100
▁يُ 100
▁مح 100
vez 100
▁чет 100
外， 100
▁рай 100
outh 100
▁port 100
nes 100
▁persons 100
▁следует 100
▁小 100
▁Man 100
▁forma 100
▁وز 100
▁Ab 100
▁существ 100
安全理事会 100
t. 100
▁said 100
▁الأعمال 100
▁будут 100
round 100
тори 100
▁му 100
▁ور 100
▁зд 100
▁допол 100
▁santé 100
25 100
表示 100
ارير 100
《公约》 100
▁distribu 100
▁ضد 100
▁решения 100
pre 100
ili 100
كنولوج 100
لاً 100
▁second 100
ils 100
ICE 100
ابة 100
da 100
1年 100
ets 100
ظفين 100
тели 100
ED 100
▁الانت 100
▁desde 100
▁d'en 100
▁تف 100
▁само 100
▁пи 100
▁nues 100
يين 100
▁aw 100
▁esos 100
▁ю 100
ty- 100
▁stand 100
спор 100
قتصاد 100
▁l'État 100
▁еще 100
▁adopted 100
te, 100
▁employ 100
▁اللا 100
▁٤ 100
ed, 100
▁Sub 100
rique 100
▁zon 100
▁All 100
亚、 100
ocup 100
▁politique 100
▁migr 100
▁management 100
iser 100
▁clim 100
1日 100
▁Article 100
▁механиз 100
ظيم 100
▁11. 100
زمة 100
▁цель 100
af 100
▁выра 100
صال 100
▁(c) 100
▁不是 100
ivent 100
та, 100
▁got 100
▁بموجب 100
hn 100
▁travaux 100
▁(A/5 100
▁نفس 100
▁вопроса 100
▁stratég 100
ules 100
40 100
يء 100
▁subs 100
omb 100
▁без 100
▁怎么 100
هج 100
core 100
▁>> 100
司法 100
CC 100
▁revis 100
عيد 100
▁التش 100
ler 100
▁Dem 100
ath 100
▁Programa 100
mbre 100
вить 100
▁мате 100
▁prom 100
роме 100
▁transfer 100
▁13. 100
▁environment 100
，这 100
-3 100
laboration 100
▁coordination 100
▁délég 100
5年 100
▁مق 100
▁méd 100
ствовать 100
人口 100
▁сем 100
▁让 100
▁garanti 100
▁Ag 100
vironnement 100
▁الذين 100
▁logr 100
▁сов 100
▁fu 100
▁materia 100
▁pobl 100
/W 100
▁Li 100
机制 100
贸易 100
éré 100
▁hand 100
х. 100
▁training 100
▁указа 100
▁ресурсов 100
▁给 100
anz 100
▁过 100
一步 100
ордина 100
tation 100
▁нача 100
▁minor 100
mi 100
▁règ 100
▁dispositions 100
▁access 100
DP 100
▁prendre 100
▁prev 100
▁developing 100
▁tiemp 100
le, 100
طق 100
خط 100
цев 100
▁opin 100
هداف 100
▁décision 100
▁marco 100
▁muy 100
▁cuestión 100
▁фак 100
tionn 100
▁adopté 100
érie 100
▁— 100
▁ante 100
处理 100
▁conv 100
ضي 100
▁如果 100
任务 100
▁النو 100
ts, 100
ступа 100
чита 100
hora 100
кая 100
▁الأعضاء 100
▁Ter 100
▁inclus 100
هما 100
▁1, 100
发言 100
ued 100
▁l'a 100
暴力 100
▁содействи 100
▁потреб 100
نسيق 100
平等 100
زة 100
▁ذلك، 100
行政 100
وط 100
▁jurid 100
▁presup 100
▁orient 100
▁trois 100
▁commer 100
▁Sin 100
▁بن 100
▁demande 100
امت 100
▁prim 100
▁avoir 100
▁She 100
alité 100
▁públic 100
专家 100
▁Де 100
法院 100
фициаль 100
gard 100
▁совер 100
▁back 100
▁ходе 100
▁publ 100
ارات 100
ay, 100
▁прави 100
▁ven 100
▁الفترة 100
▁strateg 100
▁والع 100
▁تحقيق 100
确定 100
хран 100
miti 100
raient 100
جن 100
提高 100
▁تط 100
▁руковод 100
歧视 100
发展中 100
▁группы 100
▁ну 100
▁Jul 100
▁before 100
▁cris 100
ضاً 100
框架 100
▁señal 100
cembre 100
жение 100
▁mec 100
9年 100
▁(أ 100
▁إدارة 100
нист 100
дел 100
عزيز 100
ень 100
рая 100
▁فع 100
▁eso 100
▁Te 100
▁número 100
▁العالمي 100
▁técn 100
uses 100
chool 100
▁продолжа 100
▁aquí 100
▁Director 100
▁потен 100
▁المشتر 100
▁35 100
▁vul 100
▁Law 100
▁реа 100
▁Palestin 100
▁atención 100
▁mettre 100
▁36 100
▁preocup 100
▁concl 100
第二 100
▁pén 100
▁They 100
▁item 100
▁оружи 100
министра 100
▁торгов 100
▁polici 100
تمد 100
▁Israel 100
▁Col 100
▁lu 100
مييز 100
2年 100
سمبر 100
▁secretar 100
ICEF 100
лаго 100
▁الصلة 100
基础 100
▁progress 100
زيد 100
aine 100
nos 100
数据 100
▁gran 100
▁га 100
▁décembre 100
▁نحو 100
▁أعمال 100
▁peti 100
▁Ministr 100
ким 100
сса 100
▁invol 100
uebl 100
▁конкре 100
имо 100
ancement 100
▁(ب 100
▁esfuerz 100
▁Специаль 100
▁الطرف 100
ency 100
2) 100
▁signific 100
▁données 100
▁интере 100
▁устано 100
▁achie 100
eg 100
▁Безопасности 100
▁sent 100
▁Nous 100
▁intro 100
л, 100
жден 100
читель 100
نسبة 100
كد 100
حكام 100
▁дека 100
ados, 100
▁African 100
раз 100
▁الوقت 100
eros 100
ـــ 100
▁six 100
رها 100
▁回 100
спек 100
eth 100
ختلف 100
▁decisión 100
▁dire 100
▁indica 100
▁pend 100
进一步 100
▁dern 100
▁نا 100
жу 100
▁عليها 100
▁Jus 100
وري 100
▁года. 100
aj 100
▁райо 100
▁informes 100
▁Ley 100
▁sc 100
▁позво 100
ev 100
▁políticas 100
▁14. 100
▁свое 100
тому 100
▁Бо 100
▁obten 100
وجه 100
حدث 100
tivas 100
▁Let 100
▁most 100
▁promotion 100
评估 100
eah 100
▁presente 100
ские 100
row 100
▁догово 100
▁предлож 100
▁accordance 100
▁طريق 100
شخاص 100
щен 100
▁наро 100
▁كب 100
▁igual 100
工作人员 100
нако 100
▁moins 100
сли 100
▁حق 100
▁órgan 100
mework 100
▁set 100
▁llev 100
参加 100
▁formation 100
强调 100
ista 100
▁years 100
▁ill 100
нен 100
▁организации 100
icio 100
hib 100
وصيات 100
виси 100
▁Афри 100
▁recib 100
说明 100
рова 100
▁úl 100
ing, 100
▁want 100
制定 100
必要 100
▁policy 100
▁equip 100
▁efic 100
роприя 100
▁уровня 100
伙伴 100
▁45 100
▁Нет 100
вели 100
▁hecho 100
▁распро 100
▁York 100
ód 100
которы 100
▁ing 100
гре 100
▁global 100
▁acuerdo 100
可持续 100
▁Ro 100
▁hum 100
▁33 100
▁data 100
▁June 100
▁efec 100
кри 100
原则 100
▁سل 100
▁hasta 100
▁الجنس 100
мента 100
正在 100
лоб 100
▁vir 100
▁suff 100
▁طلب 100
ين. 100
▁community 100
▁strengthen 100
缔约方 100
▁dirig 100
▁таких 100
▁Груп 100
راك 100
3年 100
▁l'ordre 100
▁déf 100
标准 100
▁48 100
▁doivent 100
été 100
خاذ 100
thing 100
▁الأس 100
лежа 100
вании 100
ائق 100
▁العامل 100
▁emple 100
▁فقط 100
▁много 100
▁lut 100
▁مكتب 100
▁encore 100
▁nuev 100
quier 100
▁partes 100
▁Ни 100
家庭 100
发展中国家 100
علم 100
▁терри 100
60 100
▁Пра 100
ared 100
的情况 100
▁٥ 100
▁fonctionn 100
▁effective 100
ليل 100
▁الحكومة 100
idence 100
▁Economic 100
▁15. 100
وجيه 100
▁jun 100
bres 100
чению 100
▁conformément 100
ول/ 100
▁нару 100
▁Organización 100
▁But 100
工作组 100
/10 100
时间 100
▁esas 100
开发 100
▁autre 100
▁законода 100
НИ 100
▁чем 100
сут 100
▁правам 100
8年 100
lu 100
▁حيث 100
ts. 100
tros 100
▁لد 100
حن 100
tains 100
▁ocup 100
▁anti 100
-ч 100
及其 100
▁Apr 100
▁différ 100
стоян 100
▁высо 100
▁aim 100
▁curr 100
▁нет 100
▁ejecu 100
/P 100
ديسمبر 100
▁الأطفال 100
▁mission 100
▁Как 100
همية 100
70 100
ats 100
ла, 100
occup 100
elon 100
▁care 100
▁fuer 100
▁свобо 100
▁المؤرخ 100
сточ 100
RO 100
ustr 100
▁C. 100
▁الأخرى 100
▁المجتمع 100
取得 100
▁способ 100
▁sea 100
▁32 100
cido 100
aiss 100
的国家 100
▁utiliz 100
▁البند 100
▁World 100
▁quier 100
▁IN 100
共同 100
▁جمهورية 100
▁Med 100
▁особ 100
قدمة 100
▁которая 100
▁cat 100
▁dispon 100
table 100
ché 100
▁أيضاً 100
▁финанси 100
▁compet 100
▁бюджет 100
рон 100
减少 100
ever, 100
▁уже 100
▁consulta 100
▁وغير 100
inal 100
▁мероприя 100
▁think 100
MA 100
ة. 100
сколь 100
طات 100
▁super 100
▁har 100
onne 100
يك 100
мой 100
▁both 100
писа 100
▁Евро 100
▁Adem 100
咨询 100
▁Кроме 100
的是 100
▁hel 100
▁числе 100
▁confer 100
▁Tur 100
▁نظام 100
▁established 100
зя 100
▁resul 100
структу 100
▁service 100
▁rend 100
▁Memb 100
和其他 100
▁Jan 100
стойчи 100
ung 100
▁القد 100
truct 100
echanis 100
бро 100
issement 100
一些 100
▁международного 100
▁лет 100
ogn 100
ложи 100
▁可以 100
▁能 100
ي، 100
▁associ 100
▁bus 100
▁avail 100
cH 100
▁Конвенции 100
▁Africa 100
tructure 100
кую 100
▁cel 100
ائية 100
▁devrait 100
▁agenda 100
▁vida 100
ieux 100
▁extr 100
▁world 100
▁кор 100
办法 100
一项 100
واق 100
▁الدعم 100
vernmental 100
ducation 100
▁fal 100
بادئ 100
/AC 100
▁السن 100
ps 100
▁proporcion 100
▁средства 100
▁Ре 100
▁econom 100
хва 100
▁пя 100
ause 100
▁liv 100
isc 100
keep 100
tainable 100
isse 100
▁сотрудничества 100
▁necess 100
▁此 100
aines 100
ник 100
лом 100
▁t' 100
ecn 100
▁34 100
щение 100
▁pueden 100
▁ха 100
进程 100
▁منا 100
▁lé 100
حتياجات 100
кримина 100
▁den 100
▁Iraq 100
hic 100
部队 100
▁расши 100
▁حالة 100
▁among 100
▁这些 100
ks 100
▁Dur 100
▁trata 100
▁мест 100
▁major 100
▁出 100
▁ej 100
▁работа 100
нами 100
▁three 100
▁processus 100
问题的 100
▁Pr 100
▁Bien 100
سائل 100
▁функ 100
费用 100
▁группа 100
RE 100
▁ils 100
▁political 100
нение 100
ctions 100
▁gestión 100
人的 100
рь 100
▁same 100
ه. 100
中的 100
▁призы 100
وح 100
▁специаль 100
▁way 100
ائج 100
利用 100
▁Су 100
▁обсу 100
لاغ 100
5) 100
▁المعا 100
▁recomendaciones 100
▁menos 100
▁Конферен 100
▁возможно 100
ia. 100
uestos 100
нее 100
ترح 100
▁every 100
▁ans 100
▁اجتما 100
ريقيا 100
▁essenti 100
ellement 100
次会议 100
▁كنت 100
▁против 100
▁relatives 100
ás, 100
▁jurí 100
lément 100
▁transport 100
▁проводи 100
▁concep 100
▁figur 100
▁سب 100
▁obs 100
▁القط 100
▁permet 100
▁координа 100
AP 100
12月 100
▁conj 100
rug 100
▁documents 100
▁redu 100
▁37 100
sh 100
زع 100
رفق 100
▁استخدام 100
ortun 100
▁اﻻست 100
сона 100
▁التص 100
enses 100
▁你们 100
▁á 100
дель 100
▁millones 100
▁sexual 100
▁делега 100
▁Го 100
▁سأ 100
▁after 100
щим 100
чер 100
第2 100
ites 100
رى 100
▁n'a 100
лении 100
ATION 100
тар 100
目前 100
▁education 100
▁حز 100
▁moi 100
▁населения 100
год 100
▁reunión 100
شا 100
▁Mund 100
крати 100
▁related 100
由于 100
▁организация 100
▁المالية 100
▁لدى 100
▁(UN 100
方式 100
▁mainten 100
راط 100
▁antes 100
ette 100
▁assess 100
▁представлен 100
▁culture 100
6) 100
ar, 100
edad 100
▁manera 100
▁своих 100
▁нор 100
▁00 100
ik 100
▁avant 100
-4 100
ave 100
▁contac 100
▁participación 100
▁consecu 100
▁affaires 100
▁mont 100
▁date 100
-Un 100
中， 100
.m. 100
ird 100
▁caso 100
▁النظر 100
▁أحد 100
▁Fund 100
tion, 100
▁multil 100
▁данных 100
رية 100
▁occup 100
ولى 100
وء 100
▁информации 100
ica, 100
мест 100
▁ПР 100
▁وعلى 100
▁'ve 100
iale 100
خد 100
▁final 100
▁ана 100
entific 100
▁IV 100
▁Mais 100
▁disposiciones 100
7年 100
يو 100
▁estim 100
تا 100
▁nature 100
crip 100
щем 100
▁preven 100
лан 100
▁communaut 100
клад 100
▁many 100
▁بناء 100
▁نعم 100
▁внимание 100
开始 100
▁subst 100
▁working 100
lection 100
crit 100
▁acceso 100
冲突 100
办事 100
вари 100
arian 100
oso 100
▁обо 100
▁усилия 100
▁mecanis 100
деб 100
RI 100
istan 100
▁Member 100
▁condiciones 100
oma 100
мети 100
▁trait 100
ский 100
служи 100
▁Sep 100
лизации 100
ez 100
▁rema 100
9) 100
▁وين 100
▁casos 100
▁aument 100
▁Working 100
▁请 100
▁l'ad 100
▁عمليات 100
▁харак 100
حية 100
▁Une 100
шего 100
▁exemp 100
cias 100
▁Aff 100
чу 100
联盟 100
▁декабря 100
ремен 100
▁действий 100
▁ши 100
▁distin 100
ilding 100
▁توا 100
▁现在 100
员国 100
▁compos 100
▁учреждения 100
▁الوطني 100
него 100
▁منظمة 100
▁вер 100
▁areas 100
▁يست 100
▁défin 100
érations 100
AT 100
tabl 100
▁lieu 100
▁(N 100
ateg 100
责任 100
н. 100
ick 100
لاحظ 100
▁Ли 100
▁tri 100
▁TH 100
▁individual 100
▁réunion 100
olución 100
各种 100
▁niñ 100
高级 100
具体 100
▁buen 100
-то 100
ístic 100
80 100
tus 100
▁conten 100
icion 100
imo 100
бира 100
▁mondial 100
▁instituciones 100
bajo 100
enne 100
▁tiempo 100
▁развива 100
▁детей 100
▁adopt 100
cident 100
é, 100
▁关于 100
▁Па 100
▁receiv 100
▁informations 100
écanis 100
▁当 100
▁política 100
▁Ministry 100
▁16. 100
mal 100
▁целью 100
▁without 100
▁статьи 100
▁l'application 100
▁زيادة 100
▁annex 100
ений, 100
anti 100
un.org/ 100
▁million 100
▁别 100
▁réf 100
机会 100
▁البع 100
ined 100
н, 100
graph 100
▁Ann 100
ходя 100
▁правительства 100
▁junio 100
▁الحكومية 100
的问题 100
办事处 100
▁dich 100
голов 100
▁tres 100
▁arri 100
制度 100
▁esfuerzos 100
рите 100
▁多 100
тий 100
▁мас 100
iller 100
，以及 100
فترة 100
▁bu 100
نشطة 100
▁treat 100
4年 100
▁datos 100
▁PNUD 100
وغ 100
▁puebl 100
▁двух 100
▁47 100
acia 100
▁contributions 100
▁معا 100
▁atta 100
▁cha 100
тых 100
гули 100
▁merc 100
-н 100
▁applic 100
ابات 100
limin 100
▁حال 100
till 100
qui 100
▁grupos 100
▁sosten 100
▁إد 100
▁statis 100
▁البشر 100
ij 100
▁потенциа 100
▁Mu 100
▁跟 100
-член 100
▁كذلك 100
▁ود 100
▁superv 100
inte 100
▁nuclé 100
▁стороны 100
同时 100
тя 100
全面 100
وقع 100
▁بالأ 100
лобаль 100
▁sci 100
▁comunidad 100
▁устойчи 100
▁Amer 100
▁manten 100
▁走 100
انة 100
▁Mundial 100
发生 100
ومة 100
▁196 100
用于 100
▁منذ 100
رق 100
ambio 100
▁联合国 100
▁الأول/ 100
щая 100
شرة 100
ويات 100
▁обеспечи 100
ть, 100
▁下 100
▁help 100
tand 100
блюд 100
gar 100
▁specific 100
anza 100
térie 100
▁النظام 100
▁这个 100
▁экспер 100
人道 100
▁fais 100
说， 100
ثناء 100
▁зада 100
能够 100
▁objet 100
▁Рабо 100
▁ядер 100
rec 100
▁منها 100
▁العالم 100
EM 100
建设 100
▁reduc 100
▁résulta 100
▁school 100
сла 100
▁My 100
▁العالمية 100
▁الأف 100
文化 100
ogue 100
oud 100
oles 100
▁Arab 100
▁персона 100
▁visant 100
mes, 100
▁дет 100
كاليف 100
ying 100
▁rapports 100
щий 100
▁رس 100
ضافة 100
▁suc 100
ches 100
消除 100
▁forces 100
ضمن 100
▁الجز 100
难民 100
▁الرس 100
▁Yeah 100
▁adv 100
▁real 100
充分 100
erb 100
шению 100
вают 100
▁und 100
▁مؤتمر 100
▁sólo 100
▁decid 100
▁(F 100
▁Char 100
▁medio 100
-C 100
▁Sup 100
▁violencia 100
议定 100
▁deben 100
▁juin 100
▁mechanis 100
▁управления 100
pués 100
فوض 100
ствует 100
▁打 100
▁poursu 100
▁engag 100
▁вопрос 100
▁spéci 100
▁شيء 100
▁asoci 100
▁تقدم 100
olutions 100
سك 100
فاء 100
▁2, 100
▁ограни 100
.6 100
▁giv 100
▁اع 100
▁criminal 100
▁bro 100
适当 100
第5 100
ability 100
▁المقرر 100
应该 100
▁differ 100
ونيه 100
ama 100
ضايا 100
ál 100
ners 100
جار 100
范围 100
▁المحكمة 100
▁شخص 100
▁مشار 100
▁Constitution 100
▁crit 100
▁تُ 100
▁compé 100
غة 100
ww.un.org/ 100
▁17. 100
▁mismo 100
них 100
会员国 100
▁div 100
▁повестки 100
地方 100
▁sujet 100
▁lead 100
▁пункта 100
▁Distr 100
▁Комитета 100
▁дискримина 100
كِ 100
omm 100
▁آخر 100
▁pur 100
ificación 100
هام 100
欧洲 100
يدة 100
▁appropriate 100
▁доклада 100
▁peuvent 100
рок 100
▁force 100
▁свою 100
▁насили 100
▁reports 100
▁الخدمات 100
جميع 100
▁satisfac 100
ercice 100
ix 100
▁можно 100
▁55 100
cas 100
valuation 100
▁très 100
▁framework 100
▁Pers 100
▁tienen 100
рия 100
▁Inter 100
ья 100
自由 100
▁elimin 100
▁look 100
性别 100
▁Pero 100
▁أت 100
▁Centre 100
▁Humanos 100
مكان 100
▁since 100
▁حزيران 100
льту 100
▁再 100
вал 100
▁حل 100
titut 100
عتقد 100
▁обзо 100
/15 100
ِّ 100
▁удо 100
▁служ 100
▁сказа 100
▁technical 100
▁domaine 100
гли 100
▁manif 100
ступи 100
▁ولك 100
▁защиты 100
进展 100
▁urg 100
ête 100
▁эта 100
rim 100
法》 100
▁l'ONU 100
нутрен 100
правитель 100
▁does 100
сован 100
puis 100
▁ví 100
▁Be 100
▁لحقوق 100
▁программ 100
туа 100
▁Она 100
73 100
▁39 100
▁application 100
▁explo 100
ников 100
▁embargo 100
▁Partes 100
تين 100
▁July 100
▁(أ) 100
يش 100
amin 100
▁libert 100
مبر 100
▁العم 100
▁compar 100
8) 100
حث 100
▁Administra 100
▁material 100
▁gastos 100
▁الميز 100
▁contrôle 100
▁этот 100
ateurs 100
ثيقة 100
▁role 100
▁necesidades 100
reement 100
▁وإذ 100
▁عقد 100
ющиеся 100
▁après 100
équ 100
▁счита 100
▁fech 100
▁stud 100
▁case 100
cès 100
resos 100
希望 100
UR 100
▁تحت 100
вших 100
▁49 100
▁identif 100
▁recommendations 100
▁18. 100
▁тебе 100
тельство 100
▁以 100
governmental 100
▁rap 100
▁necessary 100
▁вза 100
جاز 100
▁المنظمات 100
▁mor 100
▁desp 100
▁нас 100
стя 100
▁regul 100
▁Из 100
▁Ra 100
▁Комиссии 100
tional 100
ource 100
ady 100
▁некоторы 100
▁net 100
按照 100
▁tas 100
ieurs 100
▁Ва 100
▁международных 100
uss 100
tes, 100
这种 100
▁alc 100
.10 100
ственных 100
▁38 100
▁Women 100
▁available 100
tamente 100
▁نطاق 100
▁design 100
▁Trans 100
▁предлага 100
议定书 100
сс 100
t- 100
بين 100
维持 100
untar 100
٠٠ 100
▁renforcer 100
各项 100
▁posible 100
▁可 100
▁проекта 100
-5 100
kay 100
▁Trabajo 100
▁تص 100
▁practic 100
▁gubernament 100
щую 100
▁Organization 100
▁durable 100
▁normas 100
وال 100
▁حا 100
▁سيما 100
▁Bel 100
▁مما 100
▁cases 100
▁sesión 100
fras 100
▁provisions 100
▁занима 100
ENT 100
rée 100
ка, 100
▁torture 100
сторон 100
▁вос 100
▁Jap 100
6年 100
емые 100
قم 100
orpor 100
tan 100
▁industri 100
▁الاتحاد 100
▁dou 100
غم 100
▁call 100
▁II. 100
тем 100
▁d'a 100
дца 100
▁projec 100
▁Coop 100
▁s'est 100
▁呢 100
/يونيه 100
▁là 100
▁necesidad 100
▁Oui 100
▁عندما 100
▁конферен 100
ense 100
▁pens 100
▁mort 100
▁express 100
▁very 100
лик 100
شت 100
▁从 100
▁كيف 100
قراط 100
▁e) 100
负责 100
▁вопросу 100
طلا 100
▁Cri 100
еме 100
▁proyectos 100
▁внутрен 100
ía, 100
▁الثال 100
▁ше 100
恐怖 100
▁prév 100
ant, 100
يام 100
▁لما 100
éta 100
apaci 100
▁hace 100
▁categ 100
▁Ten 100
▁element 100
ций, 100
▁rôle 100
ванием 100
ابع 100
в, 100
▁Board 100
▁الاقتصادية 100
▁foc 100
▁aliment 100
الم 100
设立 100
tember 100
▁terroris 100
▁tecn 100
artment 100
▁commit 100
rier 100
▁الأمر 100
cole 100
▁temps 100
▁full 100
滋病 100
istem 100
▁وش 100
ulio 100
▁attention 100
▁lit 100
ات، 100
▁oportun 100
利亚 100
▁Nov 100
طفال 100
▁tema 100
▁otra 100
يير 100
▁dém 100
▁European 100
办公 100
▁所 100
▁indiqu 100
▁учетом 100
نائية 100
▁log 100
▁session, 100
▁If 100
▁информацию 100
▁والخ 100
▁También 100
▁légis 100
▁соответствующих 100
▁accep 100
▁Affair 100
▁año 100
▁recogn 100
方法 100
7) 100
艾滋病 100
ظيف 100
▁يتم 100
▁palestin 100
义务 100
▁вла 100
▁Jo 100
▁fil 100
，以便 100
▁consultations 100
пей 100
▁حزيران/يونيه 100
▁March 100
▁المؤتمر 100
生活 100
ложен 100
ustral 100
▁asp 100
▁Que 100
▁hos 100
▁лица 100
▁hous 100
▁Pen 100
▁D' 100
cé 100
▁d'A 100
чень 100
ómo 100
正式 100
▁должен 100
ected 100
ción, 100
▁(M 100
▁Наций, 100
lav 100
▁Nor 100
нь 100
missions 100
ification 100
/CN.4 100
▁прилож 100
ua 100
▁educación 100
ربية 100
▁concerne 100
▁dial 100
ativas 100
ager 100
▁Ассамблеи 100
▁أول 100
igenous 100
ностей 100
▁42 100
sibility 100
▁reconn 100
ression 100
▁被 100
基本 100
▁julio 100
的。 100
لسة 100
тивного 100
▁الأول/ديسمبر 100
▁дополнитель 100
▁September 100
▁collec 100
issant 100
نوب 100
сят 100
шин 100
▁période 100
▁rad 100
▁arreg 100
ере 100
▁land 100
E. 100
▁отмети 100
▁администра 100
▁Соедин 100
▁fois 100
وﻻ 100
olid 100
ira 100
сен 100
لم 100
encia, 100
ستان 100
▁nov 100
يئات 100
▁utilis 100
▁clas 100
▁Well 100
ليون 100
▁Child 100
▁depuis 100
▁comb 100
▁Au 100
▁App 100
▁обеспечить 100
▁أساس 100
▁حسناً 100
кое 100
▁أخ 100
onde 100
ena 100
▁lang 100
ha 100
érer 100
▁Además, 100
▁(ب) 100
▁transpar 100
▁gender 100
ункт 100
anto 100
▁recommandations 100
чей 100
▁التأ 100
чные 100
▁рассматри 100
接受 100
▁víc 100
óg 100
▁mécanis 100
承诺 100
▁concre 100
▁euro 100
util 100
条件 100
▁used 100
▁обществ 100
协助 100
▁دعم 100
▁لعام 100
мери 100
▁кра 100
íci 100
▁исследо 100
▁Univers 100
▁Ин 100
▁ответствен 100
▁I. 100
▁d'ad 100
▁últi 100
▁prohib 100
рование 100
许多 100
ado, 100
公共 100
токо 100
▁going 100
▁проси 100
▁المنظمة 100
▁وهي 100
▁pau 100
▁образом 100
чь 100
uge 100
uestas 100
▁empres 100
民主 100
▁Add 100
бра 100
عوب 100
▁يد 100
▁والن 100
▁معلومات 100
▁D. 100
AD 100
▁Ç 100
lez 100
▁llam 100
▁emer 100
▁projets 100
▁y, 100
▁obligations 100
ваний 100
▁Ils 100
▁уг 100
▁Организа 100
ًا 100
tober 100
▁التدابير 100
▁termin 100
▁Сторо 100
quoi 100
irl 100
做法 100
▁парт 100
нитар 100
▁ciud 100
▁objectifs 100
ющего 100
ندا 100
▁estudi 100
▁个 100
▁得 100
认识 100
istas 100
фика 100
▁Parti 100
▁٦ 100
▁То 100
▁1992 100
ra. 100
▁provisional 100
▁Сек 100
скольку 100
▁Sur 100
▁ici 100
ческим 100
▁problemas 100
▁each 100
ثال 100
▁soient 100
ities, 100
IV 100
▁جز 100
▁наи 100
нологи 100
新的 100
بية 100
▁orden 100
▁mundial 100
▁оказы 100
▁documento 100
▁(R 100
▁energ 100
دان 100
▁bienn 100
мости 100
，其中 100
▁November 100
▁судеб 100
▁1990 100
ждение 100
资金 100
▁heures 100
вым 100
▁aur 100
ateral 100
▁окру 100
мых 100
agn 100
▁44 100
بيق 100
افية 100
ерт 100
ثائق 100
ولايات 100
决议草案 100
▁estrateg 100
▁وذلك 100
bility 100
▁mejorar 100
زال 100
▁0, 100
▁Bur 100
اردة 100
▁monitor 100
rir 100
▁особенно 100
/Rev 100
▁Nacional 100
ния, 100
▁широ 100
وضع 100
▁культу 100
trang 100
▁October 100
на, 100
▁while 100
▁diffic 100
▁Esto 100
прав 100
чного 100
▁lleg 100
▁experi 100
▁Buen 100
ants, 100
وليه 100
▁осо 100
▁找 100
▁resultados 100
▁compromis 100
ticia 100
▁segund 100
▁ofici 100
dit 100
▁THE 100
برنامج 100
▁relations 100
влении 100
▁因此 100
AC 100
▁органов 100
▁basis 100
▁проведения 100
تائج 100
▁20. 100
▁три 100
▁impos 100
指出， 100
▁objetivos 100
▁Junta 100
▁veux 100
داء 100
▁importance 100
بري 100
▁cr 100
▁Если 100
▁groupes 100
▁الساب 100
▁Permanent 100
és, 100
▁لو 100
زامات 100
▁والاجتما 100
▁ba 100
рошо 100
ii) 100
ticles 100
нициа 100
▁principal 100
）。 100
▁57 100
rer 100
▁dar 100
▁Miembros 100
▁juille 100
lia 100
pects 100
ña 100
▁وط 100
▁san 100
galité 100
▁快 100
▁élec 100
▁virtud 100
▁principales 100
▁ste 100
grad 100
ola 100
▁إجراء 100
▁importancia 100
，特别是 100
▁technique 100
▁secteur 100
▁own 100
▁كم 100
▁amend 100
▁promover 100
▁contrac 100
▁septi 100
▁поряд 100
-1 100
y. 100
▁Division 100
▁África 100
▁lutte 100
▁والمن 100
▁Ж 100
بط 100
▁работе 100
附件 100
▁Unidas, 100
▁dif 100
▁есть 100
▁المسائل 100
és. 100
监测 100
▁comerci 100
欢迎 100
▁46 100
▁circ 100
ادر 100
▁peup 100
▁comprend 100
▁guer 100
▁требо 100
-b 100
/23 100
▁جانب 100
щество 100
читы 100
▁تؤ 100
▁بشكل 100
▁infra 100
▁ген 100
▁اتفاقية 100
▁уни 100
存在 100
чной 100
▁52 100
▁ton 100
тивных 100
ром 100
▁мето 100
▁переда 100
▁ту 100
pportun 100
▁ordin 100
▁production 100
лара 100
tel 100
▁(201 100
▁الموظفين 100
▁就是 100
▁которой 100
ether 100
., 100
/13 100
همة 100
▁относи 100
▁وتش 100
▁decir 100
▁أعضاء 100
▁jou 100
▁pon 100
▁подтвер 100
▁limit 100
▁senti 100
▁vulner 100
鼓励 100
▁étaient 100
/19 100
公司 100
▁وقت 100
▁down 100
براء 100
▁стан 100
▁primer 100
هات 100
aban 100
▁Хо 100
▁approach 100
▁pertinentes 100
▁《 100
▁Membres 100
▁difer 100
▁государствен 100
▁Som 100
iales 100
▁поддержа 100
▁Chair 100
grès 100
-199 100
▁вопросы 100
ками 100
▁听 100
▁الحد 100
вый 100
▁Department 100
▁дей 100
▁gen 100
е, 100
anda 100
▁sor 100
وكول 100
▁تموز 100
▁ос 100
▁последстви 100
iers 100
▁atte 100
isting 100
▁Para 100
fs 100
▁guid 100
▁April 100
▁благо 100
éné 100
▁record 100
▁gar 100
▁société 100
▁centr 100
gos 100
option 100
严重 100
▁لها 100
▁Car 100
ющий 100
غل 100
▁воору 100
▁являются 100
AM 100
▁сотрудников 100
▁رأ 100
cir 100
هتم 100
tip 100
▁field 100
emn 100
第一 100
▁pouvoir 100
цы 100
日， 100
-B 100
▁capacity 100
мир 100
▁الحا 100
▁ning 100
▁19. 100
▁الخارج 100
▁órganos 100
尼亚 100
▁ры 100
▁organismes 100
/L.1 100
▁ситуа 100
▁sociedad 100
▁incorpor 100
▁uno 100
▁отмеча 100
عو 100
阿拉 100
▁программа 100
▁предусматри 100
▁violations 100
флик 100
ших 100
▁algo 100
▁女 100
▁43 100
▁attend 100
çon 100
▁project 100
▁población 100
▁nuevo 100
vait 100
▁especi 100
كتو 100
▁لمن 100
▁Mme 100
▁profession 100
كين 100
▁Fe 100
/SR 100
قدير 100
▁本 100
人道主义 100
in, 100
▁Aut 100
e) 100
▁перед 100
▁المدني 100
后， 100
ثات 100
▁parten 100
▁Code 100
▁النساء 100
▁المتحدة، 100
▁أفريقيا 100
▁still 100
бре 100
ulign 100
وتوكول 100
▁Bos 100
ли, 100
▁OF 100
▁целей 100
▁обслужи 100
▁подчер 100
▁include 100
▁dialogue 100
事项 100
▁mun 100
▁secré 100
arán 100
▁إنشاء 100
хода 100
▁crime 100
▁Action 100
tle 100
смотрен 100
▁التعليم 100
▁sug 100
▁encarg 100
ضم 100
▁членов 100
设施 100
▁ide 100
▁Económ 100
вно 100
SI 100
▁relativas 100
inas 100
▁سوف 100
▁permanent 100
▁وهو 100
▁(d) 100
▁tanto 100
▁помощь 100
▁hu 100
▁المستدام 100
▁этим 100
▁reported 100
▁وجود 100
ked 100
وبي 100
▁الأسلحة 100
▁militar 100
aría 100
▁unders 100
clam 100
ibles 100
▁56 100
ثار 100
▁habían 100
▁d'action 100
mientos 100
▁21. 100
ize 100
▁транспор 100
/WP 100
▁документа 100
/يوليه 100
▁abs 100
▁Ça 100
▁ско 100
باط 100
▁excep 100
▁ومع 100
安排 100
СТ 100
يمقراط 100
▁raz 100
▁٧ 100
办公室 100
▁распростран 100
tification 100
عمل 100
▁faut 100
▁based 100
▁-ce 100
▁деятельность 100
▁équ 100
▁submitted 100
▁integra 100
▁这样 100
▁ahora 100
ends 100
orta 100
▁even 100
PA 100
▁اتخاذ 100
▁أنشطة 100
tec 100
▁哪 100
第3 100
▁увели 100
وجد 100
▁Distr. 100
▁reserv 100
atro 100
▁después 100
非政府 100
▁сокра 100
سرائ 100
imen 100
▁производ 100
طلع 100
▁otro 100
▁représentants 100
▁ear 100
ood 100
فعل 100
less 100
▁bar 100
on, 100
▁agr 100
viembre 100
-s 100
▁] 100
.9 100
еклара 100
▁colabor 100
预防 100
▁pag 100
حص 100
▁(1 100
▁58 100
▁say 100
tubre 100
▁restric 100
造成 100
投资 100
▁Congo 100
طيع 100
▁i) 100
▁because 100
سطين 100
ском 100
▁решение 100
▁حسب 100
▁اﻹنسان 100
ощ 100
راتيجية 100
▁частности 100
قال 100
انيا 100
▁Imp 100
▁фон 100
具有 100
вое 100
▁simp 100
▁aseg 100
结果 100
êtes 100
▁использования 100
▁qued 100
▁pendant 100
▁الرئيسية 100
▁January 100
▁минист 100
▁совмест 100
реть 100
ime 100
jus 100
▁مختلف 100
حقيق 100
▁Secretariat 100
ève 100
ноги 100
▁должна 100
受到 100
▁تموز/يوليه 100
ower 100
ígen 100
▁región 100
协定 100
ître 100
▁savoir 100
▁ж 100
▁бес 100
анда 100
▁donc 100
▁каж 100
▁manière 100
▁eu 100
▁state 100
tructur 100
reedom 100
ées, 100
▁then 100
arious 100
istán 100
▁два 100
▁Ки 100
▁Yo 100
▁разо 100
▁LA 100
مارس 100
ويل 100
جد 100
RAN 100
▁53 100
▁участни 100
▁type 100
有关的 100
RAL 100
дов, 100
▁Her 100
чета 100
▁find 100
ov 100
علان 100
هدة 100
▁sistem 100
راح 100
тен 100
▁ضر 100
рори 100
ativa 100
arma 100
警察 100
▁CON 100
وقف 100
▁organismos 100
سبب 100
▁تدابير 100
45 100
بدأ 100
▁خدمات 100
▁particularly 100
▁noviembre 100
▁cand 100
▁Ну 100
第三 100
gment 100
▁№ 100
entro 100
мати 100
▁الواردة 100
▁octubre 100
стато 100
exo 100
▁nationale 100
واء 100
eness 100
yo 100
涉及 100
▁Ap 100
色列 100
atory 100
▁Commun 100
▁وإن 100
ecutive 100
equ 100
▁даль 100
▁而 100
ceed 100
▁fecha 100
▁然 100
▁sm 100
▁issue 100
应当 100
▁moyens 100
ence, 100
▁但是 100
كنولوجيا 100
▁مص 100
auc 100
▁这里 100
▁sociales 100
▁فيه 100
▁l'environnement 100
▁ejemplo 100
▁mesure 100
ны, 100
▁conc 100
ционных 100
вле 100
ваются 100
▁beh 100
ancing 100
▁النامية 100
▁根据 100
▁اﻻت 100
▁four 100
尤其 100
EA 100
ología 100
▁réalis 100
▁estado 100
▁Inv 100
生产 100
▁l'exercice 100
واعد 100
▁القض 100
воз 100
法庭 100
▁Ministerio 100
érica 100
▁dec 100
▁concerning 100
▁التمييز 100
ze 100
6月 100
▁ejecución 100
ly, 100
key 100
▁Ла 100
▁подо 100
urales 100
▁мл 100
▁grupo 100
▁problèmes 100
▁Республики 100
巴勒 100
▁auto 100
وير 100
▁ases 100
bo 100
▁للجنة 100
▁Report 100
pon 100
▁air 100
حددة 100
مث 100
verty 100
▁где 100
▁ciudad 100
ماً 100
▁конкрет 100
етво 100
▁500 100
▁surve 100
▁داخل 100
держи 100
to, 100
ût 100
▁selon 100
éliorer 100
▁результате 100
▁juillet 100
▁septiembre 100
▁политики 100
яс 100
ières 100
规划 100
▁missions 100
▁résultats 100
▁هٰ 100
▁الاتفاق 100
▁инициа 100
▁mondiale 100
▁технологи 100
▁вопросов 100
зяй 100
▁allow 100
它们 100
▁صا 100
▁исклю 100
▁plans 100
▁выше 100
влетво 100
▁l'ob 100
阿拉伯 100
▁сель 100
rea 100
oute 100
▁течение 100
▁tener 100
▁“ 100
▁toda 100
жне 100
▁национальных 100
▁claim 100
形式 100
▁actual 100
▁السكان 100
▁sí 100
وعية 100
▁القائمة 100
▁presupuesto 100
▁ejer 100
▁дума 100
▁другие 100
ienne 100
▁وفقا 100
巴勒斯坦 100
▁الجهود 100
▁прось 100
alf 100
-c 100
loc 100
▁rapp 100
▁monde 100
成果 100
▁时 100
tembre 100
▁уголов 100
▁Sa 100
ائم 100
▁benefici 100
ove 100
rang 100
▁Union 100
ساعدة 100
▁bil 100
▁بغ 100
▁opérations 100
▁откры 100
▁мисси 100
▁respond 100
▁بلدان 100
▁High 100
▁algunos 100
рованных 100
▁racial 100
ским 100
/12 100
▁capacitación 100
▁secrétariat 100
eron 100
دين 100
▁té 100
عتبار 100
▁разме 100
▁préoccup 100
▁sim 100
timas 100
سع 100
gl 100
هن 100
ities. 100
▁органи 100
▁Цент 100
▁mantenimiento 100
▁59 100
▁adecu 100
épend 100
خدم 100
тельных 100
вай 100
武装 100
▁accom 100
▁гума 100
▁поддержку 100
▁tenu 100
▁пункт 100
▁процесса 100
rog 100
ouvoir 100
独立 100
▁Ces 100
▁girl 100
▁中 100
нению 100
форми 100
لسطين 100
▁auc 100
▁l'imp 100
▁поддержки 100
ОВ 100
▁opportun 100
▁initiatives 100
ateur 100
لغ 100
earch 100
طال 100
▁sever 100
lor 100
ers. 100
▁belie 100
▁تحديد 100
▁list 100
▁communication 100
▁54 100
jours 100
▁العنف 100
▁باست 100
ique, 100
▁noted 100
▁Court 100
▁بصورة 100
12) 100
▁22. 100
▁Упра 100
▁change 100
▁provision 100
тельств 100
▁consideration 100
▁годы 100
▁голо 100
тие 100
ados. 100
▁65 100
ерьез 100
▁candid 100
▁pobre 100
▁مجموعة 100
▁Coordin 100
влению 100
地位 100
тего 100
▁account 100
▁направлен 100
come 100
ريف 100
▁recher 100
imientos 100
ilar 100
规则 100
▁77 100
▁Програм 100
批准 100
▁المص 100
▁للق 100
▁gouvern 100
لاء 100
▁واﻻ 100
▁стандар 100
▁military 100
▁d'I 100
▁cualquier 100
▁поч 100
▁chaque 100
▁Од 100
عاية 100
▁بالنسبة 100
رفة 100
▁vra 100
刑事 100
واة 100
▁hist 100
▁medios 100
illa 100
▁voy 100
▁يح 100
▁adap 100
ée, 100
▁ч. 100
▁хоте 100
▁конвен 100
▁与 100
▁montant 100
▁uso 100
▁Yes 100
▁комитета 100
пример 100
نتين 100
ров, 100
▁حكومة 100
▁Gene 100
▁конфлик 100
▁armes 100
▁Aug 100
美国 100
▁причи 100
非政府组织 100
▁juris 100
▁septembre 100
ети 100
▁البيانات 100
▁operaciones 100
▁поощ 100
▁المعق 100
▁51 100
▁internationales 100
▁البشرية 100
еде 100
临时 100
▁certains 100
▁coord 100
▁amo 100
كتوبر 100
▁millions 100
▁d'ass 100
view 100
▁касается 100
▁отра 100
iores 100
▁voul 100
▁اتفاق 100
рных 100
ily 100
▁образования 100
نتاج 100
▁Cooper 100
▁нау 100
▁europé 100
▁votre 100
وفمبر 100
▁dese 100
▁discriminación 100
▁июня 100
▁الأساسية 100
ائف 100
▁предоставля 100
▁show 100
▁улуч 100
ieron 100
تمبر 100
▁м. 100
▁взаимо 100
ديق 100
▁siguientes 100
▁البلد 100
▁relative 100
▁ceux 100
▁развитию 100
▁permit 100
▁bord 100
▁nouveau 100
▁exig 100
uis 100
▁الديمقراط 100
▁Pl 100
的人 100
▁groupe 100
当局 100
▁considered 100
▁serait 100
▁وينبغي 100
提出的 100
▁здесь 100
جئ 100
▁قط 100
监督 100
▁funcionarios 100
▁الإدارة 100
▁глобаль 100
gov 100
tres 100
▁evaluación 100
▁принять 100
▁life 100
▁required 100
不同 100
▁البعثة 100
▁various 100
▁VIH 100
▁means 100
▁Or 100
▁الإد 100
quelle 100
▁Ge 100
▁needs 100
▁للن 100
▁entrepris 100
▁работу 100
vous 100
▁perspec 100
▁юри 100
▁debería 100
▁chall 100
▁prison 100
entre 100
▁gobier 100
▁الميزانية 100
▁libre 100
▁части 100
реди 100
▁above 100
▁meetings 100
tica 100
▁avaient 100
▁embargo, 100
▁categor 100
фици 100
يلول/ 100
امي 100
▁23. 100
198 100
是否 100
，因为 100
▁Так 100
▁poten 100
▁встре 100
▁ولكن 100
▁دع 100
▁Act 100
طي 100
▁пы 100
▁Pa 100
业务 100
报告员 100
tock 100
▁материа 100
▁enh 100
▁Са 100
▁zonas 100
▁подгото 100
▁première 100
▁autoridades 100
▁اﻻقتصاد 100
tobre 100
上， 100
▁www.un.org/ 100
gency 100
▁Como 100
▁السياسات 100
▁وسي 100
▁registr 100
▁table 100
▁upon 100
▁الحق 100
▁обу 100
>>. 100
▁بالإ 100
▁increase 100
ويت 100
▁гуманитар 100
▁South 100
▁igualdad 100
شة 100
▁regular 100
▁太 100
两个 100
▁них 100
▁выс 100
▁Bar 100
▁يؤ 100
▁ино 100
▁clear 100
成为 100
▁laquelle 100
▁المتصلة 100
▁Service 100
нных 100
miss 100
▁open 100
分析 100
عدل 100
产生 100
下， 100
▁quoi 100
▁проект 100
▁head 100
▁tur 100
▁رقم 100
▁commerce 100
▁цент 100
▁включа 100
▁purpos 100
▁المحت 100
▁toi 100
▁conoci 100
▁face 100
▁удовлетво 100
▁COM 100
▁секретариа 100
حلة 100
关切 100
▁fé 100
▁internationaux 100
▁necesario 100
ты, 100
▁Они 100
tat 100
卫生 100
▁déj 100
▁Mil 100
▁Nue 100
▁tipo 100
▁Под 100
/20 100
▁настоящее 100
▁given 100
▁suite 100
▁delegación 100
▁المسؤول 100
▁فريق 100
▁просто 100
▁groups 100
other 100
▁besoin 100
▁notre 100
国内 100
▁General, 100
▁спра 100
▁whe 100
деля 100
▁Га 100
TAD 100
21 100
▁arbit 100
选举 100
▁зако 100
▁depend 100
▁proposed 100
▁maintien 100
▁tempor 100
▁sesion 100
▁Asia 100
▁entr 100
优先 100
▁centres 100
▁promote 100
▁tras 100
▁الصعيد 100
▁أيلول/ 100
/Add.2 100
▁society 100
▁With 100
▁подготовки 100
两年 100
بن 100
▁Hey 100
▁муж 100
▁that, 100
▁agric 100
▁nécessaires 100
▁предпри 100
案件 100
▁regionales 100
▁والق 100
▁Departa 100
arante 100
▁учрежд 100
▁والح 100
▁év 100
▁status 100
▁sustainable 100
▁abord 100
▁agenci 100
▁libertad 100
بلدان 100
вала 100
ensive 100
unes 100
يمكن 100
▁告 100
▁plusieurs 100
iques, 100
اريخ 100
erait 100
▁проблемы 100
▁сви 100
блюда 100
立法 100
▁vac 100
وروب 100
rán 100
وائ 100
▁فقد 100
▁постано 100
▁section 100
onom 100
برا 100
▁♪ 100
▁٨ 100
▁официаль 100
чный 100
us, 100
▁90 100
▁себя 100
时， 100
▁الخط 100
.1. 100
▁traffic 100
▁l'examen 100
▁found 100
aire, 100
▁débat 100
改革 100
▁démocra 100
lle 100
▁seguir 100
宣言 100
▁عليه 100
▁завер 100
мент 100
▁family 100
▁orig 100
▁وص 100
挑战 100
谈判 100
协商 100
rais 100
▁asegur 100
▁توفير 100
ется, 100
▁appel 100
te. 100
▁случая 100
того 100
▁tard 100
полага 100
▁Sy 100
▁ثم 100
▁adoptar 100
▁着 100
▁Inform 100
▁requested 100
▁окружа 100
▁которое 100
▁структу 100
▁此外， 100
▁communauté 100
▁مركز 100
ظومة 100
▁novembre 100
于200 100
с. 100
▁bás 100
است 100
▁conférence 100
帮助 100
健康 100
▁facil 100
▁ayant 100
▁perform 100
委员会的 100
▁government 100
▁prises 100
▁cop 100
禁止 100
▁الجديدة 100
car 100
▁64 100
quis 100
▁position 100
▁suppor 100
cio 100
▁drog 100
ذل 100
▁effectiv 100
trucción 100
هي 100
▁progrès 100
▁المنطقة 100
▁الحصول 100
▁недо 100
rain 100
/25 100
عر 100
▁الموا 100
▁reas 100
▁موظ 100
вленных 100
▁Pri 100
▁prépar 100
▁partners 100
▁العد 100
lex 100
▁всего 100
▁toujours 100
▁إز 100
▁future 100
▁private 100
ذهب 100
▁сент 100
▁70 100
iera 100
▁statement 100
▁участие 100
▁cabo 100
▁qu'ils 100
▁принятия 100
▁pes 100
صوص 100
领土 100
▁24. 100
▁الان 100
lation 100
▁Misión 100
пыта 100
▁instruments 100
▁partir 100
▁fundamental 100
▁policies 100
▁комисси 100
▁прогре 100
▁жизни 100
▁проф 100
方面， 100
ج) 100
▁серьез 100
▁negoci 100
▁спе 100
利益 100
нить 100
▁Relator 100
نوفمبر 100
履行 100
lin 100
▁واحد 100
▁water 100
▁وبال 100
سبتمبر 100
▁Bosn 100
▁Fondo 100
▁80 100
▁authorities 100
土著 100
▁услуг 100
ы, 100
▁جهود 100
▁representatives 100
ضل 100
▁борьбе 100
▁وما 100
▁الإقليمية 100
▁ممثل 100
▁решений 100
ثمار 100
▁déjà 100
▁مليون 100
wards 100
тельного 100
▁Председателя 100
▁bon 100
▁老 100
▁fre 100
▁والث 100
▁пункте 100
ческий 100
ياة 100
▁l'ann 100
认为， 100
▁deta 100
▁pun 100
▁delegation 100
▁الثاني/نوفمبر 100
▁تخ 100
▁Exper 100
▁المتعلق 100
▁muer 100
CO 100
之前 100
▁devraient 100
▁Gra 100
راسة 100
ada, 100
▁étrang 100
▁برامج 100
емократи 100
▁factor 100
▁1991 100
▁impact 100
▁avez 100
▁incid 100
▁эко 100
▁habit 100
ساعد 100
种族 100
urso 100
▁تحسين 100
чего 100
▁الصدد 100
▁AN 100
ТА 100
▁Document 100
▁гендер 100
▁tribun 100
▁Cette 100
▁femme 100
▁Pan 100
▁dépenses 100
积极 100
partement 100
▁поскольку 100
▁− 100
فقر 100
▁(B 100
▁visit 100
▁террори 100
▁места 100
▁докладе 100
ــة 100
bilité 100
▁proper 100
▁Ро 100
▁marzo 100
变化 100
▁déc 100
▁separ 100
▁spe 100
/H 100
▁للح 100
▁haber 100
estic 100
▁mundo 100
▁等 100
▁62 100
ذار/ 100
ésimo 100
▁لﻷ 100
之间的 100
▁Ha 100
ﻻل 100
iness 100
▁Environment 100
▁current 100
▁Unión 100
فاع 100
рек 100
▁ofic 100
زل 100
дек 100
▁(с 100
▁estos 100
bruary 100
▁плани 100
ss 100
▁peque 100
▁2008, 100
▁bal 100
раи 100
▁organización 100
▁بق 100
change 100
▁However, 100
▁تك 100
▁renforcement 100
▁العق 100
▁الشرطة 100
crib 100
gin 100
▁lograr 100
▁Шта 100
▁роль 100
▁octobre 100
▁Ру 100
▁Sw 100
▁41 100
▁objeto 100
▁inten 100
▁month 100
▁والتنمية 100
▁cover 100
▁según 100
▁свед 100
▁لش 100
▁developed 100
▁gon 100
сах 100
urg 100
▁promouvoir 100
▁arreglo 100
DC 100
سر 100
▁trade 100
iver 100
/0 100
▁Unidos 100
▁Cro 100
▁establecer 100
▁нео 100
ملة 100
inci 100
▁فض 100
▁Sp 100
▁received 100
▁всем 100
审计 100
▁ظ 100
десят 100
▁representantes 100
▁estaba 100
▁foment 100
例如 100
ned 100
▁кто 100
лия 100
ريقة 100
▁أيلول/سبتمبر 100
▁autorités 100
▁(par 100
▁III. 100
iar 100
▁назна 100
▁persona 100
ﻻح 100
▁يوم 100
完成 100
▁الساعة 100
▁focus 100
▁الاتفاقية 100
状况 100
▁إعادة 100
тисти 100
第6 100
▁jug 100
▁soulign 100
问题。 100
moi 100
▁dice 100
▁façon 100
▁катего 100
▁famille 100
▁сум 100
بدو 100
▁vi 100
▁judicial 100
чении 100
▁فترة 100
▁здо 100
лести 100
▁2005, 100
实际 100
▁abril 100
▁надлежа 100
▁February 100
мули 100
щими 100
unque 100
▁peux 100
▁interven 100
▁due 100
不是 100
▁الإنمائية 100
▁الأخ 100
▁añ 100
▁enter 100
▁составля 100
▁Affairs 100
▁l'enf 100
тек 100
▁pare 100
▁besoins 100
ft 100
▁poc 100
alisation 100
▁mai 100
▁appliqu 100
▁ﻷ 100
▁больше 100
▁فعل 100
▁d'ar 100
▁3, 100
▁للإ 100
EL 100
▁знаю 100
国家的 100
▁العل 100
степ 100
▁.. 100
▁2006, 100
22 100
▁Departamento 100
tection 100
▁المواد 100
غيرة 100
▁آذار/ 100
▁меди 100
▁Ph 100
▁25. 100
ضمان 100
▁отсут 100
▁Европей 100
军事 100
щихся 100
кви 100
ينة 100
▁63 100
受害 100
▁fer 100
к, 100
▁дальней 100
▁الأشخاص 100
▁sû 100
▁"ال 100
▁pel 100
▁benef 100
▁béné 100
▁war 100
▁Sra. 100
riginal 100
▁这是 100
▁манда 100
▁financier 100
ظائف 100
▁(T 100
▁правительство 100
▁المؤقت 100
▁через 100
▁concerned 100
вом 100
▁mayo 100
▁reuniones 100
▁poverty 100
▁Всемир 100
▁потенциала 100
▁large 100
▁أثناء 100
▁repro 100
▁give 100
▁clar 100
▁entend 100
▁друго 100
парта 100
▁voluntar 100
▁prévention 100
▁freedom 100
▁organes 100
▁Mill 100
▁prep 100
▁financement 100
ريك 100
▁Comp 100
▁pregun 100
重申 100
▁Бу 100
▁поста 100
▁частности, 100
▁возможность 100
tados 100
▁منطقة 100
ريمة 100
▁personne 100
cle 100
▁podría 100
议程项目 100
▁mean 100
▁المرفق 100
▁лиц, 100
/أكتوبر 100
ecer 100
▁mars 100
的权利 100
près 100
▁whether 100
▁day 100
وبة 100
тать 100
ross 100
una 100
▁وكذلك 100
▁إذ 100
残疾 100
seignement 100
▁أهمية 100
▁underta 100
▁especialmente 100
▁cultural 100
▁يلي 100
▁enero 100
▁المستوى 100
erve 100
▁dang 100
▁wel 100
جع 100
ST 100
▁تقوم 100
▁capacités 100
▁достиг 100
либо 100
номо 100
恐怖主义 100
▁الاقتصادي 100
ern 100
▁humanitarian 100
ried 100
▁direct 100
▁человека, 100
▁خاصة 100
اقة 100
erse 100
"的 100
▁l'e 100
▁expos 100
▁июля 100
aces 100
第十 100
▁المشتركة 100
tras 100
▁garantizar 100
▁61 100
▁связанных 100
▁area 100
كيد 100
▁principios 100
▁rien 100
▁locales 100
▁verdad 100
▁Для 100
спол 100
... 100
▁Rapport 100
▁civ 100
▁délégation 100
▁выбо 100
▁оза 100
社区 100
▁والص 100
▁963 100
▁tell 100
rabe 100
ope 100
▁возра 100
▁minim 100
تصل 100
▁постоян 100
رجة 100
▁المقر 100
▁fonds 100
cel 100
▁2009, 100
▁pourrait 100
▁pauvre 100
itable 100
▁put 100
enio 100
▁Fonds 100
▁необходимость 100
▁star 100
دت 100
▁ries 100
media 100
ناول 100
联邦 100
▁Somal 100
▁المحا 100
▁subsid 100
▁ارت 100
▁البحر 100
以下 100
▁em 100
▁lib 100
▁neg 100
▁Секрета 100
راضي 100
▁بلد 100
▁сло 100
ment. 100
▁servic 100
▁répond 100
нах 100
▁too 100
▁имеет 100
▁تب 100
▁независи 100
▁المناطق 100
▁arres 100
ket 100
▁Op 100
empe 100
▁2010, 100
▁understand 100
▁الأنشطة 100
▁víctimas 100
▁الرا 100
▁nucléaires 100
，即 100
▁26. 100
مارسات 100
▁armed 100
incu 100
▁значение 100
ейча 100
CR 100
воо 100
tudes 100
/24 100
▁policía 100
-P 100
▁Civil 100
▁respet 100
▁(G 100
keeping 100
▁الجلسة 100
ées. 100
▁procédure 100
▁mieux 100
▁أُ 100
▁Coun 100
يون 100
▁criter 100
▁dej 100
，该 100
باب 100
ذكر 100
ante, 100
▁qu'elle 100
▁voir 100
▁Ку 100
ИС 100
▁оценки 100
▁chap 100
érique 100
▁détermin 100
маль 100
iger 100
нам 100
裁军 100
▁Ministère 100
▁porque 100
收入 100
▁расходов 100
▁avril 100
▁indigenous 100
▁путем 100
▁debate 100
▁bodies 100
odos 100
>>, 100
▁sostenible 100
▁ethn 100
да, 100
▁jam 100
▁cier 100
▁contained 100
▁acer 100
▁Lib 100
кам 100
▁Che 100
igu 100
，对 100
▁f) 100
عتبر 100
les, 100
▁actions 100
▁испол 100
▁articles 100
▁такие 100
كس 100
٩٩١ 100
)؛ 100
agu 100
▁шко 100
▁представитель 100
▁función 100
▁الجما 100
▁tel 100
ете 100
ienn 100
▁2007, 100
保障 100
▁regla 100
▁legisla 100
▁النووية 100
▁ني 100
ات. 100
مس 100
-A 100
▁relating 100
▁nouvelles 100
▁這 100
▁أيار/ 100
▁المكتب 100
صبح 100
▁combat 100
▁Ah 100
/L.2 100
▁глав 100
лем 100
encion 100
▁谁 100
▁различных 100
▁n'est 100
内的 100
هتمام 100
▁многи 100
нять 100
▁weap 100
▁pal 100
▁один 100
▁ella 100
▁اﻷمين 100
▁по- 100
▁haya 100
▁August 100
▁jan 100
7月 100
▁desempe 100
▁язы 100
тов. 100
adro 100
▁(212) 100
ющими 100
▁обществен 100
▁financiación 100
▁энер 100
▁different 100
▁(I 100
▁cumplimiento 100
24 100
▁mas 100
▁aspects 100
قامة 100
▁tribunal 100
▁Secretaría 100
gy 100
▁Centro 100
▁Austral 100
▁consens 100
ге 100
art. 100
▁закон 100
وضوع 100
tics 100
▁второ 100
▁additional 100
▁انتها 100
▁pron 100
DA 100
▁purs 100
▁Advis 100
وفر 100
▁Qu' 100
▁vais 100
▁consolid 100
قاً 100
▁dentro 100
▁contribution 100
venant 100
/Rev.1 100
-vous 100
▁alleg 100
▁Br 100
vision 100
▁requirements 100
▁اعتماد 100
رهاب 100
▁bre 100
介绍 100
▁estar 100
tégr 100
▁авто 100
циали 100
▁creación 100
им 100
ения, 100
ash 100
▁promoción 100
و، 100
第4 100
▁ps 100
▁охва 100
▁encon 100
ъем 100
▁l'Un 100
综合 100
▁obst 100
▁بي 100
▁grow 100
▁不会 100
▁развития, 100
▁efectos 100
шта 100
▁aumento 100
▁arrang 100
▁جديدة 100
▁méth 100
控制 100
▁sum 100
▁лишь 100
▁التابعة 100
第五 100
esp 100
▁vale 100
see 100
▁domaines 100
▁lucha 100
▁Executive 100
▁coordinación 100
▁possibil 100
▁decisiones 100
يسان 100
дук 100
▁Gr 100
▁自己 100
▁аспек 100
▁التجارة 100
▁conséqu 100
▁مل 100
ادية 100
▁взно 100
▁относительно 100
▁comment 100
▁أح 100
▁соб 100
OL 100
▁reç 100
▁janvier 100
cus 100
▁соблюд 100
hensive 100
▁séance 100
ЕН 100
▁desarrol 100
ío 100
▁наде 100
لاث 100
▁réunions 100
RP 100
voy 100
gentin 100
ental 100
▁又 100
itiz 100
▁Amb 100
▁legislación 100
▁p.m. 100
▁сро 100
▁لك 100
▁better 100
▁ему 100
зии 100
▁fron 100
▁moyen 100
рав 100
▁UNICEF 100
ultural 100
(A 100
▁المقدمة 100
▁البرامج 100
▁member 100
▁égard 100
部长 100
цу 100
▁insta 100
▁primera 100
iture 100
этому 100
écution 100
(. 100
▁إلا 100
jour 100
ado. 100
▁fort 100
▁للس 100
▁vas 100
▁leg 100
alización 100
RANS 100
▁estas 100
▁raison 100
▁responsabilidad 100
▁indígen 100
▁учеб 100
cional 100
▁haut 100
hold 100
▁towards 100
▁применя 100
▁Nueva 100
صلاح 100
▁уби 100
reci 100
▁2004, 100
▁млн. 100
尽管 100
▁grande 100
▁never 100
▁objetivo 100
افة 100
▁Те 100
▁event 100
راقبة 100
▁الخام 100
▁points 100
▁anterior 100
▁E. 100
▁Dar 100
▁جديد 100
▁produits 100
has 100
▁mucho 100
▁27. 100
ienda 100
▁مسألة 100
▁里 100
▁告诉 100
▁problema 100
▁extran 100
الجة 100
一致 100
بيان 100
改善 100
▁importantes 100
财务 100
▁نيسان 100
▁собой 100
▁الفلسطين 100
▁prob 100
▁tan 100
▁المحلية 100
▁Declaración 100
▁Се 100
评价 100
▁Rw 100
рко 100
▁premier 100
的国际 100
▁القانونية 100
国、 100
▁اليوم 100
一般 100
▁него 100
طراف 100
▁استعراض 100
mente, 100
▁acción 100
▁حفظ 100
▁victimes 100
▁Ejecu 100
限制 100
ques, 100
▁иностран 100
жению 100
▁干 100
-ci 100
irst 100
现有 100
▁collaboration 100
емой 100
▁reconoci 100
ather 100
ness 100
حدد 100
▁الميد 100
enez 100
▁Ban 100
ЦИ 100
dades 100
строи 100
▁основных 100
▁أفضل 100
méd 100
▁диа 100
▁fondos 100
▁привет 100
▁сою 100
рению 100
▁ampli 100
новь 100
▁règlement 100
empre 100
اءات 100
▁Пре 100
▁ún 100
▁(ج) 100
▁需要 100
▁66 100
laz 100
防止 100
▁развивающихся 100
▁pauvreté 100
ensa 100
▁auprès 100
▁совет 100
ченных 100
▁دورتها 100
ЕД 100
▁Конференции 100
▁domestic 100
illeurs 100
▁جد 100
拉克 100
▁разору 100
цин 100
▁Una 100
▁(art. 100
▁семь 100
пад 100
INU 100
▁300 100
▁Parte 100
▁الفرعية 100
，为 100
▁Informe 100
рить 100
▁комитет 100
ham 100
▁suivi 100
نون 100
дует 100
▁potenti 100
▁création 100
▁Бы 100
exe 100
个人 100
pes 100
▁happ 100
▁Asuntos 100
▁présente 100
/s 100
▁représentant 100
лети 100
▁العن 100
▁condu 100
▁techniques 100
▁anexo 100
▁الوا 100
▁normes 100
特别报告员 100
▁Pas 100
/18 100
uerzas 100
▁الولايات 100
▁crisis 100
▁l'E 100
▁Ni 100
ضطلع 100
▁(O 100
▁juríd 100
▁гаран 100
指导 100
▁السابقة 100
执行情况 100
关注 100
▁penal 100
▁fore 100
▁Pak 100
▁территори 100
▁قا 100
▁mandate 100
нва 100
▁организаций 100
▁призывает 100
ething 100
▁entit 100
حكمة 100
▁الحالة 100
▁将 100
▁мужчи 100
▁ри 100
▁transition 100
▁ويت 100
▁asign 100
лез 100
onc 100
23 100
igra 100
空间 100
▁matéri 100
▁UNC 100
▁Déclar 100
▁Accord 100
公民 100
там 100
直接 100
r.1 100
▁مستوى 100
ulture 100
▁AC 100
وعة 100
▁central 100
ano 100
▁نحن 100
ленных 100
▁const 100
c. 100
▁seront 100
90 100
.7 100
▁достижения 100
ческая 100
▁transp 100
جي 100
▁вновь 100
▁осуществлению 100
▁возможности 100
▁Oper 100
▁días 100
▁قدم 100
▁الطفل 100
科学 100
财政 100
▁pública 100
▁先生 100
▁прио 100
▁matter 100
▁существую 100
ódigo 100
emble 100
▁Gen 100
集团 100
▁prácticas 100
▁死 100
فاوض 100
▁ámb 100
ИД 100
▁medida 100
▁отчет 100
▁ألف 100
▁mecanismos 100
▁sensibil 100
▁Амери 100
▁Original 100
▁خطة 100
▁refugi 100
▁examp 100
▁68 100
▁agreed 100
▁понима 100
بريل 100
▁Institu 100
▁zones 100
▁окружающей 100
，从 100
▁Ass 100
▁procedimientos 100
收到 100
▁применения 100
-либо 100
[...]
