▁de 81697448
▁la 42679520
▁. 39498306
▁the 37614503
es 32231492
en 32230464
ar 30088084
fr 29606341
ru 29136394
▁of 24963273
▁a 22551301
▁en 21310534
▁, 20013714
▁and 18371592
zh 17943447
▁y 17443592
▁que 16991821
▁- 16456301
▁to 15633518
▁и 15547169
▁в 15529759
▁el 15174151
▁et 15083411
. 14837989
▁des 14182973
▁في 14041157
zh_cn 14003874
▁los 11920770
▁les 11882521
▁le 11217634
▁in 11130743
▁à 10960394
, 10706296
▁? 10446187
▁las 10229848
▁ 9661786
▁من 9421479
▁del 8425910
▁du 7882114
▁un 7297326
▁se 6706987
▁for 6224831
▁on 6016881
; 5934265
▁на 5884849
▁على 5872247
▁para 5616551
▁по 5509270
▁! 5098557
▁с 5063908
▁أن 5030666
▁that 4962301
的 4750420
) 4693870
▁pour 4676355
، 4487573
▁con 4429035
。 4381336
▁dans 4286965
和 4222393
▁por 4214837
▁إلى 4144717
▁The 4138714
▁我 4137352
▁" 4095974
: 4089298
▁的 4086965
▁I 4065924
▁... 3942920
▁sur 3732019
▁no 3728488
▁你 3558469
▁est 3556466
▁au 3498959
▁не 3376412
▁что 3358924
▁with 3348222
▁par 3340647
▁by 3299349
▁is 3262757
▁as 3180903
▁una 3133517
▁be 3085586
、 3052571
， 3006835
▁La 2992205
▁( 2954533
▁al 2872695
▁qui 2872132
▁su 2816384
▁о 2808219
▁sobre 2754458
▁you 2733136
▁التي 2726790
▁для 2691149
▁une 2667305
▁aux 2603967
▁و 2557170
▁عن 2500708
" 2487804
▁pas 2465261
▁El 2419297
▁En 2383979
▁， 2372082
▁Nations 2356266
▁¿ 2290434
▁was 2279985
▁؟ 2257360
▁了 2206812
▁it 2115537
▁es 2106334
▁، 2102333
▁Le 2091377
▁В 2080284
▁к 2062211
ها 2042574
▁are 2030765
- 1998148
▁at 1967645
▁lo 1955726
▁لا 1950053
). 1944505
), 1931980
▁1 1897353
▁or 1896745
在 1881265
▁ب 1875674
▁me 1818976
▁هذا 1806088
▁A 1803893
▁在 1791647
▁from 1777739
▁ه 1775847
▁المتحدة 1767590
▁是 1746401
▁أو 1743300
▁o 1735234
▁its 1726570
▁ce 1703813
▁Comité 1701765
▁como 1700132
a 1698925
▁entre 1688312
ه 1669804
▁United 1666677
s 1653592
▁have 1648745
▁not 1641821
▁'s 1640015
▁No 1636789
▁ne 1632467
▁an 1622889
▁ما 1587673
▁за 1584052
▁ou 1570690
▁مع 1556603
▁ل 1520291
▁) 1497094
▁été 1495266
( 1481453
▁ont 1475862
▁от 1469525
▁this 1463227
▁General 1442799
▁sont 1414562
▁son 1407273
▁Naciones 1402410
؛ 1393684
▁？ 1390183
▁2 1378538
▁sus 1373292
▁هذه 1368011
▁ك 1367768
； 1359762
▁avec 1353528
ين 1351635
▁Je 1348909
o 1348601
er 1338998
▁также 1337148
▁which 1335658
s, 1334513
▁: 1328865
e 1323616
▁In 1318734
▁3 1317703
▁their 1316740
/ 1311391
▁plus 1309197
▁или 1307589
▁all 1299196
as 1299014
ing 1295488
▁ذلك 1294883
▁ha 1288101
an 1280732
▁а 1264814
▁international 1264511
▁Объединенных 1253588
▁has 1249907
▁Les 1243355
▁Il 1233675
▁il 1228022
▁года 1218835
▁10 1212829
▁más 1201018
▁как 1197273
对 1183785
▁الأمم 1182030
▁Организации 1180886
▁5 1174015
▁اللجنة 1152328
▁been 1151674
▁4 1151323
ات 1148165
▁Я 1145526
ado 1140130
▁الذي 1138082
▁из 1129148
▁他 1128640
é 1125293
▁had 1122243
▁ها 1103619
▁я 1102078
▁n't 1100113
▁were 1097851
▁Unidas 1074477
os 1069561
▁si 1067614
▁l' 1062224
▁لم 1059671
▁我们 1059427
s. 1055474
ون 1047004
▁do 1045998
▁pays 1045420
▁15 1045398
▁droits 1045069
▁بين 1040301
ed 1033075
与 1030703
为 1030418
▁6 1028819
▁S 1023427
▁will 1013836
▁غير 1009782
▁不 1007987
▁It 1006602
▁его 1004546
▁7 1004509
▁être 994392
2 992812
ية 990891
▁。 987711
▁Committee 986085
▁их 985584
y 984589
▁8 981582
л 967143
▁بشأن 964686
▁это 961944
▁30 959807
▁Estados 957851
▁Commission 956956
▁also 954333
▁إن 943913
▁other 943048
1 939934
▁Наций 938561
是 936900
▁sa 936263
ت 932205
es, 928484
▁Mr. 925670
或 918841
▁9 915362
3 913436
▁وفي 912928
4 911377
al 904600
▁should 904306
i 903684
м 901218
▁bien 901200
▁-- 897406
▁при 896790
▁derechos 892212
▁You 889208
т 886107
ant 885556
▁12 880456
6 879748
： 876489
▁leur 875348
▁1. 858425
▁¡ 857888
▁Unies 857824
8 857409
ли 855023
▁2. 849300
▁C 848700
▁contra 847536
▁Convention 845431
▁tu 843783
了 841881
5 836988
▁développement 834601
▁B 834115
▁11 830458
▁would 829462
7 828275
▁18 822274
▁fait 822259
▁je 820346
▁session 819459
▁ces 818198
▁he 816269
▁national 814470
); 812702
نا 812217
▁العامة 808713
▁d' 807976
▁которые 807742
▁20 806216
▁States 805770
ي 804169
▁чтобы 799098
▁عام 797582
▁human 796376
9 796201
▁F 794809
ada 794261
中 794094
▁rights 792269
▁te 791348
ó 791124
▁países 788970
▁vous 786491
▁Se 778039
将 777222
on 775899
▁ي 775319
▁\ 774636
▁14 770802
te 770343
人 769934
▁under 769877
▁período 767954
▁e 765086
ent 760088
▁Conseil 756850
▁13 755109
وا 751838
ation 750002
▁desarrollo 749847
▁b) 749330
". 748245
e, 747970
u 747177
▁العام 743956
▁P 742813
▁M 740409
هم 737381
in 734411
ла 733926
▁han 729438
▁كل 726323
a, 726049
▁d'un 725717
▁у 725187
▁[ 725095
▁E 723773
t 721917
ية، 718356
▁Comisión 715641
▁م 714048
▁С 713749
ta 706452
▁области 705694
▁On 705497
▁до 705358
▁D 704695
▁también 703846
▁ت 702659
ной 702037
▁吗 700790
▁Consejo 700748
▁وت 700416
▁services 699966
ные 699878
▁3. 697842
▁we 696238
is 693925
▁cette 693409
▁out 692544
▁الدول 690499
▁有 687616
▁这 686781
ك 685541
▁16 683213
ados 682325
▁好 681799
ми 679966
▁أجل 679864
és 679713
▁ses 679292
有 678589
▁جميع 676710
ée 676306
▁бы 675785
▁comme 675023
▁De 670253
▁États 669212
▁such 668766
es. 664452
ка 663974
▁كان 663935
▁أي 662969
▁ты 662382
ان 662289
اً 661906
▁وال 660531
▁قد 659745
▁<< 659442
▁Y 658486
▁H 657675
不 655655
▁faire 654409
▁fin 653630
▁including 652828
委员会 651854
ا 651509
▁rapport 650437
▁d'une 649840
▁social 648721
▁31 648020
▁a) 647206
▁está 646319
h 646307
و 644321
▁programme 643988
国家 643819
] 643593
▁L 642044
ного 641686
▁R 641332
▁Council 640483
▁medidas 640223
▁العمل 639454
▁حقوق 639351
▁17 638221
▁Los 637560
▁report 636941
▁International 633660
▁C' 632853
▁:: 632306
▁right 631914
▁T 631390
▁they 628986
▁19 627641
（ 624540
▁todos 623104
提供 622109
х 621170
ando 620476
▁information 620471
▁أ 619921
▁development 619857
▁can 619182
▁будет 616849
▁الدولية 616503
но 616393
ن 613674
▁informe 613621
▁one 613542
▁Tu 613007
A 612784
▁об 612491
z 611387
▁información 609536
▁21 608355
▁все 606036
le 605822
▁И 605402
▁ai 604418
▁non 603492
▁contre 603485
▁25 602797
or 601471
▁but 600753
ية. 597325
▁M. 596074
进行 595282
ный 595201
▁actividades 595174
▁بما 595094
n 594460
▁work 594348
▁droit 593624
▁G 592286
a. 592218
ie 592195
▁就 591017
я 589561
▁tous 588710
▁there 588234
▁n' 587281
▁отношении 586881
▁plan 586108
▁K 586022
▁protection 585852
▁per 585215
，并 585125
▁my 583599
س 583210
▁со 582778
▁س 582329
ть 581720
▁este 580363
▁22 579944
▁البلدان 578831
▁4. 578554
▁' 578278
其 575776
关于 575246
o, 573064
us 572773
▁ее 572736
以及 572725
▁Por 571781
▁ainsi 571103
▁她 570869
k 570153
на 568630
▁什么 568592
▁هو 568213
▁24 568013
adas 567925
ных 567734
▁было 566590
▁derecho 566305
▁ser 564741
ح 564520
▁الدولي 564141
▁up 562312
▁leurs 562163
▁travail 561633
▁во 559794
▁général 558864
▁his 557395
▁23 556660
▁этой 556290
▁вы 555976
▁qu' 555649
m 555262
向 553241
b 551811
▁sécurité 551463
▁N 550608
ло 549874
联合国 549273
▁Government 548832
▁s 548811
▁يمكن 548690
f 546868
▁！ 546864
问题 545143
ación 544927
ع 544532
▁Estado 544356
н 544083
▁State 543627
ées 543332
та 543331
ное 542627
▁more 542562
▁он 542547
▁your 542234
▁لل 540420
▁resolución 540025
▁Asamblea 538513
▁А 536797
▁He 536530
's 536357
it 536165
▁particular 536067
▁mesures 535705
▁более 535693
所 535237
▁programmes 535030
上 533066
ным 531729
▁We 530633
▁about 530603
يا 530072
▁into 529532
▁بال 529319
d 529098
▁parte 528977
▁ن 527774
ب 526701
性 525601
е 524869
▁5. 524272
▁support 524164
▁également 523617
ّ 522350
▁situation 521857
▁وقد 521376
▁связи 520334
▁made 519054
▁فيما 518753
▁so 518752
м, 518298
国际 517734
▁27 516647
▁Un 516495
▁against 516263
▁efforts 516220
▁Si 513410
▁tout 513393
▁así 512881
▁'m 512768
и 512564
▁الجمعية 512240
▁прав 511654
▁who 511451
▁того, 511390
▁resolution 511308
▁qu'il 510354
▁ف 510221
▁know 510210
▁У 510125
с 509997
p 507683
▁المتعلقة 507682
ная 507461
▁Это 507311
▁était 506813
▁Sr. 506082
▁artículo 503761
▁any 503584
ки 501761
▁nous 501645
▁吧 501565
os, 501399
▁28 501339
й 500453
▁Secretario 500223
▁الم 499932
▁What 499490
▁26 499439
", 498387
ق 498238
ation, 497992
ю 497622
ف 497343
▁countries 496518
▁всех 496388
c 496065
l 495672
▁هل 495139
▁وم 494632
▁说 494345
▁были 492645
ра 491914
▁соответствии 491662
▁أنا 489236
▁2005 488964
▁nombre 488833
） 488784
▁b 487625
▁вопросам 486641
▁под 485988
以 484875
▁كما 484150
▁activités 483952
ter 482650
▁esta 480744
▁résolution 480471
▁000 480254
▁aplicación 480007
▁those 479857
▁sesiones 479598
▁ça 479356
▁personas 479192
▁'re 478033
▁6. 477960
▁que, 477916
并 477249
▁implementation 476850
те 476748
▁Gobierno 476293
g 475682
ج 475279
▁femmes 474699
▁questions 474319
▁وأ 473363
д 473318
뗄 473099
▁V 471838
▁知道 471795
о 471654
▁what 470803
▁mais 470380
ir 470215
у 470071
▁through 469937
地 469843
▁Es 469727
к 469618
▁ا 468588
ur 468493
▁На 468444
▁public 468272
▁مجلس 467687
《 467001
ном 466416
а 465060
▁base 464594
▁29 464532
▁быть 463931
▁но 463407
at 463367
▁то 463347
▁был 462943
▁O 462358
ني 462104
re 461742
▁c) 461562
ting 459827
▁Secrétaire 459641
▁This 459544
▁programa 458836
▁2008 458329
▁так 458146
▁الإنسان 458124
ly 458015
el 457843
▁parties 457772
▁мы 457255
▁Las 456782
▁تنفيذ 456041
▁между 455248
▁Special 455200
▁2006 455118
▁– 454348
▁Assembly 453774
ى 453725
▁рамках 452853
▁between 452752
应 452508
م 452232
ts 452048
▁بعد 451338
▁لقد 450886
▁internacional 450498
د 449754
ia 447823
▁proyecto 447346
▁apoyo 447257
就 447040
ers 446744
▁well 446361
▁أيضا 446269
aron 446198
ش 446167
▁question 445241
▁2010 445240
▁her 445064
▁general 444689
▁يا 443550
及 443435
as, 443303
ُ 443100
▁المادة 442940
▁很 441591
▁mi 441551
▁projet 441241
▁那 440675
▁Programme 439482
▁J' 439325
▁servicios 439103
▁todo 438450
▁otros 438274
▁could 438138
ted 437172
▁человека 436668
S 436258
▁может 435931
▁recursos 435898
▁place 435024
▁ese 434387
E 433338
▁都 433115
▁والم 432935
▁notamment 432396
D 432332
B 432286
▁对 432137
▁خلال 432081
这些 431822
▁autres 431535
▁new 431312
▁dont 431055
▁Al 428909
▁mise 428618
ными 426476
▁regional 426473
▁تلك 426432
ra 426350
▁عمل 425818
▁À 425441
ía 425310
▁2007 424640
▁sin 424288
▁if 424245
r 424236
▁развития 424141
▁some 424085
有关 423779
通过 423595
▁these 423183
▁يتعلق 422970
▁بأن 422762
▁concernant 422721
▁要 422492
▁Ты 422065
▁إ 422023
▁cas 421913
，在 421445
▁этого 421124
▁deux 420994
▁ومن 420815
▁том, 420673
▁women 419947
▁2004 419731
ad 419610
ти 419210
▁же 418670
▁ذات 418441
▁need 418228
.1 417867
▁República 417183
▁personnes 417079
▁Human 417033
▁programas 416920
▁2009 416501
▁人 416483
▁l'homme 416469
▁Да 416220
▁أنه 416158
▁like 415710
ل 414453
▁may 414306
v 414070
▁Groupe 413830
▁целях 413798
C 413348
▁اﻷمم 413154
▁hacer 413095
▁humanos 412849
▁является 411788
▁他们 411473
▁DE 410558
政府 410461
▁Комитет 410433
▁المجلس 409987
▁Rights 409818
▁organizaciones 409033
ر 408659
▁меня 408264
ations 408251
▁sistema 408175
▁они 407402
▁2000 407373
▁7. 407361
▁qué 406992
▁Oh 406069
▁去 406050
到 405585
▁internationale 405566
ons 403951
▁По 403886
▁деятельности 403519
o. 402869
▁كانون 402062
▁générale 401485
' 401330
▁О 401328
▁part 400567
▁l'Assemblée 400556
ни 400119
▁一 399272
to 398651
ز 398591
▁did 398416
ную 397162
▁время 396405
р 396175
▁document 396047
▁aussi 395873
▁dos 395274
▁over 394888
▁otras 394874
▁2002 394593
ри 394176
▁todas 393996
▁الت 392743
/3 392214
▁cadre 392161
ط 392063
方案 391309
▁ع 391111
ation. 390707
▁membres 390298
ales 390177
T 390156
▁trabajo 389815
▁} 389343
ate 388247
执行 388205
да 387763
▁peut 387539
▁take 387266
il 387169
▁Conference 387104
▁Grupo 386343
▁2003 386108
▁想 386026
▁two 385959
se 385932
▁Что 385866
▁re 385522
时 385489
▁niños 384919
▁elle 384843
▁(a) 384587
w 384444
▁And 384420
ic 384070
▁مجال 384006
▁time 383954
▁Republic 383750
ة 383446
▁personal 383317
报告 383024
该 382425
▁مشروع 382381
组织 382353
▁number 382030
ку 381657
▁会 381138
▁К 380998
一 380964
▁هناك 380677
▁c 380399
me 380323
▁(b) 380099
▁Qué 379850
▁activities 379801
▁párrafo 379607
▁2011 378913
в 377884
▁Social 377596
▁تقرير 377454
▁году 377371
▁just 376439
▁only 376187
able 376164
▁partie 376026
ва 375594
▁asistencia 375581
工作 375551
▁toutes 374854
▁بعض 374795
▁total 374079
▁lui 373858
▁ان 373406
▁them 373257
▁Derechos 373252
▁pero 373139
会 372785
ет 372093
▁بها 371747
▁إطار 370938
▁measures 369507
还 368778
I 368731
▁برنامج 368636
ch 368539
▁резолюции 367947
▁和 367652
не 366994
▁года, 366908
已 366863
会议 366839
ait 366704
▁cent 366506
▁here 366045
可 365791
▁compte 365595
来 365073
，包括 364873
▁Internacional 364407
▁seguridad 364227
▁{ 364026
▁50 363941
? 363813
ور 363627
▁* 363488
▁Development 363284
ار 362985
▁هي 362966
而 362625
َ 362533
▁c' 362231
▁القانون 361705
▁فيها 361506
▁law 361492
▁ли 361243
ты 361199
被 361126
▁même 361040
▁A. 360986
▁الوطنية 360437
所有 360379
▁mon 360367
▁включая 360265
M 360253
▁ressources 360227
3. 360190
id 360051
▁يكون 359922
▁mujeres 359841
方面 359762
▁الفقرة 359554
▁d'autres 359507
▁than 359385
▁relación 359367
am 359303
▁him 358759
▁shall 358688
▁للم 358657
▁coopération 358585
▁этом 358468
▁había 358426
▁Он 357730
▁إذا 357706
▁8. 357668
▁J 357087
▁2001 356764
▁Parties 356423
▁كانت 356414
ре 356410
▁2012 356374
os. 356196
▁va 355993
▁children 355724
▁должны 355293
▁système 355157
▁Security 354780
▁1998 354772
P 354633
▁Vous 354153
机构 353882
▁других 353607
▁женщин 353402
ро 352862
تي 352739
ment 352710
ться 352017
▁h 351372
▁也 351124
发展 350796
▁المعلومات 350769
▁cuestiones 350430
▁ينبغي 350368
▁если 350322
▁avait 350120
▁السيد 350102
ido 349008
▁Dans 348979
▁sans 348826
2. 348657
ال 348479
▁doit 348478
as. 348377
▁cooperación 348263
▁p 347429
▁point 347357
▁обеспечения 347126
者 346631
▁هم 346414
▁miembros 346135
▁لجنة 346134
▁article 346055
▁personnel 345651
▁Group 345343
活动 345176
ul 344775
▁долл. 344756
▁Con 344746
▁تعزيز 344658
▁сессии 344455
▁ح 344361
▁matière 344261
▁1999 344119
F 344077
▁order 343871
▁paragraphe 343720
▁ماذا 343464
то 343421
▁assistance 343313
▁Rapporteur 343070
>> 343064
▁Secretary-General 343043
al, 342945
▁W 342391
▁As 342228
O 341639
▁الى 341547
▁respect 341013
)، 340755
▁الدولة 340135
▁civil 339640
▁d) 339548
▁l'article 339170
▁respecto 339117
▁Генерального 338893
▁l 338627
ro 338578
于 338327
▁Мы 338281
▁Не 337609
▁القرار 337514
ti 337506
ль 337465
▁vez 337411
▁go 337406
▁provide 336936
▁ج 336736
/2 336430
% 336394
条 336332
▁9. 336175
ми, 335563
▁том 335482
ير 335440
ـ 335157
▁examen 335118
▁situación 335014
▁g 334949
下 334495
▁ensure 334276
▁тем 334213
ante 334143
▁nivel 334049
▁этих 334012
▁draft 333970
▁police 333945
▁الأطراف 333758
▁puede 333708
ض 333645
▁esa 333618
▁وي 333601
▁% 333531
▁durante 333359
▁use 332928
ص 332751
غ 332733
▁l'Organisation 332699
▁一个 332322
▁мне 332084
▁Генеральной 331987
▁meeting 331626
▁الأ 331406
▁1995 331192
▁عدد 330525
х, 330414
j 330307
▁про 329925
▁هنا 329910
▁Совета 329800
▁afin 329752
▁That 329691
á 329328
/1 329283
▁relevant 329092
▁soit 328970
▁paragraph 328908
▁cuenta 328625
▁legal 328497
تها 328177
▁Convención 327808
▁'ll 327617
▁تقديم 327613
▁suis 327515
io 327203
/4 326987
▁años 326482
▁cuando 326390
▁important 326171
▁cours 326158
从 326005
▁Et 325997
ري 325978
▁она 325192
支持 324946
H 324841
▁people 324550
th 324526
4. 324484
▁enfants 324155
▁mis 323827
▁m 323795
ue 322882
▁fue 322870
▁institutions 322428
▁tiene 322193
▁الأمين 322081
▁note 321830
ol 321762
▁must 321429
▁Elle 321347
▁1997 321313
▁Sí 320893
▁when 320782
▁التنمية 320765
لي 320662
代表 320604
▁来 320411
▁jour 320153
▁further 319817
▁violence 319811
ما 319779
▁قبل 319213
▁Gouvernement 319210
▁فإن 319185
▁была 319093
▁ya 318854
▁gestion 318748
▁وأن 318687
▁مت 318552
▁التعاون 318278
г 317619
ou 317444
▁local 317144
вать 316984
▁provided 316314
▁Ms. 316310
▁системы 315644
▁الإ 315586
▁République 315430
▁f 315397
tes 315185
▁работы 315018
era 314603
▁做 314602
▁t 314415
▁啊 314276
ле 314190
R 314138
一个 313243
▁وضع 313200
▁conditions 313070
ди 312971
ны 312948
管理 312584
▁cooperation 312489
▁والت 312118
ма 311918
▁تشرين 311779
í 311700
需要 311674
▁осуществления 311331
la 311266
▁where 311182
ِ 311012
▁الخاص 311003
ará 310855
▁الأمن 310529
▁No. 310509
也 310441
▁Conferencia 310068
5. 309812
▁security 309789
▁المائة 309678
et 309552
由 309346
▁members 309332
▁качестве 309216
▁protección 308839
▁system 308639
un 308614
▁sector 308590
▁لت 308162
▁Office 307780
▁د 307704
10 307670
▁participation 307613
▁B. 307334
▁2013 307147
▁où 307115
G 307086
妇女 306981
▁только 306889
▁الخاصة 306761
▁عملية 306506
▁когда 306397
▁being 306204
▁40 306193
دي 305894
▁get 305882
没有 305654
▁first 305246
را 305118
▁اﻷ 304519
ine 304351
▁within 303707
，但 303130
国 302985
▁которых 302893
▁ni 302803
▁который 302742
▁s' 302683
▁Conférence 302626
▁niveau 302404
▁n 302020
خ 301847
ri 300871
▁us 300360
▁أنت 300319
大会 300034
▁Tribunal 299901
▁أخرى 299557
لا 299299
▁during 299184
▁1994 298933
▁proceso 298456
▁جدول 298061
ы 297534
ants 297489
▁National 297460
项目 297430
м. 297425
个 297131
▁financial 297103
▁لن 297067
▁Président 297044
▁vue 296809
▁organisations 296430
▁1996 296274
▁now 296219
ها. 296093
▁L' 296057
ies 295988
▁права 295855
ول 295535
▁Presidente 295422
0 295003
▁把 294825
з 294400
▁d 294025
▁تكون 293818
各 293686
▁стран 293061
3, 293057
▁our 293039
▁عدم 293005
▁están 292960
▁أكثر 292677
▁است 292660
▁помощи 292627
▁économique 292556
，以 292522
12 292399
▁после 292269
ко 292014
▁nacional 291923
子 291875
▁country 291844
▁раз 291801
▁she 291543
N 291416
▁conformidad 291148
▁могут 290795
ين، 290331
▁10. 290319
▁population 290254
ام 290212
▁paix 289780
▁nos 289767
▁New 289456
▁ليس 289406
▁период 289010
▁Вы 289000
▁debe 288880
/5 288796
L 288609
这一 288550
▁j' 288524
▁حتى 288321
至 287997
▁Me 287893
▁labor 287846
▁titre 287636
▁held 287570
lo 287208
5, 287126
▁没有 287124
▁era 286348
▁المساعدة 286205
▁control 285960
▁Lo 285777
▁politiques 285518
7. 285134
6. 284721
▁cada 284313
▁своей 284265
▁make 283805
ют 283459
▁دون 283414
▁مثل 282866
▁budget 282853
▁секретаря 282798
▁12. 282354
▁علي 282096
▁internacionales 281982
ем 281902
▁continue 281697
▁At 281685
aba 281212
um 281135
ara 281132
▁还 280889
0. 280864
▁m' 280735
▁الموارد 280671
▁sido 280655
بي 280627
▁Oficina 279930
▁ولا 279831
根据 279807
▁loi 279630
▁بم 279134
促进 278944
包括 278819
▁December 278532
法 278417
ته 278194
arse 278166
▁(S 277890
▁يجب 277777
11 277718
▁ش 277666
▁ست 277493
▁sous 277170
建议 276662
1. 276588
▁المت 276455
▁الح 276421
▁mediante 276363
▁organizations 276239
er, 276140
▁المرأة 276061
п 275914
▁Mission 275900
في 275889
ها، 275871
尔 275671
▁discrimination 275630
其他 275175
▁المعني 274994
▁car 274877
要求 274856
法律 274480
лись 274466
后 274077
са 273974
▁compris 273795
▁œuvre 273735
▁mayor 273577
保护 273527
▁тебя 273503
▁taken 273395
▁armas 272948
▁Bureau 272927
▁dit 272900
必须 272558
ской 272336
▁Especial 272107
▁persons 272076
▁следует 272058
▁الفريق 271992
▁forma 271944
▁issues 271681
▁said 271654
▁economic 271571
▁diciembre 271549
▁будут 271513
▁основе 271369
ру 270922
أ 270863
▁المعنية 270810
ке 270803
▁الدورة 270781
▁ضد 270730
ac 270324
▁desde 270018
x 269882
▁ﻻ 269786
▁Des 269545
▁capacidad 269535
▁esos 269425
▁تت 269370
/6 269363
▁еще 269182
继续 268871
8. 268853
▁تم 268409
ales, 268268
等 268171
▁Article 268082
▁11. 267958
▁يت 267848
▁(c) 267589
▁不是 267579
▁Pour 267541
▁cet 267377
▁got 267192
▁action 266463
▁v 266412
▁但 266372
▁1993 266337
前 266293
ث 266256
区域 266213
مي 265833
ente 265665
▁paz 265563
ة، 265531
大 265216
▁Programa 264984
▁following 264732
▁доклад 264664
га 264634
го 264213
▁coordination 263980
斯 263822
20 263483
▁让 263406
▁رئيس 263328
▁الذين 263217
加强 263013
▁nacionales 262986
ación, 262733
▁particulier 262547
▁给 262502
政策 262203
名 261967
同 261880
▁dispositions 261775
▁Desarrollo 261635
▁prendre 261619
يل 261441
▁developing 261424
): 261398
té 261075
▁marco 261061
▁ma 261057
▁muy 261053
▁— 260899
▁health 260753
▁possible 260585
2, 260542
▁60 260484
ale 260473
▁如果 260472
▁special 260368
▁país 260146
б 260079
▁100 260008
▁上 259995
▁الع 259968
ется 259594
ود 259541
ту 259538
▁الآن 259389
▁ذلك، 259161
aciones 259070
ement 258973
▁l'État 258620
本 258403
age 258341
▁ходе 257700
▁So 257272
ab 257142
▁Seguridad 257005
▁الفترة 256988
▁它 256513
▁present 256501
1, 255844
缔约国 255844
▁(A 255837
ne 255832
U 255753
▁materia 255669
▁before 255634
作为 255495
多 255290
▁إدارة 254982
▁resources 254885
7, 254843
30 254628
▁Ce 254622
▁eso 254537
提出 254511
ви 254488
▁número 254443
行动 254318
▁aquí 254198
内 253978
ES 253907
/7 253884
▁atención 253844
▁mettre 253798
▁dólares 253562
▁There 253453
▁inter 253348
▁They 253344
4, 252731
▁justice 252381
▁بت 252338
▁безопасности 252276
▁importante 251036
▁نحو 250723
▁ر 250567
res 250357
▁غ 250263
里 250195
▁Plan 250044
审查 249784
▁Nous 249683
▁дня 249680
▁لدي 249400
▁меры 249240
ité 249085
▁للت 248879
▁access 248860
6, 248481
лся 248453
▁II 248288
▁ex 248270
▁عليها 247925
▁года. 247723
▁All 247619
▁informes 247542
▁13. 247530
▁Ley 247423
▁التقرير 247226
▁políticas 247165
▁14. 247149
8, 247079
0, 247061
al. 246879
▁بموجب 246767
▁программы 246310
دة 246164
▁avoir 246118
15 245999
e. 245899
▁presente 245795
都 245793
▁travaux 245786
▁تحقيق 245720
▁man 245713
▁35 245652
▁accordance 245613
▁é 245585
要 245577
▁طريق 245576
▁adopted 245558
▁moins 245257
▁formation 244877
ность 244676
▁Par 244542
9. 244427
方面的 244256
до 244202
▁Z 244186
ance 244031
▁want 244011
▁décembre 243964
ins 243959
▁good 243614
▁Нет 243415
▁hecho 243367
合作 243139
▁global 242966
K 242922
▁acuerdo 242863
▁period 242538
عي 242534
▁June 242414
ción 242296
▁hay 242286
▁hasta 242026
▁données 241862
▁没 241730
que 241695
▁该 241529
▁l'ordre 241199
▁For 241146
ского 241107
▁doivent 241085
▁خ 240987
▁spécial 240872
im 240642
ному 240545
▁الس 240416
▁مكتب 240252
措施 240242
▁encore 240216
ci 240186
▁To 240004
▁(C 239955
ay 239735
▁ca 239542
▁promotion 239535
▁ante 239497
▁ال 239487
▁effective 239130
idad 239038
▁الوقت 238992
ida 238950
▁conformément 238671
وي 238583
参与 238577
出 238485
▁But 238461
▁Но 238307
▁esas 238299
عة 238266
ag 238070
▁чем 238067
▁правам 237962
V 237961
سي 237917
om 237418
ier 237401
▁toute 236941
ских 236808
开展 236771
▁Как 236494
人权 236095
情况 236017
▁Do 235916
▁C. 235894
00 235819
▁45 235817
▁sea 235681
y, 235471
ля 235418
▁البند 235179
▁World 235166
ed. 235120
▁years 235063
▁جمهورية 234937
号决议 234891
▁которая 234770
▁An 234741
▁She 234437
▁уже 234164
▁Non 234154
用 233969
▁demande 233838
▁到 233699
决定 233484
▁see 233390
ut 233370
ну 233315
▁lugar 233251
▁both 233230
▁Кроме 232900
▁числе 232796
ей 232645
▁most 232424
▁ver 232397
antes 232175
▁dollars 232107
可能 231972
▁международного 231944
▁可以 231838
▁sais 231764
▁به 231635
▁politique 231563
▁policy 231471
▁devrait 231222
实施 231189
▁без 231184
he 231147
▁autre 231014
使用 230990
▁training 230929
▁decision 230928
▁大 230817
▁الدعم 230601
使 230601
▁decisión 230529
▁sera 230320
)。 230212
▁review 230173
服务 230032
▁décision 229591
全球 229576
新 229550
▁委员会 229463
▁back 229191
▁t' 229113
ían 229090
▁بالم 228923
▁pueden 228844
▁am 228739
Y 228654
ция 228567
ﻻ 228451
▁ti 228433
ست 228416
▁حالة 228401
儿童 228384
▁الأعضاء 228382
▁这些 228238
amos 228195
▁ils 227507
▁partes 227450
▁political 227440
▁الق 227428
社会 227245
▁same 227223
▁May 227043
▁32 226992
▁mujer 226987
ma 226946
▁48 226827
▁وإ 226591
▁Law 226568
чи 226534
▁أيضاً 226226
▁нет 226202
ــ 226117
▁process 225822
的国家 225760
▁против 225611
▁أعمال 225573
▁relatives 225570
▁staff 225300
▁vie 225143
tions 225140
获得 225115
ности 225080
人员 224976
▁documents 224914
▁think 224868
án 224658
▁نظام 224643
部 224626
建立 224318
▁你们 224260
特 224100
▁millones 224064
▁agenda 224049
ду 223999
▁وب 223987
▁salud 223919
实现 223900
▁cuestión 223877
▁after 223815
▁Конвенции 223751
اد 223720
▁regard 223683
▁0 223661
ꆣ 223569
▁related 223134
▁المالية 223058
ba 223057
▁فقط 223055
▁لدى 223035
▁antes 222920
50 222738
▁management 222696
▁ق 222502
▁يُ 222461
▁эти 222349
▁своих 222338
▁avant 222166
▁participación 221852
▁affaires 221789
les 221783
▁child 221732
ce 221477
▁caso 221265
▁النظر 221186
▁three 221098
▁33 221084
▁информации 220954
▁وعلى 220902
▁'ve 220899
tar 220737
▁among 220708
▁Mais 220663
处理 220654
努力 220646
▁disposiciones 220622
▁processus 220505
▁party 220470
▁34 220390
中的 220184
▁how 220147
▁vida 220039
▁many 219875
▁نعم 219872
▁gestión 219796
▁working 219680
▁acceso 219583
▁能 219372
采取 219355
وم 219309
man 219279
可以 219227
▁решения 219033
▁service 218963
op 218915
▁Member 218808
确保 218691
во 218647
▁condiciones 218642
▁уровне 218558
▁المجتمع 218545
▁البرنامج 218542
▁way 218404
▁الطرف 218371
▁casos 218310
▁Working 218277
ian 218234
▁عمليات 218155
▁Une 218084
▁الحكومة 218057
▁حيث 217985
▁декабря 217896
任何 217856
▁право 217799
▁现在 217724
тов 217670
С 217616
▁منظمة 217501
▁таких 217399
经济 217246
▁education 217234
▁37 216962
t, 216906
▁moi 216745
▁السلام 216531
and 216317
▁Economic 216124
▁tiempo 215917
▁За 215833
▁15. 215806
▁لكن 215798
ues 215702
▁关于 215695
段 215681
▁end 215651
▁established 215560
▁informations 215558
年 215501
▁política 215494
▁Ministry 215471
▁16. 215443
▁manera 215392
▁целью 215307
▁ص 215270
▁الب 215242
▁without 215236
▁статьи 215226
▁l'application 215223
▁زيادة 215200
ec 215018
* 214966
ica 214717
▁Ch 214686
▁سي 214594
ed, 214552
за 214525
▁الحكومية 214277
▁l’ 214262
▁menos 214104
▁tres 214044
ния 213995
教育 213978
▁esfuerzos 213945
▁средств 213907
qu 213895
ياً 213876
14 213795
▁datos 213520
▁группы 213518
得到 213323
问题的 213242
ens 213112
ig 212910
解决 212690
▁grupos 212636
▁بناء 212635
ence 212281
де 211747
计划 211723
▁الأعمال 211554
▁santé 211535
▁أحد 211506
▁العالمي 211372
▁منذ 211363
▁الج 211284
▁(ال 211243
ين. 211143
том 211119
лась 211028
ст 210850
▁President 210837
提交 210671
▁النظام 210658
▁这个 210653
▁внимание 210591
▁areas 210352
之 210327
▁(E 210198
ми. 210131
▁свои 209908
▁visant 209501
ity 209349
▁rapports 209234
期间 209101
▁set 209092
▁Organización 209016
规定 208960
9, 208874
.2 208798
次 208746
▁Yeah 208704
▁مؤتمر 208266
▁sólo 208257
特别 208214
يد 208140
▁medio 208087
▁form 207995
ina 207933
▁dé 207883
▁$ 207773
му 207751
▁deben 207675
安全 207672
▁instituciones 207559
▁36 207517
mente 207254
▁esto 207086
▁شيء 207073
ются 207067
部门 207009
支助 206998
▁قرار 206894
▁junio 206444
和其他 206412
克 206339
ales. 206208
▁ch 206169
▁r 206168
▁为 206164
▁ни 205856
W 205822
▁والأ 205763
▁17. 205649
لة 205608
进一步 205571
▁mismo 205527
▁استخدام 205476
▁повестки 205370
си 205348
各国 205305
ais 205236
▁favor 204921
▁peuvent 204701
▁recomendaciones 204698
秘书处 204669
▁свою 204624
作出 204596
▁contributions 204489
过 204463
▁走 204442
▁اﻹ 204407
▁الك 204404
▁им 204364
▁reports 204308
▁можно 204171
▁55 204147
▁Д 204083
▁très 203979
يات 203874
无 203756
▁tienen 203700
▁Pero 203432
▁Humanos 203378
▁since 203302
000 203111
非 203071
相关 202989
▁gran 202745
▁technical 202681
ing, 202674
▁كذلك 202631
▁group 202562
，以及 202480
ж 202469
▁long 202286
战略 202061
▁(P 202040
▁does 202026
▁المؤرخ 202026
▁لحقوق 201767
▁الأطفال 201663
▁Она 201657
16 201649
▁قانون 201608
▁application 201561
▁2014 201451
ш 201310
ve 201188
▁July 201149
ique 201121
▁(أ) 201072
▁Te 200874
ذ 200774
▁منها 200625
▁При 200612
▁gastos 200531
▁na 200497
▁этот 200491
▁role 200439
▁necesidades 200405
▁وإذ 200389
بة 200355
▁après 200292
25 200139
▁case 199915
19 199910
▁juin 199872
▁lieu 199819
▁بأ 199795
及其 199792
▁recommendations 199661
▁тебе 199646
▁mejor 199632
▁联合国 199402
▁الر 199323
▁المنظمات 199184
▁المقرر 199093
ние 198947
· 198485
▁اﻻ 198484
▁международных 198379
▁reunión 198371
▁М 198366
▁пере 198340
▁страны 198122
i, 198079
entes 198061
ции, 197721
已经 197698
мо 197486
▁renforcer 197475
▁especial 197392
▁47 197327
▁كنت 197252
18 197226
ré 197184
ous 197168
▁normas 197145
给 197142
▁pris 197126
▁سيما 197043
▁cases 197017
▁progress 197006
▁violencia 196952
▁provisions 196865
ated 196791
▁présent 196783
▁Centre 196651
▁Bien 196475
▁II. 196379
▁s'est 196225
ئ 196191
▁呢 196168
▁necesidad 196117
зи 196109
▁Oui 196099
▁عندما 196099
能够 196082
▁تُ 196051
ен 196000
▁tant 195994
▁very 195789
ak 195670
ции 195471
▁e) 195399
اب 195314
协调 195288
▁proyectos 195195
审议 195096
40 195042
▁действий 195036
ite 194947
▁П 194931
▁跟 194919
tic 194873
▁African 194868
▁rôle 194827
▁الاقتصادية 194714
的工作 194431
ме 194295
وب 194294
▁certain 194213
13 194104
▁الن 194077
▁temps 193994
▁full 193966
▁организации 193865
▁view 193818
▁39 193792
А 193725
▁tema 193493
▁otra 193487
▁الص 193329
▁European 193274
اء 193140
▁non- 193135
▁учетом 193127
环境 193076
قة 193047
分 193012
▁session, 192962
▁If 192949
拉 192946
他 192860
▁看 192777
▁También 192775
我们 192733
ap 192678
▁соответствующих 192642
▁contrôle 192596
▁año 192588
ah 192525
▁усилия 192490
▁Совет 192385
ud 192384
▁come 192288
▁consultations 192243
▁لأ 192199
/8 192018
▁yo 192003
end 191971
▁co 191952
ist 191801
▁должен 191624
▁final 191611
▁date 191536
▁نطاق 191514
▁Наций, 191513
▁Partes 191323
▁educación 191314
▁concerne 191248
▁بالت 191187
º 191178
系统 191099
▁положения 191066
▁被 191033
▁الأول/ديسمبر 190930
▁nuclear 190772
▁période 190744
▁الخدمات 190540
▁fois 190247
▁38 190209
ations, 190087
▁Sh 190083
▁ans 189947
▁Well 189913
aux 189864
▁depuis 189830
▁сотрудничества 189748
▁أساس 189716
▁حسناً 189713
ча 189525
▁Además, 189433
▁(ب) 189423
ры 189416
▁sexual 189399
领域 189285
▁recommandations 189269
▁العالمية 189187
受 189162
▁Sin 189026
▁мира 188942
增加 188914
رت 188884
ги 188875
▁used 188792
▁لعام 188738
▁да 188658
▁2, 188523
中， 188479
▁dis 188464
▁I. 188445
主要 188384
▁Re 188276
▁1, 188143
▁consider 188088
▁الأمر 188073
▁going 188051
ver 188016
60 187840
研究 187625
▁trois 187602
▁معلومات 187456
по 187395
▁mal 187392
▁мер 187381
▁projets 187331
ات، 187309
بر 187222
▁y, 187174
▁obligations 187073
▁Ils 186994
▁التدابير 186877
▁Комиссии 186775
评估 186608
文件 186606
ary 186595
▁objectifs 186560
▁得 186450
技术 186433
▁level 186425
世界 186141
▁ici 186056
عا 185954
▁each 185895
▁ad 185893
▁soient 185799
▁attention 185781
▁случае 185726
ure 185635
▁documento 185455
ador 185223
ские 185216
iz 185215
▁Que 185209
▁Mundial 185207
▁49 185196
能 185189
成员 185185
▁Organization 185181
未 185149
▁ون 184970
▁حزيران/يونيه 184890
▁heures 184826
工作人员 184574
▁لأن 184489
▁comunidad 184422
▁data 184323
期 184314
▁18. 184308
▁وذلك 184298
▁mejorar 184267
的。 184135
ge 184064
od 183880
▁while 183830
▁42 183826
жи 183786
▁государств 183719
理事会 183699
▁دولار 183617
▁réunion 183602
▁Комитета 183561
▁forces 183532
▁怎么 183495
号 183332
▁THE 183264
▁ط 183201
-2 183077
▁проведения 183066
▁20. 183050
地区 182950
▁вопрос 182809
▁objetivos 182789
▁UN 182743
▁Junta 182740
▁veux 182712
▁الأخرى 182682
▁Если 182574
▁groupes 182550
go 182500
▁hace 182411
ки, 182394
▁March 182362
点 182182
17 182062
▁العامل 181983
▁virtud 181894
▁principales 181889
ario 181840
▁community 181799
▁item 181780
▁المحكمة 181754
▁إجراء 181709
▁importancia 181695
力 181633
▁secteur 181585
▁promover 181553
▁программ 181534
ire 181533
ба 181510
▁September 181498
▁lutte 181451
▁off 181378
▁Unidas, 181358
ans 181166
▁sé 181163
▁есть 181163
这种 181162
encia 181161
他们 181158
au 181143
▁المسائل 181142
▁domaine 181019
▁جانب 180779
▁بشكل 180678
▁اتفاقية 180637
▁52 180466
ه، 180337
▁Г 180283
▁الف 180203
▁就是 180077
▁которой 180060
▁США 180035
▁أعضاء 179879
▁là 179867
our 179857
▁детей 179731
利 179636
▁الش 179626
▁étaient 179485
ский 179466
▁وقت 179401
▁down 179389
▁problemas 179339
起 179292
ров 179073
▁عند 178927
利用 178910
▁الصلة 178878
ion 178784
ación. 178758
▁Department 178702
▁julio 178702
뫍 178574
ве 178553
▁él 178527
▁transport 178244
新的 178235
▁Para 178157
安全理事会 177954
▁Au 177794
▁لها 177753
▁особенно 177702
▁وهي 177687
▁44 177638
К 177632
▁являются 177602
▁请 177579
制定 177574
رة 177563
小组 177255
tion 177206
▁过 177103
▁19. 177074
▁órganos 177069
中心 177000
▁1990 176924
/Add.1 176905
idos 176897
▁specific 176895
عت 176884
▁organismes 176875
▁uno 176796
ي، 176737
▁violations 176649
▁algo 176552
И 176437
▁población 176340
▁nuevo 176332
▁nota 176280
▁Mme 176220
《公约》 176214
▁importance 176099
co 175996
حة 175904
▁nom 175868
资源 175850
OS 175745
▁ز 175520
▁Code 175519
▁المتحدة، 175491
减少 175466
mo 175453
▁still 175430
▁OF 175297
▁группа 175276
更 175228
О 175191
▁available 175074
▁إنشاء 175052
é, 174914
اني 174838
▁million 174771
ф 174735
▁ко 174608
▁relativas 174572
▁سوف 174531
▁وهو 174502
▁(d) 174497
▁tanto 174475
يا، 174417
▁этим 174414
▁وجود 174331
▁事 174283
一些 174173
▁six 174138
机制 174058
▁46 173952
代表团 173904
▁56 173882
▁Nacional 173825
确定 173825
▁habían 173795
ч 173793
▁21. 173774
▁tra 173637
权 173633
▁Ça 173617
▁November 173465
ческой 173454
▁Trabajo 173379
/9 173278
▁faut 173241
▁based 173220
▁-ce 173191
项 173151
▁submitted 173131
▁这样 173082
▁ahora 173065
长 173053
ة. 173025
▁Permanent 172996
▁أنشطة 172943
▁pertinentes 172872
▁second 172870
▁resultados 172641
秘书长 172626
▁después 172515
▁force 172360
ه. 172278
▁otro 172230
▁représentants 172220
人的 172160
[ 172012
▁لو 171987
▁00 171963
وف 171943
▁] 171905
▁necessary 171834
▁October 171802
▁个 171759
▁D. 171647
▁i) 171583
▁because 171563
я, 171536
▁необходимо 171467
▁بإ 171386
وق 171304
▁частности 171285
▁provisional 171259
援助 171213
▁стороны 171189
▁production 171082
▁Mar 171067
▁1992 170963
▁использования 170959
▁小 170918
▁pendant 170897
▁الرئيسية 170896
ческих 170854
va 170771
za 170771
▁должна 170598
▁دعم 170562
هما 170457
▁ley 170445
▁savoir 170398
▁ré 170394
▁المؤتمر 170384
▁Director 170344
قي 170334
▁donc 170173
▁manière 170118
em 169958
tos 169929
▁then 169890
▁200 169889
est 169810
يت 169744
▁LA 169705
▁53 169553
▁43 169549
有关的 169518
讨论 169472
ang 169395
вы 169390
ón 169191
调查 169157
сти 169147
ont 169086
▁57 168974
▁peace 168872
J 168864
▁organismos 168858
▁تدابير 168715
ty 168692
▁particularly 168661
▁خدمات 168661
▁№ 168548
▁É 168528
得 168481
▁الواردة 168444
▁met 168400
▁nationale 168362
▁ra 168244
▁Miembros 168240
化 168167
▁защиты 168115
▁شخص 168002
▁управления 167875
▁April 167844
▁fecha 167722
处 167704
IS 167695
▁d'action 167644
aban 167634
▁moyens 167570
▁الأسلحة 167533
▁这里 167391
▁sociales 167385
▁فيه 167330
参加 167292
aient 167252
▁النامية 167098
主席 167019
▁вопросу 166952
▁الرئيس 166945
▁l'exercice 166846
影响 166803
▁Ministerio 166785
▁concerning 166698
با 166673
AS 166590
ère 166566
▁الوطني 166528
▁Безопасности 166462
▁grupo 166398
ческие 166394
▁problèmes 166390
▁mar 166350
со 166186
st 166185
EN 166112
程序 165768
бо 165719
▁gender 165701
▁selon 165600
tr 165571
▁результате 165544
▁данных 165488
▁juillet 165476
▁U 165459
▁missions 165363
oc 165346
▁résultats 165283
▁concern 165215
▁basis 165098
▁членов 165015
▁تقدم 164917
▁течение 164869
▁حق 164843
ér 164814
▁tener 164813
▁toda 164776
قت 164759
▁национальных 164758
Г 164727
▁58 164661
▁проекта 164637
各种 164628
▁January 164590
من 164580
▁criminal 164577
▁другие 164548
▁وفقا 164506
de 164505
▁الجهود 164431
▁PNUD 164220
▁лет 164213
▁monde 164184
▁mission 164133
德 164045
▁opérations 163969
▁help 163900
▁بلدان 163857
▁algunos 163825
▁Division 163792
▁第 163687
行为 163674
▁imp 163635
▁framework 163604
▁Board 163552
▁ومع 163532
AR 163494
指出， 163476
и, 163475
én 163469
▁mantenimiento 163393
▁работе 163292
权利 163288
▁eu 163282
》 163223
се 163212
第 163180
t. 163072
▁tenu 163055
▁type 163047
▁пункт 163031
▁Ces 162884
ations. 162793
，以便 162764
▁initiatives 162712
▁الاتحاد 162653
▁n'a 162510
ten 162490
▁communication 162465
▁inform 162464
▁54 162463
▁dire 162425
▁noted 162262
▁بصورة 162197
▁كيف 162197
▁person 162155
aire 162141
▁22. 162048
▁consideration 161903
特派团 161844
▁65 161840
▁tal 161814
▁ресурсов 161787
▁مجموعة 161783
▁77 161536
▁address 161515
▁military 161296
▁обеспечить 161254
▁even 161250
▁chaque 161197
▁كم 161126
提高 161067
▁بالنسبة 161054
▁Ar 161001
▁medios 160724
▁mesure 160618
▁решение 160583
▁ч. 160582
▁montant 160569
▁uso 160524
▁Yes 160512
充分 160492
ana 160456
Д 160418
▁آخر 160413
非洲 160409
▁حكومة 160373
▁lors 160309
▁include 160295
▁armes 160281
方 160258
▁accord 160173
▁Ассамблеи 160159
的报告 160147
▁operaciones 160128
П 160106
▁internationales 160035
▁certains 159893
َّ 159839
▁millions 159747
▁касается 159679
▁别 159634
arios 159555
▁تموز/يوليه 159534
▁مما 159517
2) 159453
定 159406
▁votre 159403
▁образом 159375
▁النساء 159235
▁ejecución 159201
▁discriminación 159155
▁июня 159155
▁الأساسية 159148
▁Республики 159028
▁м. 159007
▁الموظفين 158956
▁Su 158885
▁relative 158853
ados, 158798
лось 158774
▁nouveau 158758
▁где 158725
共同 158725
▁groupe 158652
▁year 158646
▁considered 158616
тся 158561
▁serait 158533
▁وينبغي 158531
▁Report 158529
és. 158497
▁ins 158465
▁здесь 158458
▁للأ 158451
政治 158421
▁funcionarios 158365
▁государства 158356
▁evaluación 158256
▁从 158244
▁принять 158217
家 158210
▁life 158204
ient 158190
its 158172
▁المنظمة 158145
▁presupuesto 158123
▁لإ 158107
▁various 158020
▁septiembre 157922
ico 157850
▁needs 157837
tas 157778
▁debería 157772
3) 157750
▁الميزانية 157677
▁octubre 157672
▁meetings 157631
▁avaient 157536
▁embargo, 157502
х. 157469
▁多 157441
.3 157426
па 157421
▁23. 157419
ia. 157386
▁capacity 157321
全面 157293
▁Ex 157255
-3 157239
▁Act 157224
▁noviembre 157164
▁sí 157087
▁نا 157084
▁《 157084
aría 157077
▁société 157074
▁zonas 157074
▁première 157057
▁autoridades 157055
tor 157014
ill 156994
▁Como 156890
▁land 156889
ide 156871
工作组 156829
▁upon 156820
>>. 156805
▁dar 156785
▁How 156784
▁increase 156759
▁أم 156688
би 156627
▁واست 156553
▁انت 156552
认为 156531
▁них 156509
▁информацию 156383
▁laquelle 156332
▁المتصلة 156326
▁Service 156316
▁оста 156298
正在 156288
▁Ну 156247
▁quoi 156121
▁الي 156112
▁Court 156098
▁проект 156083
ables 156081
▁رقم 156045
▁toi 155830
1) 155784
▁face 155768
70 155693
▁main 155667
▁اتخاذ 155610
ai 155574
▁Они 155542
ard 155516
▁tipo 155413
▁настоящее 155383
▁given 155377
▁suite 155344
▁أفريقيا 155339
▁delegación 155271
▁500 155203
▁فريق 155200
费用 155189
▁وا 155170
▁просто 155139
▁groups 155134
▁posible 155053
▁notre 155045
▁General, 155006
▁нас 154880
天 154841
AN 154807
▁proposed 154797
▁maintien 154793
▁promote 154654
ь 154648
▁الأول 154610
一项 154530
▁подготовки 154471
AL 154409
▁Hey 154387
pe 154384
▁that, 154372
arán 154362
▁regionales 154299
ائ 154261
М 154249
▁الاست 154236
ER 154203
عد 154190
▁поддержки 154173
▁sustainable 154150
وت 154140
▁account 154034
▁appropriate 154032
▁estado 153996
▁dialogue 153994
▁Ка 153979
▁plusieurs 153963
法院 153936
▁51 153907
▁project 153760
作 153708
▁section 153580
▁♪ 153500
▁technique 153457
▁себя 153453
时， 153451
/15 153406
自 153403
▁البيانات 153392
▁cual 153377
▁عليه 153327
▁family 153288
urs 153277
▁التمييز 153055
▁توفير 153006
信息 152948
Р 152947
▁cre 152919
▁поддержку 152916
te, 152911
6) 152905
ios 152891
вые 152889
▁着 152855
▁59 152853
▁requested 152848
▁которое 152844
▁sociedad 152835
因 152823
ar, 152759
تر 152753
▁communauté 152717
▁مركز 152701
具有 152671
考虑 152654
يف 152544
▁conférence 152528
▁ayant 152470
▁septembre 152449
生 152449
▁prises 152444
▁Yo 152286
▁64 152207
▁progrès 152156
▁الحصول 152077
▁التعليم 152076
ke 152059
▁Т 151981
вой 151892
▁permanent 151892
жа 151810
▁ول 151809
ado, 151784
▁toujours 151704
ates 151642
▁private 151642
▁“ 151641
预算 151543
one 151539
▁участие 151520
▁cabo 151517
▁qu'ils 151507
▁принятия 151503
ши 151422
▁24. 151412
цию 151405
说明 151405
▁trata 151398
▁Action 151369
▁instruments 151319
▁partir 151278
加 151278
▁fundamental 151266
▁policies 151264
▁سأ 151256
وس 151199
Т 151143
és, 151124
▁means 151108
）。 151074
▁care 151046
▁Fund 150890
▁должно 150795
▁Fondo 150753
▁authorities 150741
▁политики 150687
▁representatives 150668
▁борьбе 150610
▁الإدارة 150606
tive 150589
▁وما 150583
idas 150530
▁根据 150478
▁déjà 150445
▁مليون 150440
框架 150436
▁пункте 150290
▁комитета 150214
，而 150213
▁world 150082
▁مست 150009
▁igualdad 149988
кой 149962
▁السياسات 149935
▁المتعلق 149935
▁devraient 149880
li 149879
che 149739
▁год 149700
▁men 149692
▁1991 149607
▁impact 149584
会员国 149516
لت 149424
be 149380
ja 149335
▁Cette 149326
▁dépenses 149264
▁>> 149241
▁поскольку 149231
▁− 149230
دا 149216
▁mandat 149095
部分 149088
▁marzo 149074
aran 149053
مل 149023
▁haber 148954
▁mundo 148927
▁62 148874
▁current 148773
▁Unión 148762
举行 148736
ses 148725
▁mondiale 148688
Н 148630
▁estos 148629
手 148608
最 148606
▁besoin 148573
▁2008, 148523
能力 148509
▁حسب 148465
▁طلب 148460
▁للجنة 148453
▁الخ 148434
▁organización 148423
▁However, 148377
▁renforcement 148364
▁العنف 148357
▁lograr 148308
，特别是 148300
▁objeto 148186
▁Н 148169
▁según 148126
▁developed 148116
▁gon 148093
▁promouvoir 148066
مت 148038
制度 148038
▁arreglo 148033
▁Unidos 147914
事 147799
培训 147793
▁received 147765
▁всем 147765
▁representantes 147746
ers, 147727
▁estaba 147727
▁plans 147643
▁autorités 147529
▁III. 147474
▁sub 147452
▁persona 147425
يس 147403
▁помощь 147357
▁الساعة 147301
▁الاتفاقية 147292
▁إعادة 147210
之间 147112
пи 147059
80 147039
▁dice 147017
▁l'examen 146983
▁façon 146963
▁доклада 146958
ня 146927
▁judicial 146857
▁فترة 146836
ally 146810
▁2005, 146773
ise 146764
كم 146695
do 146669
▁change 146619
受到 146607
▁peux 146583
▁due 146570
水 146540
▁الإنمائية 146523
-1 146495
تم 146442
，这 146378
▁principal 146316
▁Affairs 146309
ющих 146249
▁besoins 146219
amiento 146211
▁деятельность 146183
45 146151
7) 146134
اري 146132
▁mai 146129
▁وق 146079
▁تحديد 145976
▁знаю 145970
В 145962
▁此外， 145956
▁.. 145896
мы 145882
▁2006, 145875
▁Departamento 145812
▁المواد 145783
سا 145687
科 145674
局 145662
▁25. 145652
▁призна 145575
▁Б 145564
条约 145559
▁Ne 145558
协助 145499
▁63 145407
▁w 145386
/12 145358
▁Э 145343
У 145286
الي 145284
▁الأشخاص 145252
外 145185
说 145174
8) 145042
▁Sra. 145020
接受 144984
▁这是 144981
تين 144980
ments 144960
款 144856
▁Membres 144811
▁правительство 144688
▁d’ 144684
▁عقد 144644
رب 144642
目标 144623
▁через 144607
表示 144589
▁concerned 144581
▁Secretariat 144579
▁mayo 144522
▁reuniones 144513
▁D' 144506
▁أثناء 144472
▁give 144468
有效 144468
.4 144412
ً 144394
和平 144376
ie, 144331
▁organes 144327
▁financement 144224
▁bon 144221
▁всего 144218
▁durable 144165
▁torture 144120
▁частности, 144055
▁возможность 144008
此 144006
▁منطقة 143978
▁Asia 143971
▁crime 143949
▁personne 143940
▁capacitación 143938
▁comp 143881
т, 143855
▁podría 143844
▁delegation 143805
▁целей 143805
▁лиц, 143730
▁mars 143666
▁whether 143645
▁Arab 143637
公约》 143580
▁وكذلك 143574
▁القائمة 143538
▁того 143526
лы 143521
公约 143507
▁أهمية 143448
▁especialmente 143374
▁cultural 143322
▁decir 143250
▁90 143223
▁enero 143190
▁المستوى 143188
数 143109
▁capacités 143063
вали 143053
文 143000
-4 142896
▁الاقتصادي 142891
▁сотрудников 142835
▁humanitarian 142809
▁человека, 142735
▁خاصة 142728
ien 142704
涉及 142688
▁Ad 142606
▁июля 142549
▁novembre 142521
▁garantizar 142428
▁связанных 142426
▁area 142416
▁principios 142407
▁rien 142398
4) 142380
▁locales 142363
elle 142331
قا 142327
▁Для 142317
具体 142275
任务 142268
▁délégation 142224
▁المست 142218
▁نفس 142113
▁ab 142101
▁те 142080
▁res 142039
▁70 142031
▁primer 141999
▁населения 141976
▁fonds 141864
▁2009, 141844
▁pourrait 141832
RA 141810
▁تع 141801
▁برامج 141763
▁Fonds 141708
贸易 141701
вает 141672
▁establecer 141632
着 141571
▁major 141498
ста 141437
▁too 141408
▁имеет 141403
▁المناطق 141380
вая 141321
▁ceux 141321
— 141276
тов, 141263
▁лиц 141224
▁2010, 141196
▁grand 141163
▁الأنشطة 141127
▁وح 141126
员 141113
▁Is 141093
▁26. 141049
比 141026
▁41 141016
家庭 141012
▁armed 141010
▁الحق 140958
▁vers 140911
认为， 140885
▁بل 140877
▁much 140876
▁الجلسة 140848
▁يوم 140798
▁mieux 140773
▁procédure 140773
▁mondial 140727
▁own 140672
حت 140633
▁qu'elle 140630
▁voir 140618
вание 140594
▁di 140563
▁ма 140557
表 140552
▁أيلول/سبتمبر 140536
▁material 140535
▁Ministère 140462
▁Africa 140443
▁porque 140428
▁issue 140392
▁indigenous 140361
▁путем 140314
▁cualquier 140298
▁деле 140281
▁trade 140274
应当 140230
>>, 140208
▁contained 140148
基金 140145
▁f) 140086
▁articles 140055
ment, 139977
▁función 139972
▁ре 139931
▁تحسين 139908
▁الد 139896
▁2007, 139861
نت 139811
▁secrétariat 139733
a) 139726
▁say 139723
▁النووية 139674
ات. 139660
▁relating 139651
▁Ф 139641
▁nouvelles 139629
▁pro 139613
يم 139611
/10 139608
ан 139583
司法 139554
▁تن 139545
▁position 139478
▁谁 139406
▁различных 139403
▁n'est 139400
▁required 139400
ong 139371
▁abril 139313
▁один 139262
▁الإقليمية 139232
▁اﻷمين 139207
▁haya 139199
▁الثاني/نوفمبر 139173
▁octobre 139130
▁(212) 139080
ven 139056
▁financiación 138985
▁different 138944
▁Distr. 138927
▁Protocol 138914
▁cumplimiento 138904
▁région 138897
是否 138851
▁aspects 138790
发展中国家 138753
安排 138748
ción, 138743
▁York 138724
Б 138662
▁ir 138660
▁آ 138655
ques 138613
▁над 138579
区 138567
▁3, 138541
ции. 138514
▁additional 138462
▁Qu' 138352
▁vais 138347
سم 138322
▁pu 138316
▁dentro 138295
▁وك 138285
▁February 138239
▁80 138133
▁requirements 138069
▁real 138059
把 138005
▁estar 137996
▁creación 137936
▁promoción 137841
重要 137738
▁الثاني 137735
▁سن 137623
▁不会 137600
▁развития, 137597
▁efectos 137586
成 137586
iv 137568
▁aumento 137541
й, 137521
▁water 137497
01 137475
tion, 137467
▁лишь 137413
▁التابعة 137390
ческого 137339
▁再 137322
▁domaines 137317
▁lucha 137302
▁avez 137268
▁Executive 137254
▁уровня 137236
▁coordinación 137212
▁decisiones 137208
▁自己 137177
١ 137143
▁التجارة 137139
▁относительно 137074
ors 137073
▁orden 136981
它 136950
▁janvier 136922
▁打 136900
مة 136874
▁field 136718
▁séance 136660
كِ 136611
ª 136586
▁réunions 136553
▁peu 136544
经 136517
日 136489
开始 136477
标准 136454
▁تقوم 136446
▁III 136428
▁با 136418
вания 136416
ts. 136402
按照 136384
▁legislación 136342
▁p.m. 136322
▁better 136272
▁ему 136272
▁moyen 136247
▁المقدمة 136126
请 136083
▁member 136069
▁primera 136011
▁rep 135990
▁بر 135977
ase 135972
▁large 135951
进程 135930
▁والتنمية 135892
е, 135889
▁adopté 135868
ская 135851
▁"ال 135851
ков 135740
▁estas 135738
▁raison 135731
▁responsabilidad 135723
▁provision 135704
ero 135682
▁towards 135670
▁Nueva 135642
高 135591
IN 135581
ды 135557
▁2004, 135554
▁млн. 135550
▁grande 135531
行 135513
▁objetivo 135492
▁المرفق 135474
▁points 135395
▁E. 135333
▁moment 135330
if 135298
лен 135284
▁produits 135259
▁mucho 135212
▁27. 135210
ха 135154
▁مسألة 135148
▁告诉 135094
▁61 135085
▁individual 134899
▁importantes 134869
jo 134823
三 134816
▁тех 134815
▁собой 134801
▁Misión 134753
▁tan 134753
▁المحلية 134748
我 134745
▁Declaración 134743
▁nature 134728
ON 134703
▁premier 134642
▁found 134637
▁القانونية 134629
▁high 134619
公司 134551
▁استعراض 134540
见 134519
5) 134494
▁libertad 134455
▁acción 134452
▁حفظ 134452
▁су 134438
▁但是 134338
▁роль 134323
▁collaboration 134299
▁快 134256
ici 134129
▁основных 134108
ez 134061
▁commerce 134053
▁fondos 134045
▁(ج) 133925
▁需要 133923
▁prévention 133908
عم 133853
ones 133832
▁развивающихся 133830
先生 133817
▁auprès 133787
ts, 133786
▁دورتها 133743
▁Конференции 133711
▁больше 133710
▁domestic 133655
▁تحت 133597
▁Una 133486
лу 133478
▁(art. 133462
达 133459
▁nécessaires 133438
，该 133378
▁Председателя 133372
▁Parte 133353
▁الفرعية 133344
▁Union 133341
▁Informe 133315
▁комитет 133291
▁правительства 133272
▁suivi 133256
▁فقد 133176
▁avril 133166
▁création 133134
▁السكان 133112
▁Constitution 133099
▁Asuntos 133030
▁présente 132986
▁High 132942
▁représentant 132891
▁الشرطة 132883
▁ac 132841
▁يتم 132837
▁له 132828
ciones 132817
قل 132817
use 132811
вых 132791
▁actions 132789
y. 132761
▁sal 132742
▁normes 132717
iques 132713
▁centres 132697
нии 132690
▁Pas 132680
ся 132659
▁الولايات 132648
all 132637
▁والإ 132512
学 132503
▁البعثة 132479
ot 132449
日， 132448
问题。 132358
▁призывает 132350
▁August 132247
▁policía 132142
▁pos 132129
▁оценки 132127
23 132088
▁حد 132080
▁داخل 132063
су 132015
▁ro 131971
▁status 131960
▁مستوى 131900
用于 131869
▁Ma 131818
ком 131793
▁أُ 131792
▁نحن 131758
，因为 131757
▁sent 131746
▁seront 131708
间 131701
▁пункта 131695
зо 131658
▁África 131645
12月 131622
▁المع 131599
▁достижения 131595
وات 131576
▁Let 131559
▁вновь 131533
▁возможности 131527
▁осуществлению 131527
▁días 131507
IC 131506
▁потенциала 131502
▁先生 131403
▁органов 131379
لك 131276
▁prácticas 131192
条件 131164
▁Cour 131140
▁medida 131091
▁mecanismos 131029
ED 130983
▁خطة 130970
▁four 130931
▁agreed 130854
▁необходимость 130828
ер 130818
EC 130805
▁d'é 130612
▁zones 130609
▁окружающей 130583
▁расходов 130555
ности, 130541
▁procedimientos 130529
▁Esta 130483
▁применения 130449
▁مد 130430
提出的 130413
▁nada 130353
▁当 130311
▁ton 130289
▁regarding 130249
▁last 130243
ió 130232
-S 130194
на, 130158
日至 130144
▁necesario 130128
Z 130124
ًا 130105
▁不能 130074
▁своем 130059
▁víctimas 130040
▁هٰذا 129970
ber 129966
▁حالات 129964
ظ 129959
▁المكتب 129955
▁تح 129940
كا 129938
ures 129932
هد 129924
▁cuanto 129856
▁puestos 129835
▁لٰكن 129819
▁中 129727
▁28. 129726
，即 129718
▁Secretaría 129687
▁دول 129685
▁These 129592
tin 129583
/13 129538
▁k 129483
委员会的 129483
(. 129423
▁работу 129375
▁mandato 129360
▁relacionadas 129360
▁et, 129355
▁Ма 129353
▁ellos 129273
▁١ 129258
▁gubernamentales 129246
TI 129225
▁октября 129220
▁Département 129171
▁اعتماد 129118
▁إلا 129106
负责 129044
▁reported 128933
av 128907
▁; 128803
▁ta 128792
▁establecimiento 128781
▁actual 128771
▁put 128732
ados. 128696
▁adoptar 128692
▁equipo 128692
▁30. 128680
▁Why 128597
▁Women 128543
▁содействия 128535
▁Está 128512
▁осуществление 128504
▁My 128498
▁67 128490
▁consultatif 128488
▁respuesta 128458
▁又 128411
▁الثاني/يناير 128386
▁constitu 128292
▁momento 128292
▁ثم 128287
▁Rapport 128244
▁ar 128235
▁regular 128230
好 128206
▁contribution 128201
▁participants 128193
▁South 128192
ينا 128019
▁chose 128017
的国际 128015
ение 127987
▁ноября 127982
国家的 127884
▁أفضل 127848
▁fond 127827
▁مح 127770
▁ii) 127743
▁与 127685
▁средства 127658
▁might 127597
je 127523
▁рассмотрения 127521
▁monitoring 127512
选举 127462
ias 127310
amente 127250
各项 127250
意见 127246
ial 127203
联合 127202
З 127156
▁представить 127135
ром 127090
▁obligaciones 127089
投资 127076
举行的 127067
ents 127044
▁حماية 126973
▁已经 126964
ores 126961
فا 126927
ــة 126912
▁перед 126904
▁never 126893
▁With 126865
▁establishment 126863
立法 126862
▁# 126859
行政 126852
Е 126831
▁ag 126790
▁обеспечению 126761
▁1er 126731
▁representative 126712
▁demandé 126708
par 126693
▁relations 126688
量 126677
▁problema 126669
▁pratiques 126651
▁femme 126647
▁nuevas 126635
▁implement 126585
承诺 126557
▁странах 126549
▁Israel 126506
كل 126487
ند 126478
▁jamais 126459
▁d'in 126434
▁جديد 126418
▁دور 126418
ia, 126414
.5 126410
▁développement, 126357
▁lack 126308
▁Mi 126257
▁为什么 126253
▁الأمانة 126245
▁66 126230
▁докладе 126215
▁taux 126200
▁Все 126185
▁'d 126105
▁subject 126079
▁(M 126066
di 126061
24 126053
ff 126052
▁Unies, 126048
▁fuera 126024
▁nationales 126001
сь 125977
ваться 125968
▁Iraq 125946
▁techniques 125941
▁согласно 125929
▁مكافحة 125925
▁другими 125900
▁него 125835
▁reporting 125809
第一 125758
▁society 125717
▁internationaux 125698
led 125624
цией 125586
▁такие 125586
综合 125566
9) 125521
▁Come 125423
▁postes 125423
▁Minister 125398
▁وج 125295
▁الا 125289
▁новых 125246
以下 125137
▁taking 125134
че 125127
كت 125126
入 125068
▁أت 125066
总 125050
▁government 124969
▁Representative 124927
▁(G 124923
▁particular, 124905
▁tell 124887
og 124848
▁29. 124835
▁очень 124816
ías 124795
▁tribunal 124777
▁victimes 124776
ive 124774
▁result 124772
▁среди 124755
▁300 124750
▁future 124721
▁bajo 124720
适当 124709
▁carácter 124704
▁процесса 124684
тель 124681
adores 124667
▁الحالة 124650
▁chargé 124562
▁只是 124551
an, 124517
人民 124402
改革 124370
▁将 124342
ша 124331
▁الإجراءات 124322
率 124319
э 124303
▁assurer 124300
方式 124284
gan 124249
▁libre 124200
▁المشتركة 124178
▁части 124167
▁للأمم 124163
ـة 124098
▁إجراءات 124063
▁debate 124057
▁أنها 124056
▁práctica 123971
▁mundial 123915
aria 123904
ado. 123853
▁examinar 123794
▁continued 123755
▁región 123736
ا، 123729
▁Г-н 123725
▁العالم 123680
▁sigue 123656
كر 123618
的人 123533
▁حسنا 123521
▁fins 123516
▁осуществлении 123500
icos 123496
▁principes 123453
elles 123359
بت 123330
▁Bueno 123271
▁такой 123265
▁l'ONU 123250
▁создания 123249
▁البرامج 123218
严重 123210
▁2011, 123201
▁sujet 123192
ства 123190
业务 123181
▁Protocolo 123136
▁документа 123114
▁كبير 123020
▁observations 122986
▁adoption 122985
▁развитию 122922
▁administrative 122916
▁الثانية 122894
▁donner 122890
▁l'égalité 122875
▁آذار/مارس 122832
▁два 122767
▁procédures 122764
▁Protocole 122759
平等 122714
▁central 122702
erait 122689
▁gobiernos 122652
▁faveur 122644
▁وش 122641
ond 122606
ورة 122603
▁bodies 122583
▁autor 122577
许多 122573
▁victims 122506
▁Mon 122435
▁anexo 122412
ind 122410
▁papel 122405
体 122369
▁2003, 122359
▁op 122317
22 122305
▁environmental 122272
▁الط 122266
▁existing 122257
▁décisions 122251
teur 122247
سل 122175
▁الوثيقة 122172
▁risk 122113
▁تق 122061
▁l'environnement 122039
▁resoluciones 122034
чных 122006
▁الصعيد 121997
63 121995
▁falta 121958
▁actos 121869
▁сентября 121865
▁значение 121792
▁الجديدة 121763
ating 121664
٣ 121520
▁elles 121483
▁least 121462
事务 121428
iste 121420
▁والع 121416
▁真 121409
次会议 121392
ner 121376
نى 121373
▁التقارير 121326
ٍ 121293
▁sesión 121259
)؛ 121213
▁projects 121208
ers. 121199
▁وفيما 121198
▁Déclaration 121192
▁因此， 121148
▁真的 121115
▁порядке 121102
▁إليها 121074
قد 121057
▁already 121001
ux 120970
▁included 120970
▁Convention, 120961
tif 120946
▁международной 120945
▁spéciale 120906
▁وس 120905
▁кто 120890
▁听 120885
▁cargo 120862
▁ella 120849
▁representante 120842
▁Ab 120806
▁investigación 120798
马 120768
وية 120737
▁little 120734
▁числа 120678
▁annex 120670
希望 120670
▁Centro 120627
▁responsables 120627
如何 120626
资金 120555
▁الصحة 120489
-5 120487
▁(2 120474
▁approach 120442
专家 120442
isation 120433
▁especially 120402
非政府组织 120385
▁فى 120378
▁المح 120368
▁entitled 120344
▁aplicar 120301
性的 120269
▁д 120260
ть, 120258
巴 120216
▁Комиссия 120154
▁expressed 120137
▁إعداد 120120
▁something 120117
的问题 120099
ées. 119992
▁2002, 119990
它们 119983
法》 119932
▁horas 119833
▁(1 119706
▁acerca 119691
▁本 119630
"的 119542
▁legislation 119522
节 119506
▁really 119495
▁الغ 119494
ice 119472
▁المؤسسات 119449
▁حول 119443
▁找 119374
▁l'é 119366
▁Ко 119321
▁أقل 119264
▁mes 119254
ade 119246
ance, 119219
▁общего 119219
▁ap 119186
/19 119178
▁communications 119168
自由 119149
бе 119145
度 119141
▁donde 119115
开 119108
▁commun 119064
▁ألف 119006
纳入 118957
▁cause 118934
▁البشرية 118914
机 118913
▁السياسية 118895
这 118891
▁l'homme, 118889
之间的 118882
ass 118835
ug 118815
مو 118801
▁Relator 118793
，而且 118758
▁двух 118742
▁celebrada 118730
▁31. 118616
部队 118596
▁واحد 118555
وك 118520
，对 118494
▁call 118489
头 118440
▁qualité 118436
ces 118434
▁experts 118411
▁sistemas 118400
▁alors 118394
▁plazo 118388
сы 118372
▁место 118372
▁بد 118327
▁rural 118321
▁ـ 118276
强调 118271
▁productos 118218
▁day 118208
▁أيار/مايو 118136
心 118110
▁Со 118101
▁(см. 118069
▁cons 118062
راء 118056
▁Про 118046
社区 118012
/C 117973
▁أمام 117955
▁solo 117921
▁organization 117920
▁devant 117876
▁provides 117822
فت 117774
ex 117718
▁school 117718
вал 117665
▁pouvoir 117585
▁(see 117557
▁fournir 117553
ты, 117543
▁Central 117543
▁día 117498
ph 117463
▁list 117444
ión 117419
▁posibilidad 117419
▁together 117406
▁comment 117395
▁crisis 117382
▁juste 117378
说， 117358
ée, 117356
人口 117292
▁vertu 117288
不同 117199
▁الخبراء 117197
▁جديدة 117173
▁всё 117138
▁Так 117106
月 117096
▁étant 117077
办公室 117018
6月 116988
az 116937
▁(voir 116903
/16 116901
▁Forum 116900
西 116886
вается 116880
вого 116822
▁strengthen 116814
▁пре 116792
99 116738
tra 116731
▁下 116725
75 116720
▁死 116704
▁mo 116699
▁increased 116668
制 116638
，其中 116623
▁вас 116619
н, 116612
犯罪 116603
und 116590
AM 116587
▁الصندوق 116573
▁declaración 116552
vo 116528
▁إنني 116523
▁نزع 116513
▁الأهداف 116501
组 116467
▁Мне 116462
当局 116438
ée. 116407
ga 116399
原则 116373
teurs 116346
▁действия 116325
▁والمنظمات 116293
"。 116282
73 116282
طر 116221
，将 116216
mos 116207
▁32. 116205
▁天 116169
فر 116160
▁donné 116146
▁قال 116118
▁العربية 116110
▁reform 116053
▁жизни 116022
ines 116007
▁4, 115918
▁frente 115918
▁بسبب 115886
▁انا 115835
▁calidad 115807
▁Okay 115761
ющие 115736
▁لي 115714
وع 115671
red 115633
ence, 115628
тных 115601
11月 115580
▁Car 115564
90 115549
▁bas 115540
▁every 115503
▁不要 115495
▁ين 115483
▁aún 115467
▁formas 115465
▁several 115431
▁mean 115428
▁доступ 115385
▁another 115382
▁اليوم 115376
▁счет 115334
▁ка 115311
سب 115300
ep 115283
ille 115275
▁Convention. 115208
信 115149
iendo 115096
▁addressed 115081
▁divers 115053
tis 114941
كي 114884
法庭 114877
▁Regional 114871
ний 114839
ском 114822
成为 114748
▁Ya 114745
▁grandes 114728
针对 114726
▁graves 114542
▁pre 114520
٢ 114501
▁которого 114474
▁خاص 114454
وى 114445
٠ 114389
▁quand 114347
▁إزاء 114340
▁deuxième 114331
▁problème 114317
arias 114316
▁Sur 114309
ters 114246
▁Declaration 114212
▁ejemplo, 114203
歧视 114154
▁тем, 114103
▁мере 114076
▁nouveaux 114060
▁mécanismes 114038
▁работа 114018
▁Р 113993
基本 113959
▁Com 113957
▁prestar 113910
▁seguir 113902
▁(e) 113834
▁因为 113793
▁iniciativas 113783
▁Acción 113762
▁food 113732
制订 113732
▁rules 113715
▁Co 113709
▁организаций 113648
▁котором 113647
▁took 113633
▁نيسان/أبريل 113623
▁cambio 113605
ровать 113491
▁countries, 113491
公共 113459
▁可 113453
以色列 113371
ord 113295
▁(F 113287
▁Original: 113238
же 113219
▁centros 113214
面 113207
te. 113201
ْ 113200
▁الاجتماعية 113130
▁б 113129
ura 113123
▁develop 113039
▁agosto 113030
监测 112970
▁33. 112941
▁responsabilité 112913
数据 112891
▁нам 112871
ú 112794
▁look 112776
车 112776
▁Carta 112740
▁марта 112726
▁instrumentos 112719
▁d'information 112714
are 112694
▁principles 112655
▁المستدامة 112654
é. 112651
els 112646
▁торговли 112640
▁процентов 112636
▁Ассамблея 112604
▁里 112589
共和国 112565
▁improve 112562
” 112551
▁па 112481
▁called 112467
． 112455
▁estoy 112446
▁febrero 112444
٨ 112440
▁documentos 112421
改善 112413
▁comprehensive 112404
▁68 112396
▁meet 112382
▁(UN 112370
▁الحكومات 112349
▁puesto 112332
▁Во 112296
▁2012, 112290
▁سبيل 112271
▁exp 112264
فة 112257
▁utilización 112172
▁изменения 112171
/Add.2 112160
رف 112158
٥ 112151
▁Vamos 112145
▁best 112103
▁systèmes 112056
icas 111998
▁presentación 111985
ؤ 111940
Ф 111893
▁desarrollo, 111879
▁certaines 111861
▁justicia 111848
▁verdad 111845
▁Criminal 111824
ari 111797
▁Пункт 111768
▁algunas 111710
ñ 111688
物 111635
▁providing 111623
ности. 111618
▁القضاء 111609
"، 111606
▁l'A 111511
联 111506
ения 111467
tu 111446
26 111437
▁своего 111424
▁fais 111412
тор 111359
▁المشاركة 111358
在其 111355
▁а) 111312
ارة 111292
▁quelque 111271
▁Este 111269
责任 111255
▁adopción 111231
▁منع 111226
емые 111206
ID 111199
▁liste 111195
اف 111182
▁relatifs 111176
▁par. 111167
小 111124
▁أكبر 111103
راً 111070
٩ 111059
▁为了 111053
сто 111010
▁оказания 110993
▁relativa 110991
▁2000, 110976
tés 110973
)； 110909
▁المساواة 110890
▁لمكافحة 110875
/18 110864
▁présenté 110862
▁اللازمة 110847
uc 110816
▁статье 110783
▁key 110730
▁funciones 110726
▁pres 110670
▁mois 110614
▁Comme 110592
▁(B 110570
▁request 110561
工作的 110557
目前 110530
欢迎 110499
هن 110487
▁vas 110487
27 110480
▁ve 110471
▁وتعزيز 110462
位 110460
▁prevención 110457
▁تر 110451
生产 110367
▁المنطقة 110366
▁nucleares 110327
▁34. 110308
▁تقييم 110306
▁février 110267
重 110261
▁fully 110253
tives 110229
▁太 110200
ц 110198
▁дела 110166
▁humanos, 110123
▁fueron 110117
▁像 110115
200 110110
та, 110109
发 110106
存在 110097
▁crimes 110063
限制 110061
鼓励 110052
▁نقص 110031
▁заседании 110026
▁resolutions 109993
▁谢谢 109975
▁Однако 109962
Э 109961
ell 109925
▁يلي: 109920
29 109912
▁ayudar 109908
消除 109891
▁valor 109853
▁Eso 109848
按 109837
▁fact 109816
21 109796
٤ 109765
▁let 109725
▁Be 109715
▁Código 109682
ка, 109639
▁haut 109606
▁siendo 109601
▁Penal 109599
▁ве 109599
活动的 109550
▁Secrétariat 109546
▁可能 109384
履行 109351
▁экспертов 109346
▁small 109320
▁叫 109320
▁التقدم 109300
ach 109277
si 109255
▁again 109240
cer 109211
▁ولم 109205
意 109193
完成 109139
▁muchos 109135
▁контексте 109133
▁poverty 109116
▁existe 109077
▁197 109052
国内 109034
▁могу 109015
▁Pourquoi 109003
▁2015 108984
▁دولة 108980
公民 108958
▁35. 108948
▁formación 108907
▁الو 108878
▁court 108853
▁l'Union 108845
▁five 108844
▁Geneva 108834
▁famille 108762
▁empleo 108731
▁será 108720
٧ 108712
▁and, 108673
ign 108652
▁violation 108648
▁مرة 108633
▁Protection 108612
▁أحكام 108612
▁expertos 108605
禁止 108577
28 108524
▁recherche 108518
▁这么 108485
ual 108476
▁соответствующие 108463
▁التنفيذ 108443
资料 108411
▁pueblos 108367
军 108366
▁три 108347
▁nouvelle 108333
▁puedo 108333
▁البلد 108330
论坛 108276
▁para. 108273
▁contact 108242
▁تس 108213
كو 108208
▁poder 108204
TA 108191
35 108184
▁Unidas. 108155
▁проблемы 108155
积极 108153
чного 108152
▁incluidos 108145
▁agencies 108119
注意到 108119
尼 108113
▁(3 108099
▁января 108084
▁règlement 108045
гу 108015
▁де 108013
▁واحدة 107997
▁число 107978
保障 107976
▁sh 107963
▁ور 107951
▁Nº 107950
▁statement 107893
▁mayoría 107883
▁مختلف 107842
▁لماذا 107841
mes 107834
ements 107821
▁اﻹنسان 107726
▁asegurar 107676
▁حين 107630
▁المد 107617
ish 107564
ней 107556
10月 107549
谈判 107530
▁siguientes 107473
so 107434
ca 107398
▁участия 107391
▁المتحدة. 107391
▁الأولى 107372
▁(D 107366
▁السلاح 107294
▁siempre 107286
▁maintenant 107270
ским 107234
бы 107222
▁nécessité 107202
评价 107169
▁nuevos 107137
▁mort 107136
▁мая 107121
▁القدرات 107117
▁colaboración 107108
▁2001, 107090
ꆢ 107077
▁air 107065
▁aider 107056
▁charge 107055
▁الاجتماع 107042
冲突 107030
▁fuerzas 107018
▁5, 107013
▁ات 107008
案件 106990
لاً 106981
9月 106926
▁establecido 106922
▁выполнения 106894
نة 106888
ـــ 106867
▁بي 106862
▁home 106825
▁Am 106821
▁preocupación 106802
▁relacionados 106802
▁то, 106796
非法 106793
▁course 106775
عية 106757
▁sources 106739
▁المشروع 106704
▁hacia 106684
ere 106669
▁даже 106653
чные 106628
▁One 106609
▁Public 106606
ِّ 106596
▁Section 106591
▁serious 106577
▁ро 106558
▁возможностей 106506
▁вопросы 106503
▁técnica 106458
▁мо 106437
提供的 106393
▁gouvernement 106383
提供了 106375
▁outre, 106338
▁للإ 106338
，为 106336
成果 106331
▁Information 106315
▁Other 106306
第二 106294
收入 106279
▁IV. 106260
▁этому 106222
▁我要 106176
▁administración 106156
▁развитие 106153
▁женщин, 106146
هم. 106132
ile 106092
▁find 106091
▁reducción 106086
应对 106082
▁интересах 106070
关系 106064
▁relatif 106054
▁response 106014
min 106013
▁решений 105988
▁الأول/أكتوبر 105915
▁пла 105888
▁имеют 105859
草案 105824
▁اتفاق 105809
▁prise 105794
▁Entre 105791
▁стран, 105776
▁lista 105757
场 105754
▁non-governmental 105726
▁Группа 105721
ي. 105711
▁النحو 105679
组织的 105655
▁الحقوق 105642
▁السنتين 105637
MA 105583
▁condition 105556
缔约方 105546
状况 105519
▁Room 105492
▁касающихся 105484
核 105452
يين 105427
▁فعل 105420
▁violaciones 105409
▁terms 105407
▁bar 105391
ées, 105387
由于 105370
/25 105309
▁контроля 105305
采用 105290
推动 105279
▁grave 105249
▁assessment 105234
int 105227
▁permanente 105217
▁最 105163
▁والتي 105161
ités 105154
▁Where 105153
▁doing 105152
▁تد 105145
AC 105141
▁用 105129
▁débat 105121
▁l'égard 105078
▁prison 105062
▁procedures 105061
▁freedom 105057
遵守 105057
▁منظومة 105052
▁China 105044
▁المعقودة 105014
▁مواصلة 105014
▁secretariat 104994
5月 104992
퓚 104976
▁بغية 104943
▁tengo 104937
ческим 104919
uer 104909
▁أريد 104909
▁العامة، 104887
▁responsibility 104882
▁ربما 104876
▁عشر 104873
▁déclaration 104819
▁viol 104788
▁لدينا 104761
ator 104755
٦ 104755
RE 104746
▁common 104719
▁одной 104658
▁Th 104617
▁consultas 104613
协定 104611
▁demand 104601
▁كبيرة 104595
▁مكان 104564
▁Dis 104548
▁po 104510
mer 104496
▁Ac 104469
▁цели 104437
▁36. 104412
ing. 104392
33 104378
▁تنظيم 104367
▁доступа 104358
▁Governments 104319
▁哦 104317
▁بحقوق 104316
▁cumplir 104268
▁UNICEF 104259
AD 104241
四 104240
ie. 104208
▁العملية 104187
▁الديمقراطية 104159
▁sesiones, 104142
шь 104115
▁75 104086
▁г 104077
., 104051
▁Civil 103974
▁cuatro 103935
▁Representante 103926
▁рекомендации 103925
вают 103914
▁还有 103889
▁législation 103881
▁апреля 103875
▁اﻷمن 103873
▁أشكال 103860
▁levels 103855
▁ста 103811
▁économiques 103807
▁rule 103800
▁technologies 103766
▁cinco 103754
同意 103672
▁around 103660
up 103611
▁ми 103582
▁بعثة 103571
▁السلطات 103566
ство 103555
▁البلاغ 103549
▁discussion 103536
▁علينا 103535
▁ولكن 103491
分析 103489
▁услуг 103486
▁Russian 103472
ارات 103449
公 103396
شر 103388
▁sol 103366
▁出 103360
独立 103339
▁varios 103299
è 103262
▁free 103254
▁الطفل 103243
▁traitement 103235
▁estás 103195
▁نتائج 103192
▁segundo 103175
扩大 103131
▁territoire 103121
▁States, 103118
▁بن 103107
▁координации 103099
▁等 103097
▁بالأ 103095
▁Tout 103092
▁seulement 103088
▁nationaux 103066
产生 103058
▁recent 103021
金 102987
▁además 102949
▁Gracias 102942
▁рассмотрение 102915
案 102879
▁texte 102811
▁обеспечение 102756
的情况 102737
▁укрепления 102694
▁Доклад 102652
▁GENERAL 102623
▁l'appui 102616
▁Convenio 102603
▁ممثل 102602
ran 102588
▁شباط/فبراير 102557
ada, 102545
ّة 102545
mar 102536
чной 102529
▁mandate 102528
▁sino 102514
▁эта 102507
格 102465
ves 102455
ly, 102448
▁Эти 102426
كون 102417
▁liberté 102416
▁acuerdos 102380
▁délégations 102362
发生 102352
▁business 102349
▁casa 102348
▁observaciones 102339
▁الرامية 102323
▁age 102302
▁tú 102270
▁X 102234
▁u 102185
▁responsible 102171
▁37. 102162
▁tras 102162
Х 102143
▁clear 102140
▁war 102134
جل 102119
▁behalf 102119
▁التدريب 102115
▁poner 102106
▁establish 102100
▁commitment 102095
جر 102084
▁nueva 102073
文化 102062
/23 102061
▁seguimiento 102037
两 102021
▁next 102008
OM 101999
▁Así 101992
办事处 101986
▁оружия 101985
应该 101952
的所有 101930
▁third 101885
▁1998, 101851
海 101845
Л 101824
▁résolutions 101772
▁Л 101749
司 101740
▁пока 101735
▁context 101725
▁therefore 101723
▁mechanisms 101715
发言 101713
▁الصغيرة 101694
▁prevent 101582
时间 101573
▁وجه 101566
打击 101520
▁После 101518
tiva 101508
▁нужно 101495
▁done 101467
▁времени 101461
ваются 101430
▁صاحب 101426
▁hombre 101418
▁تست 101418
▁تقارير 101373
▁ضمان 101369
设立 101367
▁correspond 101365
tique 101335
▁provisoire 101318
▁Total 101282
批准 101280
)、 101274
▁силу 101260
▁Go 101220
▁سنة 101180
▁vol 101164
▁permettre 101158
br 101146
aires 101124
▁niño 101124
▁structure 101104
军事 101099
▁Artículo 101096
хо 101066
方法 101049
▁٢ 101044
▁beaucoup 101023
▁喜欢 101008
ческое 100978
▁Advisory 100976
ain 100959
ira 100956
▁gouvernements 100940
▁d'experts 100923
▁esferas 100920
ances 100915
.1. 100891
▁sociale 100871
▁DES 100848
▁éléments 100837
▁اجتماع 100829
▁борьбы 100826
事项 100804
的法律 100777
▁(O 100767
(). 100744
▁comercio 100712
规定的 100696
art 100648
/14 100644
▁дискриминации 100626
▁visit 100602
▁territorio 100597
可持续发展 100562
落实 100561
▁Examen 100543
▁l'aide 100538
▁why 100526
▁fonctionnaires 100518
▁soutien 100486
▁المشاريع 100437
▁продолжать 100419
▁générale, 100414
▁там 100372
▁所以 100371
▁rec 100364
▁٣ 100345
▁significant 100322
▁min 100306
مر 100298
▁устойчивого 100275
▁القيام 100266
▁tenue 100243
▁género 100237
las 100219
▁عبر 100218
يك 100203
▁conven 100178
▁للفترة 100170
▁sp 100166
يا. 100137
▁IV 100136
▁ле 100130
国际社会 100111
▁Comment 100062
ё 100039
▁propuesta 100016
▁Palestinian 100014
▁reducir 99953
(، 99929
حا 99911
份 99910
▁nécessaire 99909
▁official 99894
工 99890
/20 99834
▁много 99818
ны, 99814
明确 99807
É 99789
ical 99781
▁40. 99752
▁combat 99733
生活 99721
呼吁 99711
▁الجريمة 99705
▁social, 99701
щие 99675
▁Global 99646
قر 99642
▁represent 99633
is, 99612
يرة 99607
民主 99606
ya 99598
办法 99560
▁38. 99543
▁indiqué 99532
▁那个 99502
▁Sierra 99482
رك 99474
▁جنوب 99467
▁Председатель 99464
▁ضرورة 99460
AT 99451
▁décidé 99427
▁session. 99423
الة 99419
机构的 99409
决议 99399
▁pobreza 99343
▁d'être 99330
▁committed 99316
ov 99289
▁années 99281
▁образования 99255
CI 99228
▁largo 99227
▁detention 99178
▁procedimiento 99160
▁آب/أغسطس 99157
▁dated 99150
▁aumentar 99139
▁réalisation 99136
▁يقدم 99130
▁nucléaires 99128
телей 99097
▁meeting, 99034
▁sein 98970
▁الإنمائي 98946
▁لفترة 98938
▁大会 98933
▁ней 98926
▁público 98924
▁اﻻست 98918
▁renseignements 98917
仍然 98900
▁principe 98889
▁(en 98866
▁От 98854
▁Bosnia 98849
纳 98830
on, 98811
▁capital 98768
▁сделать 98765
▁hommes 98763
▁м 98711
▁(véase 98710
idades 98708
▁ряд 98696
ца 98692
▁vu 98690
▁الل 98672
▁col 98667
▁сотрудничество 98666
▁decided 98653
▁198 98625
ant, 98611
▁الثالثة 98600
▁pays, 98594
▁يبدو 98589
▁especiales 98573
-0 98542
健康 98537
ry 98522
▁Note 98516
▁contribuciones 98510
▁Pro 98503
下列 98481
▁قائمة 98468
/L.4 98458
.10 98455
▁principio 98455
▁территории 98410
емых 98400
基 98394
er. 98391
上述 98379
▁vo 98374
▁conflict 98353
▁Congo 98351
صر 98303
▁разработки 98283
▁(T 98263
保证 98247
▁جهود 98245
▁бо 98229
▁misma 98225
▁esfera 98173
控制 98156
▁facilitar 98149
考虑到 98137
安 98098
▁sean 98091
▁zone 98090
▁вам 98055
▁decisions 98017
-s 98011
ton 97994
тельных 97930
▁yet 97921
▁Are 97886
▁Организация 97875
伊拉克 97838
▁повышения 97825
▁region 97803
▁poco 97761
▁pública 97738
▁السيدة 97697
▁UNCTAD 97696
某些 97663
▁لهذه 97652
ative 97628
3月 97613
ешь 97612
▁alto 97610
▁foreign 97596
▁l'ensemble 97566
▁хочу 97532
iser 97513
▁400 97496
▁tels 97481
▁conclusions 97477
▁juridique 97468
▁представителей 97443
بل 97437
▁natural 97432
ow 97406
▁living 97366
▁great 97361
▁août 97353
▁AND 97324
▁transfer 97320
▁tecnología 97315
▁incluso 97306
▁Наций. 97286
▁l'objet 97285
▁Point 97282
▁voy 97276
ше 97244
▁leyes 97233
▁Hay 97214
▁персонала 97145
▁strengthening 97117
道 97113
五 97088
▁notes 97065
▁финансовых 97063
▁pay 97027
▁sostenible 96984
▁interés 96961
ﻻت 96953
关注 96937
▁категории 96895
▁informed 96893
卡 96889
▁应该 96866
▁менее 96857
▁ayuda 96841
رض 96816
全国 96813
，这些 96790
▁э 96733
X 96708
enti 96683
▁operations 96673
▁القطاع 96673
▁защите 96672
个人 96664
改进 96656
▁хотел 96604
▁39. 96597
▁До 96541
als 96533
▁الز 96508
▁améliorer 96493
▁idea 96481
帮助 96468
▁поддержанию 96459
承认 96446
▁fines 96440
▁одного 96426
暴力 96412
▁تص 96375
нее 96368
ческий 96364
▁sessions 96356
▁أين 96355
▁Annex 96341
فل 96309
▁amount 96299
万 96274
▁1999, 96249
▁i 96217
▁Генеральная 96204
▁cor 96182
▁Permanente 96174
▁وع 96115
▁وغير 96113
▁familia 96112
▁line 96103
▁[A 96092
ками 96051
▁standards 96046
▁المن 96027
▁بيانات 96025
CE 95990
女 95978
iones 95966
▁having 95964
监督 95947
防止 95919
普遍 95915
q 95896
▁g) 95879
ok 95854
وز 95849
▁While 95848
员额 95847
4月 95842
▁vis 95780
两个 95727
▁Justice 95700
▁совещания 95690
▁Х 95681
▁figura 95663
▁statut 95637
▁реализации 95628
▁contexto 95626
▁trop 95616
лю 95613
▁quatre 95592
▁عدة 95588
tant 95554
一种 95549
▁costs 95527
▁pa 95505
▁сессия 95465
类 95463
com 95450
▁planes 95437
明 95430
▁com 95407
▁artículos 95385
лов 95380
ذا 95365
合同 95362
ás 95345
▁Tra 95345
▁يجري 95336
ках 95315
，并且 95315
ib 95303
▁而 95275
▁mí 95274
▁觉得 95251
▁أعرف 95244
▁l'utilisation 95230
▁положений 95230
бу 95221
▁l'éducation 95212
了解 95183
▁empresas 95176
... 95151
▁parents 95149
▁Côte 95148
▁имени 95127
▁San 95085
يب 95063
▁aspectos 95057
▁hizo 95022
义务 95008
енных 95004
▁V. 94976
▁européenne 94970
无法 94968
▁自 94957
▁إنه 94934
▁Res 94857
▁تشمل 94857
▁situations 94843
ге 94835
ible 94822
▁地 94815
ings 94805
▁ليست 94805
ches 94795
ity, 94793
▁цен 94785
ros 94755
▁Группы 94742
▁خط 94739
▁разработке 94735
▁centre 94719
▁المبادئ 94702
造成 94699
▁дел 94681
▁الإنسان، 94677
卫生 94676
▁j 94632
▁الجنائية 94630
ОВ 94622
▁Federal 94602
▁годы 94580
▁0, 94575
▁sens 94574
▁国际 94561
▁UNDP 94519
▁الفقر 94508
▁٤ 94448
▁problem 94427
做法 94423
级 94419
▁لكي 94417
▁потребностей 94392
▁reste 94371
伙伴关系 94370
▁насилия 94351
UN 94343
л, 94328
▁fund 94312
▁propos 94307
▁carried 94271
▁l'élaboration 94257
▁نهاية 94254
▁addition, 94213
▁شكل 94178
▁pré 94166
чный 94114
▁practices 94113
▁ويمكن 94107
▁conf 94089
▁estrategia 94067
▁formes 94061
نية 94045
▁القضايا 94037
▁создание 94022
▁réfugiés 93998
вших 93965
▁tenir 93963
▁debido 93960
▁former 93938
▁salle 93914
gu 93913
val 93905
▁celles 93880
让 93858
请求 93843
适用 93775
▁операций 93767
нов 93763
▁لتعزيز 93749
不能 93743
هم، 93714
▁الشؤون 93711
▁所有 93711
ions 93700
▁представитель 93684
▁results 93664
▁Sal 93643
美国 93638
▁ingresos 93610
▁secretaría 93602
▁América 93596
▁Règlement 93567
▁1997, 93560
عل 93551
▁office 93532
▁puedan 93505
▁таким 93490
▁nuestro 93479
▁وزارة 93477
▁Международного 93469
▁countries. 93459
▁light 93458
现有 93457
对于 93456
i. 93431
▁Commissioner 93409
▁41. 93408
▁análisis 93404
يه 93385
ieron 93383
▁Environment 93361
▁تتعلق 93360
ностью 93355
▁المدنية 93353
▁Now 93351
就业 93336
▁خﻻل 93325
▁وست 93323
ants, 93321
▁(199 93290
▁إذ 93286
▁terme 93284
/L.3 93279
▁Económico 93261
▁aurait 93249
▁peuples 93249
▁касающиеся 93204
▁وكان 93164
вым 93155
▁Cómo 93155
▁صندوق 93155
指导 93146
▁young 93115
▁и, 93110
-200 93102
щи 93096
企业 93084
▁Esto 93069
▁réduction 93066
▁adequate 93037
▁Hola 93025
▁حال 93006
▁Europe 92994
▁consultation 92968
重大 92956
▁(N 92939
ла, 92933
▁региональных 92921
▁المدني 92920
ha 92918
▁通过 92903
▁2005. 92891
之前 92881
و، 92876
▁misiones 92865
ob 92847
TION 92834
直接 92828
per 92776
▁некоторых 92755
طة 92743
▁love 92738
▁وص 92698
去 92632
▁matter 92626
▁` 92620
实际 92567
持续 92558
▁(R 92557
le, 92542
▁أمر 92532
ния, 92517
ose 92510
▁zona 92503
▁edad 92498
财政 92478
重新 92465
▁démocratique 92463
结果 92410
▁treatment 92389
▁ядерного 92360
▁Inter 92354
▁مشاريع 92349
ano 92342
▁technology 92335
▁font 92290
▁conflictos 92243
▁racial 92242
▁effet 92237
地方 92234
ye 92232
长期 92181
▁niveaux 92175
▁hombres 92166
RI 92156
▁joint 92152
▁adoptadas 92142
▁ликвидации 92123
▁свое 92117
▁информация 92114
▁death 92108
▁universal 92104
对话 92076
он 92072
▁Специальный 92039
▁delegaciones 92037
指出 92032
▁cómo 92019
▁يمكنني 91977
▁fonction 91923
理 91901
2010年 91884
▁размере 91884
▁Alto 91882
▁désarmement 91879
▁actes 91876
▁emp 91870
符合 91806
▁compar 91780
▁بالإ 91773
▁المشترك 91716
ys 91708
▁42. 91692
жу 91666
▁эту 91657
▁данные 91647
ik 91644
▁involved 91626
7月 91622
tivas 91614
▁generales 91613
ip 91585
▁urban 91577
▁When 91572
会议的 91555
▁خارج 91552
运 91506
▁东西 91505
▁Ре 91495
▁وغيرها 91487
▁l'accès 91483
▁يقوم 91482
▁diálogo 91479
▁climate 91476
▁annual 91465
ages 91428
▁ض 91406
tivo 91384
adas, 91362
难民 91344
▁actuellement 91335
صل 91321
▁تش 91310
▁وﻻ 91309
сть 91276
▁États-Unis 91269
▁weapons 91260
▁оно 91217
取得 91197
▁Web 91180
▁сфере 91167
▁التنفيذي 91154
da 91133
▁дело 91109
▁إلي 91097
▁delitos 91062
倡议 91044
▁proteger 91010
▁процедуры 91007
ito 91002
▁لكل 91002
▁transition 91001
и. 90977
▁ind 90967
▁2010. 90956
ita 90940
/L.1 90931
▁económico 90912
ек 90911
▁我会 90823
▁bo 90807
▁Ва 90788
▁تكاليف 90768
с. 90767
▁заседаний 90752
▁والاجتماعية 90738
▁إمكانية 90720
/17 90713
▁ضمن 90702
▁工作 90692
▁plenamente 90675
io, 90661
网络 90628
tre 90557
▁êtes 90509
▁لتنفيذ 90479
44 90476
▁environment 90462
市场 90432
жен 90421
警察 90420
▁claim 90412
65 90404
▁الجدول 90403
▁плане 90390
▁سا 90368
▁teniendo 90362
خر 90352
▁٥ 90351
▁systems 90349
▁considera 90329
حي 90312
فع 90312
▁trafficking 90302
▁outre 90262
▁open 90238
▁nuestra 90209
вер 90198
占 90162
▁للدول 90144
▁culture 90138
▁rendre 90137
▁Merci 90129
当地 90124
▁pays. 90095
ارية 90091
▁problems 90082
实体 90079
▁Health 90058
决议草案 90056
▁такого 90055
ks 90040
▁desarrollo. 90031
ble 90026
▁ответ 90016
▁تطبيق 90014
▁Foreign 90012
▁quiero 90010
▁رسالة 90010
▁fonctions 89999
进行了 89954
вое 89940
▁progresos 89928
▁Trade 89926
▁développement. 89885
▁sign 89832
财务 89823
▁следующие 89809
مين 89804
▁l'information 89804
▁design 89798
▁си 89797
▁Республика 89773
− 89765
ement, 89753
▁نسبة 89731
▁comunicación 89700
▁focus 89669
▁43. 89666
emos 89663
▁проектов 89643
▁arrangements 89633
▁pueda 89623
ке, 89619
▁процессе 89619
▁research 89603
范围 89601
性别 89598
▁سياق 89591
▁sc 89590
▁gouvernementales 89589
亚 89573
▁сейчас 89557
▁كلا 89557
▁الرسمية 89547
临时 89539
▁爱 89515
▁Force 89487
▁سنوات 89471
▁table 89456
▁الخامسة 89449
ent, 89433
▁l'in 89433
▁(انظر 89427
` 89426
▁solution 89425
▁propuestas 89394
▁Ми 89389
ras 89388
▁continuer 89387
，我们 89379
▁يست 89356
▁1995, 89353
▁performance 89345
▁гражданского 89331
▁termin 89320
▁issued 89300
▁تمويل 89287
حد 89261
很 89257
▁stratégie 89251
方案的 89238
▁Хорошо 89206
▁2008. 89203
▁recours 89203
▁avons 89196
مان 89188
国的 89181
▁更 89167
af 89155
▁aprobación 89123
▁вопросов 89115
▁l'ex 89110
ati 89090
▁cinq 89079
▁Institute 89075
▁red 89072
注意 89067
▁presentar 89052
▁above 89044
▁encourage 89044
享有 89025
教 89005
▁refugiados 88998
▁trans 88996
men 88995
TE 88975
▁telles 88975
情 88968
ren 88962
▁site 88931
▁media 88907
▁сотрудничестве 88897
士 88868
▁resultado 88866
▁civile 88833
▁свой 88815
▁bureau 88803
▁until 88799
进 88799
▁стратегии 88796
▁2009. 88780
▁тот 88773
بات 88770
▁medical 88757
▁коренных 88730
2005年 88724
布 88723
▁règles 88717
▁представления 88710
▁texto 88705
OR 88704
▁estudio 88689
▁thing 88669
▁Рабочей 88662
▁ello 88652
▁الشعوب 88652
▁particip 88627
▁Qu 88625
ino 88566
加入 88556
▁anti 88549
的一个 88521
▁cela 88513
▁través 88496
▁nombreux 88487
危机 88482
▁previous 88460
▁prepared 88448
▁pueblo 88433
/Rev.1 88430
合 88401
en, 88372
▁aide 88371
▁able 88364
▁approved 88363
转 88342
▁mer 88329
▁Man 88262
联合国系统 88247
▁хорошо 88239
▁الحد 88232
▁directrices 88229
▁6, 88225
▁واﻷ 88205
▁حل 88161
旨在 88159
▁dicho 88139
ООН 88113
人道主义 88106
▁44. 88098
зы 88075
▁operational 88070
▁elaboración 88068
▁рас 88064
▁الاحتياجات 88061
▁69 88049
罗 88044
▁incluidas 88022
قات 88015
▁instrument 88008
▁cu 87992
▁Cuba 87978
▁gener 87974
正 87914
▁cuales 87906
▁l'élimination 87906
▁трех 87893
宣传 87870
▁45. 87859
编制 87855
▁incluida 87845
RC 87844
▁referencia 87843
▁l'a 87830
▁basic 87813
▁Corte 87801
▁групп 87799
十 87796
▁البيئة 87794
▁مج 87792
ую 87731
tal 87728
▁faciliter 87728
▁时候 87727
▁يوجد 87708
▁pauvreté 87694
▁Alors 87691
лет 87689
▁الصحية 87687
一次 87679
▁penal 87662
二 87656
▁État 87652
▁الإقليمي 87636
▁producción 87633
▁необходимости 87620
▁disposition 87614
▁bienio 87585
▁могли 87577
це 87565
▁Son 87565
▁Review 87554
▁تأ 87554
▁jeunes 87534
▁2013, 87530
cl 87513
▁نقل 87508
▁agreement 87494
恢复 87488
к, 87487
专门 87466
▁bonne 87464
77 87388
▁leave 87384
▁d'ex 87369
想 87354
▁mantener 87330
▁السابقة 87316
EL 87310
▁أعتقد 87309
▁relaciones 87304
▁America 87271
▁régional 87271
ющим 87261
▁quality 87255
协商 87251
▁l'adoption 87243
▁(4 87223
▁relation 87202
ник 87201
▁لما 87192
лом 87190
امة 87169
cher 87145
▁1996, 87142
▁asuntos 87068
мен 87056
▁l'intention 87054
▁Please 87053
▁servicio 87025
均 87016
▁East 87010
▁always 86981
▁проведение 86970
▁600 86963
▁evidence 86916
▁eran 86913
▁由于 86864
▁proposition 86838
▁закон 86837
▁учреждений 86832
ización 86821
▁deberían 86802
▁просит 86801
▁ninguna 86800
▁reduction 86795
▁التنسيق 86787
▁rights, 86779
▁что, 86737
▁less 86719
اتها 86699
▁cosas 86697
▁1994, 86696
▁direct 86677
，也 86667
▁= 86646
ité, 86620
▁ним 86602
▁abord 86599
▁البحر 86593
37 86589
▁эффективности 86588
▁protect 86558
▁organized 86554
▁образом, 86551
rés 86531
ар 86515
▁Mo 86474
▁crear 86474
/2006 86443
管 86440
机会 86421
▁serie 86376
▁minimum 86363
▁económica 86351
▁sociaux 86346
▁forms 86328
يني 86327
▁يتصل 86299
第十 86299
to, 86287
费 86287
▁التقنية 86267
ization 86259
▁rate 86250
▁lois 86247
▁وإن 86244
▁tel 86217
▁يع 86194
▁labour 86183
▁consecuencias 86161
▁crecimiento 86132
▁permis 86116
▁York, 86085
▁early 86080
▁Représentant 86077
▁demás 86075
编写 86073
▁общей 86064
-A 86060
▁réduire 86060
列 86029
▁新 86006
列入 86006
ении 85988
/26 85974
▁comunidades 85974
▁temas 85955
▁far 85948
▁وأنا 85938
▁рассмотреть 85920
是在 85906
▁stated 85897
报 85893
▁During 85877
▁grâce 85877
▁обязательства 85871
▁الجزء 85850
▁المؤقت 85836
ler 85826
دت 85782
▁respond 85761
▁несколько 85751
结构 85751
mente, 85740
ort 85736
▁According 85720
挑战 85709
▁financières 85698
，因此 85695
▁哪 85694
▁challenges 85693
▁50. 85692
▁Servicios 85686
EM 85658
▁matériel 85654
▁وسي 85650
рен 85645
ka 85643
两年期 85643
▁день 85625
▁reforma 85616
团 85607
▁presentado 85604
▁days 85596
-6 85594
▁become 85576
▁d'appui 85576
视 85571
▁aucune 85538
▁internacional, 85530
▁يكن 85528
▁forme 85498
▁которым 85493
▁dispuesto 85486
▁mecanismo 85451
▁只 85448
▁откры 85443
ства, 85440
届 85431
▁национального 85383
，同时 85380
▁مساعدة 85376
伙伴 85359
▁Рабочая 85350
bre 85332
▁limit 85325
▁name 85316
▁البروتوكول 85313
题为" 85302
▁Rec 85297
▁effets 85296
▁(د) 85293
▁拿 85277
▁entreprises 85274
(A 85236
▁(5 85177
▁delito 85171
▁please 85158
▁деятельности, 85151
者的 85145
▁agents 85141
▁процесс 85105
pp 85102
▁away 85095
▁relativo 85090
кам 85073
的主要 85072
onn 85039
恐怖主义 85035
武器 85035
امي 85032
表明 85023
▁46. 84996
▁г-н 84981
▁d'armes 84969
رد 84926
фи 84908
▁n'ont 84896
联系 84895
▁بح 84875
▁acts 84872
▁ejercicio 84865
协会 84854
▁determinar 84842
▁تعمل 84788
▁Not 84770
▁often 84762
ienne 84759
▁وتت 84757
▁créer 84746
(a) 84740
▁hayan 84733
▁مدى 84712
ets 84690
▁enforcement 84689
عب 84679
▁людей 84678
34 84675
▁финансирования 84662
当 84662
وري 84653
▁particulièrement 84606
，使 84596
通知 84594
▁différents 84590
▁however, 84569
书 84568
线 84565
▁prior 84553
▁qu'elles 84550
▁политических 84548
保留 84546
▁правах 84541
▁Good 84539
▁chez 84535
▁riesgo 84510
▁بلد 84507
▁aimed 84474
ment. 84458
bl 84436
▁7, 84422
ления 84368
2011年 84360
тные 84360
▁Meeting 84347
▁state 84335
ane 84330
▁ود 84329
▁a.m. 84327
证 84324
▁preparación 84313
▁وفقاً 84309
▁августа 84294
land 84288
но- 84244
▁نتيجة 84240
▁1993, 84230
▁الوصول 84220
ness 84209
▁indígenas 84190
▁Ahora 84180
▁либо 84180
▁satisfaction 84165
يز 84145
▁funds 84140
سك 84129
▁implementing 84127
▁هيا 84115
▁enseñanza 84104
▁Some 84096
▁Police 84088
no 84086
动 84086
▁годов 84078
▁وف 84074
▁informal 84072
稳定 84067
▁promoting 84063
▁٧ 84063
规则 84054
青年 84024
▁февраля 84017
пу 84005
لية 83982
▁一起 83970
阶段 83969
▁نوع 83967
▁financieros 83946
口 83946
▁enfoque 83920
▁систем 83920
▁2006. 83905
▁Federación 83903
空间 83899
安理会 83886
后， 83843
ats 83823
附件 83820
▁construction 83791
▁aprobó 83781
▁поводу 83773
ites 83772
der 83765
idad, 83712
▁Мо 83704
ris 83702
▁مص 83691
▁dijo 83689
los 83684
ций 83684
ضا 83670
▁menores 83670
▁A/C.3 83663
▁sex 83663
语 83629
▁وإلى 83625
/11 83620
▁ámbito 83609
▁mientras 83602
▁IN 83594
的权利 83585
成员国 83578
▁Cuando 83533
▁أفراد 83529
▁matters 83486
则 83482
▁الممثل 83477
▁Ministro 83468
记录 83389
▁sorte 83367
tement 83330
рования 83314
▁توصيات 83295
ung 83282
夫 83276
材料 83263
▁مر 83211
▁٨ 83176
ща 83168
▁التمويل 83167
的影响 83144
▁التكاليف 83136
年， 83130
▁recomienda 83121
▁agua 83092
▁independent 83092
统计 83087
▁٦ 83085
▁لشؤون 83052
▁الاستشارية 83048
▁无 83045
▁Democratic 83033
支出 83023
审 83022
▁تزال 83017
ес 83015
▁сведению 82986
▁solicitud 82915
▁univers 82913
/2005 82911
▁47. 82909
▁EN 82906
▁المناعة 82905
▁这种 82899
▁الض 82888
▁الوفود 82888
▁llevar 82885
▁настоятельно 82885
▁Ра 82880
本国 82869
▁prevention 82856
▁Вот 82853
/28 82846
土地 82843
▁أما 82826
▁التوصيات 82816
هي 82796
▁fortalecer 82733
▁planning 82727
▁2007. 82694
▁participer 82692
▁Поэтому 82690
▁recommended 82675
▁varias 82657
▁Association 82639
▁учреждения 82628
▁الثالث 82578
缺乏 82553
▁الداخلية 82534
▁го 82532
▁aller 82509
进展 82507
ин 82501
作用 82478
тами 82469
▁老 82463
▁sería 82455
2000年 82434
▁Just 82429
нию 82424
▁multilateral 82414
ities 82411
图 82399
/1999 82392
▁autochtones 82390
▁أول 82388
，其 82382
цы 82374
▁имя 82362
内部 82339
▁usted 82326
vent 82324
▁ث 82321
回 82314
▁facilitate 82313
上的 82307
▁compromiso 82274
▁unos 82268
▁проблем 82261
▁لتحقيق 82251
▁Réunion 82248
▁Специального 82236
endo 82230
وني 82212
▁biennium 82194
▁вопроса 82190
льных 82173
▁социальной 82171
▁плана 82160
iera 82156
▁estrategias 82128
▁некоторые 82122
资产 82114
▁предложения 82102
ра, 82095
▁أس 82092
▁populations 82045
▁solución 82027
ционных 82026
▁body 82020
这个 82001
▁active 81996
▁figuran 81991
▁Services 81971
▁Who 81955
▁З 81953
عين 81938
届会议 81938
▁соглашения 81909
医疗 81905
une 81903
▁sommes 81893
▁women's 81889
▁48. 81884
▁(I 81869
() 81857
ban 81848
▁前 81845
tent 81823
لم 81804
▁必须 81802
▁孩子 81793
▁procedure 81789
عات 81783
▁والد 81781
▁soumis 81780
كن 81767
▁iii) 81767
▁рекомендует 81763
▁assist 81744
▁trouver 81727
▁وط 81719
▁（ 81705
▁Kingdom 81701
▁تك 81689
39 81688
▁Dios 81684
▁continu 81683
▁الناس 81675
▁وقال 81665
▁Council, 81644
▁связанные 81643
▁الحياة 81640
内容 81627
▁space 81614
▁问题 81583
▁(С 81581
种 81576
▁établi 81563
▁appui 81521
规划 81500
▁building 81493
▁الإنسانية 81489
iens 81473
ционного 81472
因素 81467
ger 81451
тов. 81451
▁Ah 81450
▁diversos 81450
▁العديد 81445
ance. 81421
儿 81415
▁play 81403
▁الحاجة 81389
.6 81367
▁أع 81343
▁affected 81336
▁interest 81333
سة 81323
省 81303
▁vi 81283
▁currently 81280
▁pla 81261
每 81257
▁Child 81252
▁supported 81251
88 81250
▁ви 81248
▁jours 81243
▁oficinas 81231
▁siento 81227
▁making 81224
▁للتنمية 81224
▁attend 81198
▁His 81178
▁miras 81162
▁(L 81155
▁看到 81148
▁publique 81104
▁examin 81086
-то 81077
▁لجميع 81022
▁source 80999
▁l'exécution 80993
نس 80978
ление 80968
▁مشاركة 80956
▁obstante, 80938
▁División 80930
▁Democrática 80897
وان 80874
▁Программы 80865
▁night 80860
▁steps 80845
▁إليه 80823
ы, 80784
▁entidades 80777
▁Estoy 80770
ling 80761
▁مُ 80754
ia) 80731
方面， 80731
▁السنوات 80724
▁الخدمة 80705
▁opinión 80701
性和 80679
▁soy 80678
▁venir 80627
tée 80615
▁régimen 80600
▁cuadro 80598
л. 80576
▁superior 80573
▁conforme 80571
▁commercial 80568
▁letter 80556
▁الفصل 80527
▁vraiment 80516
看 80507
▁respecto, 80504
▁второй 80493
▁employment 80483
85 80474
▁l'annexe 80458
/1998 80456
需求 80451
▁Management 80438
▁Спасибо 80383
▁吃 80381
щих 80349
▁наиболее 80320
500 80298
▁tales 80282
IT 80268
▁2011. 80250
巴勒斯坦 80244
▁qu'un 80239
▁fundamentales 80238
票 80183
▁responsable 80167
ря 80156
king 80130
▁sección 80113
рование 80058
▁tard 80045
/2004 80043
▁pl 80038
▁valeur 80032
保健 80032
▁усилий 80013
▁requests 80011
可持续 80005
ique, 79992
▁باء 79984
集团 79984
▁vigor 79981
▁степени 79971
▁Party 79968
▁examiné 79957
领土 79950
▁اﻷعمال 79940
▁условиях 79923
й. 79901
▁49. 79886
气 79882
▁God 79861
▁делам 79851
▁النتائج 79832
▁limited 79826
如 79826
جز 79821
▁الكثير 79802
▁п 79800
84 79788
▁needed 79781
科学 79778
城市 79774
32 79771
▁tenía 79757
ires 79756
▁говорит, 79744
re, 79733
学校 79733
▁٩ 79723
▁types 79712
▁observ 79711
▁sir 79703
重点 79703
开发 79692
▁конкретных 79668
▁laws 79661
▁ensuring 79659
▁pursuant 79630
保持 79600
威胁 79596
▁bienes 79591
相 79588
第三 79586
▁представителя 79583
ères 79579
▁according 79575
▁أخ 79570
违反 79570
▁национальной 79560
▁sûr 79541
第2 79505
▁haciendo 79503
▁странам 79494
▁ri 79489
▁réforme 79479
ies, 79456
▁planificación 79451
▁procesos 79449
▁sure 79430
▁Е 79400
جم 79398
▁бюджета 79371
▁jóvenes 79364
▁régionaux 79359
▁一些 79346
▁بالتعاون 79343
▁faites 79332
انية 79313
▁Gu 79312
▁direction 79291
身 79289
任 79227
ich 79188
▁لنا 79188
▁oeuvre 79180
▁معي 79167
▁marché 79165
▁conocimientos 79144
死 79134
▁موظفي 79126
رات 79116
▁(H 79114
▁положение 79108
▁concepto 79103
حب 79099
▁pleinement 79096
▁strategy 79095
اق 79091
Я 79079
▁val 79067
▁últimos 79060
тельные 79034
▁الوثائق 79030
▁conducted 79027
那些 79013
▁declaraciones 79010
стве 79008
▁العمليات 79000
姆 78988
反 78975
国际法 78948
ene 78935
▁والأمن 78932
▁向 78924
完全 78924
▁شؤون 78907
ван 78905
▁مش 78896
▁一下 78888
36 78881
拟订 78856
萨 78851
тельно 78828
▁85 78819
▁صحيح 78815
准则 78808
/24 78801
▁(s 78801
▁believe 78792
ством 78783
▁protéger 78777
▁celui 78772
▁funding 78761
▁curso 78760
encia, 78756
/2002 78738
▁poste 78730
▁الاجتماعات 78725
ta, 78722
▁garantir 78719
▁الدولي، 78717
▁Ca 78713
▁greater 78696
尊重 78688
▁risques 78684
ئة 78670
南 78649
aste 78642
▁figure 78639
全 78632
2006年 78631
以来 78608
▁Tengo 78594
▁relativos 78579
▁similar 78572
▁لضمان 78571
▁pourraient 78558
▁делегация 78551
▁تشير 78551
ضي 78545
aires, 78536
▁razón 78525
▁الاتجار 78520
▁Sa 78512
介绍 78511
欧洲 78493
▁eficaz 78491
пе 78477
▁2004. 78471
移民 78418
▁equal 78406
▁случаях 78390
ки. 78376
▁qu'une 78361
u, 78359
▁Durante 78356
▁ответственность 78356
▁American 78354
2012年 78339
协议 78339
той 78324
▁présenter 78318
خص 78313
▁عرض 78303
aire, 78288
▁95 78280
▁Ба 78277
▁diversas 78274
▁principle 78254
人数 78248
▁Его 78223
总部 78206
ía, 78173
▁appel 78172
ولي 78170
▁F. 78169
▁wish 78162
▁phase 78160
سر 78159
▁finales 78148
ence. 78146
供 78141
领导 78126
▁proposal 78112
▁civiles 78057
▁vista 78039
▁ocup 78022
ala 78008
2008年 78006
▁хотя 77983
▁الاستعراض 77983
▁النمو 77981
▁التقني 77957
▁dois 77947
▁disponibles 77934
да, 77933
▁Rwanda 77914
病 77914
▁realizar 77907
▁Nations, 77906
额 77879
ون، 77878
UL 77877
▁الرجل 77843
议会 77819
▁humanos. 77800
▁конференции 77799
▁那么 77787
登记 77773
才 77758
▁وتنفيذ 77751
ada. 77734
▁l'état 77729
▁rev 77725
米 77722
▁celle 77721
▁посредством 77719
▁seis 77717
▁undertaken 77709
▁жизнь 77680
67 77673
授权 77664
/Add.3 77653
▁帮 77643
▁Pacto 77641
▁Bar 77629
▁capacité 77602
▁punto 77599
▁tratados 77599
▁supervisión 77593
▁post 77585
▁record 77564
ское 77563
▁humanitaire 77540
▁souvent 77538
▁referred 77536
▁vote 77481
访问 77472
тельной 77448
专题 77429
▁информации, 77414
ву 77408
住 77403
vi 77381
▁keep 77380
دد 77378
▁positive 77362
▁statements 77362
iss 77357
▁многих 77338
▁cour 77333
▁law, 77328
▁موارد 77307
▁NATIONS 77273
tro 77255
最近 77254
▁才 77249
bles 77235
▁والتعاون 77234
▁VI 77233
encias 77218
▁السنة 77197
▁الحسابات 77196
▁pidió 77170
▁человека. 77166
▁aunque 77164
▁ent 77163
▁terrorist 77160
▁ак 77156
▁ей 77144
38 77142
原 77130
▁study 77121
▁Соединенных 77119
▁ПРООН 77108
▁Fédération 77103
达到 77090
tivos 77088
性。 77084
▁القرارات 77073
▁Pre 77057
▁aucun 77048
▁الشامل 77045
▁communities 77041
ческая 77010
确认 77004
1999年 76997
▁Europea 76993
▁условий 76978
▁modo 76972
▁soins 76971
▁помощью 76963
▁экономического 76954
▁74 76935
宣布 76928
▁Декларации 76922
▁risque 76867
▁achieve 76860
，如 76851
▁المس 76845
▁niveles 76844
▁tes 76843
/65 76838
签署 76834
pos 76833
شي 76829
▁обсуждения 76826
▁часть 76821
uel 76809
ющего 76806
▁والح 76804
号决定 76800
▁juridiques 76786
产 76785
知识 76782
带 76778
▁religious 76773
阿 76771
运输 76766
▁distribu 76730
рия 76728
▁мой 76691
дом 76678
▁Directeur 76674
скими 76664
72 76651
▁reconocimiento 76638
▁destruction 76636
这项 76633
▁old 76630
▁expected 76615
▁titulado 76610
导致 76596
▁Tema 76595
▁aura 76591
结束 76588
1月 76578
ub 76578
▁其他 76575
重申 76562
▁practice 76561
про 76553
正式 76552
مية 76551
▁pr 76543
▁لهذا 76533
▁development, 76529
▁espera 76508
▁bring 76506
▁remain 76500
▁distribution 76492
▁kind 76486
▁Хотя 76486
▁pourquoi 76485
▁зрения 76457
▁Según 76448
修订 76448
▁ничего 76445
▁时 76445
▁Са 76442
▁changements 76440
▁51. 76437
▁disposición 76414
支付 76405
▁indica 76404
/2000 76389
▁الإرهاب 76386
чно 76380
▁traite 76362
▁girls 76357
▁мероприятий 76349
▁Costa 76341
2009年 76326
▁السلطة 76319
▁социального 76317
▁использование 76301
▁bureaux 76299
▁带 76295
▁подготовке 76283
▁refer 76279
ена 76276
和国际 76276
▁تفعل 76259
实行 76256
▁التوجيهية 76255
-9 76254
▁cost 76245
▁priority 76242
联盟 76234
.15 76214
条款 76207
▁Су 76194
▁Эта 76171
▁محددة 76159
ition 76149
جب 76147
وج 76125
▁energy 76125
▁развития. 76114
若干 76099
▁حاجة 76097
▁prestación 76082
▁جداً 76082
更加 76082
8月 76079
▁pénale 76060
▁recognized 76051
▁left 76026
▁Derecho 76012
▁potential 75992
▁我們 75981
▁peut-être 75980
▁état 75977
▁períodos 75963
ies. 75955
▁stratégies 75944
满足 75928
发挥 75910
▁использовать 75909
金融 75890
▁процента 75885
▁A/C.2 75881
▁ра 75875
▁马 75866
▁однако 75836
▁فرص 75832
▁peacekeeping 75830
▁Implementation 75807
▁ob 75779
▁Ministre 75774
▁провести 75700
▁officers 75695
法官 75693
▁créé 75691
▁الهدف 75683
▁(f) 75667
▁meses 75664
▁Can 75653
▁sesión, 75645
▁кон 75645
▁نشر 75644
▁(К 75631
▁ET 75631
▁الرابعة 75630
局势 75611
con 75608
aj 75606
▁solutions 75591
▁手 75591
部长 75586
▁المالي 75541
预防 75536
▁чего 75510
▁past 75496
▁Sri 75484
走 75481
▁программа 75437
给予 75421
° 75414
收到 75409
▁196 75399
▁所 75387
ющий 75386
议程 75383
财产 75383
▁buena 75374
▁выше 75372
▁oportunidad 75365
/2003 75347
▁Administración 75336
▁Look 75335
▁شأن 75330
▁biens 75326
▁مس 75304
▁detención 75299
▁d'administration 75297
器 75287
▁accords 75273
▁точки 75261
▁hablar 75247
▁esc 75246
▁первой 75240
▁(М 75233
优先 75233
林 75230
▁ﻷ 75215
▁جيد 75208
ast 75204
ica, 75201
وة 75172
▁بك 75169
▁Reino 75168
▁pratique 75140
▁mind 75138
▁которую 75136
▁2012. 75128
▁Constitución 75126
خذ 75117
_ 75110
тной 75094
▁Medio 75093
▁purpose 75093
쫇 75076
vis 75070
▁vigueur 75061
▁человек 75061
2007年 75057
▁told 75036
▁drug 75011
▁لﻷ 75009
▁52. 75008
▁عشرة 75006
▁qu 74977
定期 74971
دين 74960
▁الحدود 74952
▁okay 74950
▁financière 74940
حق 74932
▁App 74932
/A 74924
▁مسائل 74919
tifs 74897
▁analysis 74895
▁расходы 74882
(b) 74874
▁الهيئات 74858
lement 74843
▁exist 74843
▁المعايير 74843
▁يد 74837
▁exemple 74813
aci 74788
чение 74787
赔偿 74784
▁statistiques 74782
mis 74778
▁proporcionar 74773
▁поддержке 74766
▁Consultiva 74762
▁trabajadores 74736
▁وبناء 74712
一致 74711
▁portant 74699
sh 74652
补充 74646
▁défense 74643
▁obtener 74636
▁l'enfant 74631
ئي 74619
，从而 74617
来自 74610
▁ensemble 74605
▁enhance 74604
▁التابع 74600
gr 74599
adas. 74595
约 74589
▁knowledge 74578
▁Red 74560
维持 74560
زم 74545
gh 74540
▁ten 74538
▁diverses 74529
▁dur 74529
▁equality 74529
▁ш 74524
▁Ш 74499
ena 74489
til 74489
▁strategic 74487
▁сектора 74479
▁ningún 74478
Ч 74469
▁мир 74456
▁mas 74453
▁Этот 74448
▁return 74446
2月 74438
▁commission 74428
▁comunicaciones 74416
▁aprobado 74402
▁رجل 74400
▁partenaires 74396
▁(19 74382
ّر 74378
▁وثائق 74375
ché 74355
/60 74351
▁جدا 74329
▁treaty 74321
ких 74318
▁thought 74315
▁ويت 74307
审计 74299
▁إقامة 74294
管制 74290
ized 74271
sions 74270
йте 74257
▁méthodes 74250
gar 74247
▁الأصلية 74246
ли, 74221
▁ren 74221
▁oportunidades 74204
2). 74197
tir 74192
▁opinion 74184
Ю 74180
رس 74166
裁军 74148
▁arms 74146
▁income 74115
ick 74110
▁)ال 74083
▁tour 74061
▁initial 74017
IL 74016
主 73998
▁facilit 73994
@ 73993
▁إعلان 73993
▁معظم 73992
▁Cooperation 73991
▁Об 73986
▁مراعاة 73984
▁veiller 73973
增长 73960
▁后 73955
尚未 73944
▁مجموع 73940
вления 73939
▁قدم 73937
tación 73933
74 73932
آ 73927
/64 73906
entes, 73899
▁лица 73881
目的 73878
▁الكامل 73860
▁régionales 73850
▁المص 73850
▁53. 73849
▁بيان 73827
▁nunca 73826
伊 73826
▁Sud 73821
的方式 73819
ماً 73814
▁paragraphs 73814
ريد 73808
风险 73807
عاً 73804
▁l'importance 73799
▁negociaciones 73797
صد 73768
in, 73765
▁её 73758
▁efecto 73737
▁Qui 73734
▁sanctions 73723
▁созда 73722
的是 73712
▁Canada 73685
▁todavía 73679
▁conduct 73634
не, 73632
вала 73630
▁podrá 73624
▁(" 73618
ческими 73606
▁l'Afrique 73583
仍 73570
地位 73567
ظر 73547
▁situaciones 73546
件 73542
oso 73530
▁funcionamiento 73529
▁点 73522
cu 73518
ству 73518
▁всегда 73516
▁régime 73500
но, 73491
▁fomento 73491
▁干 73484
▁استراتيجية 73481
/2007 73465
▁سياسات 73453
▁respeto 73447
▁иметь 73439
▁عامة 73437
▁sorry 73423
▁ذٰلك 73411
▁بهدف 73386
选择 73384
▁organizations, 73370
▁effort 73367
▁مؤ 73364
▁rights. 73361
ю, 73354
78 73344
政府间 73338
дов 73312
▁التجارية 73292
▁oficiales 73285
▁l'organisation 73283
66 73280
章 73279
▁asked 73247
▁invited 73239
▁close 73204
侵犯 73199
▁sécurité, 73189
计 73187
хи 73182
▁Support 73171
▁misión 73164
▁الان 73151
وه 73122
▁l'on 73108
pl 73093
-M 73089
▁представляет 73084
▁reference 73077
el, 73074
进行的 73061
关键 73058
反对 73057
▁Commission, 73055
/63 73045
▁talk 73031
▁discussions 73029
▁73 73021
索赔 73015
▁recommande 72996
▁anything 72972
аль 72970
▁crois 72958
/1997 72950
▁Генеральный 72949
▁exercise 72948
▁المركز 72940
非常 72913
▁النا 72899
▁participar 72880
тельного 72877
▁2003. 72864
▁parti 72854
上， 72841
2004年 72840
▁First 72834
64 72822
▁understand 72822
▁يشكل 72815
وط 72793
▁معاهدة 72786
▁نظم 72779
▁few 72772
▁propositions 72771
关切 72770
▁الحماية 72738
▁prepar 72734
الية 72729
eng 72718
▁awareness 72712
▁biennal 72698
▁davantage 72698
▁investment 72695
农业 72662
▁dado 72654
▁importe 72645
فاق 72640
▁workers 72625
▁aid 72620
▁surveillance 72616
тельный 72613
▁lorsque 72599
ium 72594
职能 72587
▁اله 72585
▁parce 72578
▁seul 72569
▁مجالات 72554
▁المج 72553
▁ven 72549
雷 72538
声明 72537
▁Cor 72535
▁expert 72529
▁· 72528
мер 72509
▁الجنسين 72508
▁رصد 72491
▁conflits 72485
▁forward 72474
." 72467
▁الصدد، 72465
▁anual 72458
▁head 72436
▁أية 72423
▁الرعاية 72422
▁国家 72415
▁estudios 72412
▁proposals 72410
▁app 72394
▁То 72377
tes, 72375
▁организация 72362
▁العراق 72357
ric 72343
▁Bank 72341
▁peoples 72329
▁primary 72328
最后 72325
▁علما 72279
▁иностранных 72276
▁还是 72276
▁cal 72267
▁párrafos 72265
▁всей 72244
بد 72240
▁жи 72239
▁da 72233
▁gracias 72227
▁состоя 72227
ших 72226
采购 72216
شا 72206
▁sectores 72197
▁по-прежнему 72188
▁prévu 72175
股 72161
▁قرارات 72152
▁thus 72148
▁الفرعي 72120
▁dernière 72116
利益 72106
▁dispar 72100
▁Federation 72097
▁demandes 72096
▁agentes 72093
报告的 72093
IR 72090
工具 72060
▁mor 72043
▁recommends 72043
▁والص 72038
▁régions 72036
ley 72034
/30 72027
▁الهيئة 72026
界 72025
特别报告员 72022
▁54. 72021
lé 72017
)， 72003
▁الـ 71977
实 71970
▁mat 71969
▁希望 71961
▁diferentes 71956
▁applicable 71948
iez 71943
▁خير 71938
TS 71926
▁brought 71910
▁القوات 71910
▁الدولية، 71901
▁أل 71889
▁example, 71883
▁有人 71868
指标 71863
▁identified 71857
lan 71856
ет, 71854
▁fil 71847
سن 71846
▁Quoi 71840
▁prend 71840
▁tienes 71823
▁видов 71802
▁مؤسسات 71793
▁power 71791
▁A/C.5 71788
بع 71783
▁المزيد 71764
▁указа 71753
▁تطلب 71739
▁народов 71727
▁inf 71711
▁الشخص 71699
业 71684
lic 71673
做出 71653
的活动 71649
95 71635
Q 71627
▁conflicto 71625
▁2000. 71603
▁вместе 71602
▁وهذا 71586
▁financiera 71584
▁الرغم 71582
ров, 71564
▁peuple 71545
事件 71539
▁Desde 71531
тели 71526
▁property 71524
▁(1) 71517
日第 71507
tado 71490
▁decidió 71486
▁الممارسات 71484
工作。 71480
▁détention 71477
▁migrants 71476
▁الدائمة 71473
▁seguro 71463
/INF 71449
▁يزال 71445
▁individuals 71418
▁I, 71414
فاء 71411
▁такое 71410
▁والن 71377
жда 71369
▁2002. 71369
▁вопросам, 71355
▁一样 71355
▁55. 71333
▁femmes, 71321
▁Ag 71318
▁integración 71317
▁intern 71308
▁Assembly, 71298
▁比 71296
▁الأم 71293
▁equipment 71286
▁sexes 71285
тер 71276
▁directives 71271
▁super 71264
▁proposé 71259
▁(c 71249
(200 71248
罪 71227
2003年 71223
ــــ 71223
▁children, 71213
aré 71208
▁déclarations 71200
▁периода 71194
申请 71181
▁году. 71180
▁mécanisme 71176
▁troisième 71168
▁direc 71163
▁تنسيق 71163
▁надо 71145
▁presented 71143
▁800 71128
▁阿 71114
▁dirigida 71102
▁parte, 71098
▁حدث 71098
fer 71097
▁Thank 71095
▁детей, 71092
▁porte 71077
1998年 71072
2002年 71071
imos 71066
▁Paz 71059
▁Table 71058
▁later 71054
▁نص 71054
▁التقييم 71035
щение 71028
▁participantes 71026
▁بصفة 71009
▁asesoramiento 71007
▁ethnic 71007
拥有 71007
▁يتعين 71006
▁experiencia 71005
基础设施 71002
▁полностью 70984
▁социальных 70976
商业 70973
经费 70964
▁Tratado 70936
▁консультации 70906
加以 70896
▁viv 70894
▁المسألة 70888
▁produc 70875
▁граждан 70861
▁Treaty 70837
▁fonctionnement 70826
ظم 70817
▁physical 70809
▁доклады 70797
▁لذا 70788
тах 70780
ET 70776
出口 70765
▁وحدة 70764
债务 70762
튻 70760
▁incluir 70756
▁تعرف 70745
▁محكمة 70739
▁Sam 70714
▁ООН 70709
统一 70708
▁150 70706
大学 70705
▁qu'à 70703
▁Международной 70660
▁конвенции 70657
▁d'en 70651
▁الأوروبي 70628
▁internacional. 70597
▁(в 70596
▁документе 70587
ـا 70574
▁Legal 70570
▁authority 70565
▁essential 70561
cent 70546
-E 70537
▁filles 70536
活动。 70525
▁principaux 70521
▁嘿 70519
▁transporte 70502
▁сказал 70501
▁planification 70499
▁الآ 70492
▁hand 70484
形式 70475
▁elementos 70474
▁faits 70466
▁今天 70466
证明 70459
▁necesarias 70452
▁oficial 70440
▁пода 70430
▁veut 70429
47 70405
▁lequel 70402
▁honor 70395
▁المحرز 70373
▁اجتماعات 70367
▁мероприятия 70360
▁possibilité 70354
设施 70351
▁respecta 70341
▁اﻷعضاء 70287
%。 70282
р, 70281
▁虽然 70272
тора 70260
теля 70254
▁المقدم 70238
▁та 70231
▁ме 70221
▁+ 70187
Ы 70180
▁quelques 70178
▁igual 70164
ман 70155
▁peine 70152
▁وتقديم 70147
▁مباشرة 70130
▁الدائم 70129
зу 70127
▁إضافية 70126
▁Agenda 70111
tées 70105
的一 70099
▁podrían 70092
▁exchange 70091
UR 70087
日在 70085
▁señaló 70077
▁contribute 70073
▁delegations 70069
周 70067
▁حاليا 70062
скую 70058
▁terrorismo 70057
eros 70047
▁Ha 70042
队 70040
执行情况 70036
▁submit 70027
▁تريد 70015
▁с) 70009
▁Chairman 69996
▁принципов 69967
▁Го 69964
▁تشكل 69961
▁القلق 69958
▁рекомендаций 69955
▁net 69925
▁ку 69923
▁المحددة 69914
▁تطوير 69911
维 69909
▁процедур 69903
▁Est 69898
тного 69889
▁Ли 69885
，就 69879
▁poursuivre 69871
▁(А 69831
▁parler 69816
体制 69811
anc 69809
▁وتع 69807
нных 69802
▁1989 69797
部署 69759
查 69754
100 69745
/L.5 69732
，有 69722
▁établissements 69695
会议。 69682
▁don 69676
▁международным 69675
六 69671
جا 69663
▁indicated 69656
▁money 69651
▁hold 69644
▁принимать 69643
▁Since 69633
迪 69628
▁muchas 69616
▁fortalecimiento 69605
▁должности 69603
▁обслуживания 69570
▁суд 69570
调整 69570
广泛 69566
96 69545
AP 69542
▁Cooperación 69533
▁growth 69528
▁répondre 69526
▁никогда 69525
运动 69523
▁Ч 69521
▁reduce 69519
▁militares 69512
uses 69506
▁conjunto 69505
▁allow 69472
▁conventions 69448
▁للبلدان 69438
▁المتعددة 69434
▁见 69432
▁obligation 69429
▁您 69417
▁ass 69416
чен 69409
ّل 69405
ению 69386
▁evitar 69386
▁dinero 69374
86 69372
أن 69365
▁increasing 69357
▁ذوي 69336
▁определения 69314
▁Acuerdo 69296
▁содействие 69291
▁56. 69286
▁Comisionado 69285
▁correspondientes 69285
▁croissance 69284
▁الجهات 69263
▁системе 69248
东 69225
▁l'action 69217
كس 69210
▁tomar 69198
нить 69164
▁réserve 69163
▁地方 69150
هل 69145
▁Covenant 69145
▁párr. 69143
fe 69140
整个 69125
▁país. 69123
▁году, 69112
▁然后 69092
担任 69092
-201 69088
▁بيد 69085
▁follow-up 69066
-d 69064
▁система 69044
▁принял 69043
▁eres 69035
▁objectives 69028
▁vulnerable 69022
▁страны, 69021
عمال 68993
▁S. 68992
ء 68991
▁Sólo 68990
专业 68988
▁оказывать 68983
▁Ré 68964
▁آسيا 68950
▁الأساسي 68939
▁أهداف 68933
▁национальном 68929
▁centr 68928
ٌ 68911
/2008 68902
▁المقررة 68882
/2001 68872
ying 68857
▁Millennium 68857
▁содержа 68856
▁act 68835
▁секретарь 68828
▁пор 68824
illa 68822
▁implemented 68822
▁Países 68810
▁службы 68807
تا 68791
▁обзор 68787
льной 68783
交流 68781
▁plupart 68753
▁مقر 68732
▁уровень 68716
▁ру 68708
▁tercer 68703
▁开始 68701
▁poor 68700
不断 68685
▁наде 68679
▁tr 68657
▁объема 68656
▁eficacia 68654
▁Item 68647
▁months 68645
分配 68620
▁اﻷطراف 68617
新闻 68614
▁CH 68611
▁переда 68609
▁Mal 68606
▁сегодня 68603
▁Panel 68601
▁杀 68590
流 68587
▁لح 68586
▁"A 68582
чу 68577
战 68572
▁هيئة 68567
▁x 68563
▁Всемирной 68560
第1 68556
▁стране 68553
1). 68547
派 68547
▁бюджет 68541
总统 68537
▁1º 68522
▁أب 68520
拘留 68512
▁dernier 68511
年度 68503
▁Ins 68499
▁standard 68495
▁whole 68489
▁Unies. 68482
▁Bo 68477
▁للجمعية 68460
▁план 68459
▁compliance 68453
▁содействовать 68444
вании 68436
▁Second 68432
/50 68428
▁conflit 68426
选 68412
▁وطنية 68407
门 68406
▁tribunales 68400
▁understanding 68374
▁noche 68368
必要 68362
再 68359
▁asociados 68348
▁development. 68347
▁militar 68345
98 68343
▁effect 68340
受害者 68336
▁ONG 68329
▁officials 68309
ью 68294
فين 68291
▁tanto, 68274
ular 68265
▁C'est 68236
损失 68227
▁telle 68217
提交人 68215
вый 68204
▁séance, 68193
▁Under 68188
▁се 68184
，委员会 68177
إ 68144
يان 68143
▁обязательств 68136
▁institutional 68126
стра 68104
▁conférences 68096
▁passé 68094
-moi 68092
▁以 68089
▁أد 68081
▁Ассамблее 68075
▁law. 68062
▁convient 68059
一名 68044
提议 68038
46 68027
▁evaluation 68001
cia 68000
▁ever 67988
▁Comité, 67986
▁market 67985
▁نت 67979
▁العسكرية 67945
▁condición 67928
的其他 67926
▁أح 67917
/66 67914
▁اﻻقتصادية 67911
议程项目 67890
出现 67876
▁gr 67865
II 67861
▁ambiente 67861
▁costos 67852
ente, 67850
▁See 67837
▁способ 67835
边 67830
▁государственных 67826
▁show 67821
索 67819
رج 67811
▁并 67797
▁permettant 67794
单 67787
/Add.4 67786
▁India 67781
فس 67772
вом 67769
▁теперь 67767
▁outside 67764
▁arm 67758
ense 67757
ционной 67741
43 67736
▁ф 67734
غي 67733
有助于 67732
▁Га 67727
▁Political 67713
交 67711
/58 67708
ï 67701
▁lead 67697
éri 67691
▁себе 67691
ولة 67679
55 67671
▁76 67658
▁aim 67651
▁radio 67650
▁étais 67649
州 67649
ín 67648
▁механизма 67636
▁necesarios 67630
▁preparation 67628
▁Internet 67625
▁veces 67621
岁 67620
该国 67615
▁supplémentaires 67605
▁recomendación 67604
▁الحكم 67599
▁التنفيذية 67568
▁التح 67560
▁تاريخ 67558
▁المسلحة 67542
▁women, 67540
▁value 67538
机构和 67530
ama 67527
▁determin 67520
") 67518
به 67516
▁механизмов 67516
▁rel 67507
▁тоже 67499
▁substances 67490
▁deal 67484
▁другим 67481
▁guidelines 67480
▁دوﻻر 67480
▁57. 67469
▁John 67463
，它 67462
▁comple 67460
▁parmi 67449
93 67439
مع 67439
▁участников 67439
▁الفضاء 67437
▁среды 67424
▁Aunque 67415
table 67412
▁eliminación 67412
▁event 67405
▁previsto 67402
▁desarme 67400
/2009 67389
▁using 67375
▁совет 67374
▁liées 67368
▁безопасности, 67363
▁Adoption 67362
▁l'établissement 67358
▁cuentas 67351
▁开 67348
2001年 67341
ением 67339
▁addition 67331
/48 67299
▁pass 67276
予以 67276
▁كي 67275
▁participate 67272
▁Har 67266
▁(i) 67262
▁marcha 67253
▁安 67250
▁lettre 67234
▁internal 67226
▁вклад 67218
ista 67215
▁результаты 67211
щим 67208
▁opportunity 67195
льные 67194
▁espacio 67183
一份 67182
型 67177
▁composition 67168
чным 67162
▁competencia 67146
提出了 67139
▁غرفة 67124
خل 67123
话 67118
▁père 67115
美元 67110
先生（ 67104
个国家 67087
▁th 67072
文书 67060
称 67056
▁Información 67044
▁différentes 67040
▁apoyar 67037
▁نهج 67029
只 67021
▁live 67018
▁overall 67011
▁caus 66993
us, 66991
▁ЕЭК 66990
▁financing 66978
现在 66971
▁job 66966
-B 66962
▁Kosovo 66957
▁pense 66950
▁98 66904
▁الأراضي 66902
▁общества 66898
▁новые 66897
期间， 66880
▁égard, 66878
▁правовой 66878
ис 66868
وح 66868
▁آثار 66868
▁changes 66865
▁обзора 66864
48 66859
▁当然 66852
▁guerra 66847
ent. 66845
▁administration 66844
antes, 66839
▁2) 66833
又 66825
▁room 66815
保 66804
▁Peace 66801
▁Ben 66788
▁الطاقة 66786
▁contratación 66768
▁organisation 66748
▁отмечает, 66743
▁المفوضية 66738
▁документ 66733
各方 66714
▁amplia 66709
▁النقل 66708
vers 66689
决策 66683
EP 66681
انة 66680
值 66665
سية 66657
▁Почему 66654
/200 66653
▁Education 66653
各国政府 66651
▁tasa 66650
▁Sala 66649
حل 66643
▁Allez 66614
▁представля 66599
▁朋友 66590
准备 66571
▁Latin 66562
▁المقترحة 66562
厅 66541
▁série 66532
quer 66529
▁موجهة 66528
▁международном 66523
ore 66519
▁يس 66514
▁здоровья 66509
报告。 66494
tan 66490
▁учета 66472
▁القضائية 66467
▁Америки 66466
，他 66459
▁integrated 66449
ity. 66442
▁Afrique 66440
▁once 66429
нии, 66420
ición 66406
▁другой 66400
构成 66395
▁-il 66386
，不 66384
▁بش 66377
щий 66374
aire. 66369
ash 66355
阿富汗 66342
▁By 66333
▁предложение 66331
▁violación 66330
▁occup 66302
▁obligación 66300
▁rég 66296
▁尽管 66280
▁Your 66275
▁الأموال 66273
▁أننا 66258
▁أعلم 66222
lar 66220
нные 66217
/2011 66207
▁prop 66203
almente 66200
/L.2 66196
咨询 66191
2- 66185
▁terrorisme 66185
طل 66182
▁ответственности 66177
▁pena 66169
▁Get 66167
▁initiative 66166
▁Pacte 66155
▁servir 66151
▁عل 66150
US 66147
▁incluido 66145
▁niños, 66138
▁sup 66137
aw 66134
▁Per 66122
▁Committee, 66110
▁cambios 66108
)) 66107
▁Traité 66104
▁facilities 66101
▁saber 66091
▁Из 66087
▁Israeli 66074
▁contribuir 66064
▁60. 66061
▁l'homme. 66055
▁agreements 66050
▁cap 66043
сов 66040
群体 66027
▁т 66014
▁世界 66013
▁пункту 66007
C. 66000
▁réponse 65999
erse 65993
▁58. 65971
вление 65967
▁activ 65967
▁mechanism 65965
ited 65959
提到 65954
-199 65952
▁d'assurer 65944
▁两 65933
▁العدل 65922
/S 65904
▁получения 65904
▁不过 65896
-P 65894
▁700 65884
▁ими 65882
▁travel 65877
▁власти 65858
行动计划 65856
▁условия 65847
▁看看 65823
▁engagements 65817
▁esp 65817
-C 65813
▁قام 65810
▁виде 65784
rait 65783
▁comptes 65776
路 65775
▁пути 65772
ils 65765
▁souligné 65759
▁Instituto 65755
ui 65751
▁расширения 65729
لق 65728
的发展 65725
▁120 65682
▁المؤ 65680
▁accès 65664
▁للع 65650
amb 65640
▁معالجة 65638
▁strategies 65635
▁Организацией 65631
▁الحالات 65631
下， 65629
▁paragraphes 65622
حر 65620
▁fn 65618
▁объем 65618
是一个 65618
/P 65605
▁carta 65597
▁causa 65573
лли 65558
▁وإعادة 65541
▁يشمل 65541
▁oblig 65533
▁recibir 65533
دم 65526
adora 65516
紧急 65506
的建议 65497
тельное 65495
▁parece 65490
组织和 65485
tion. 65480
公平 65476
通过的 65475
76 65468
’s 65457
▁sec 65457
合作， 65435
▁١١ 65431
ted. 65430
ath 65427
▁compromisos 65422
▁эффективного 65419
зе 65400
aciones, 65399
1- 65396
▁intitulé 65392
▁team 65384
age, 65368
气候变化 65352
属于 65345
▁如 65336
▁either 65311
ника 65296
▁trafic 65294
▁ثلاثة 65292
▁Mujer 65288
▁مزيد 65284
ess 65282
▁بذلك 65282
▁قطاع 65277
▁القمة 65270
▁والس 65263
▁Add.1 65253
DI 65239
aliz 65233
▁Did 65233
▁conclusion 65219
的任何 65215
قدم 65198
▁ممارسة 65195
▁三 65194
▁gu 65189
▁segunda 65172
▁производства 65151
в, 65149
▁الجديد 65147
for 65123
酷刑 65121
▁الاستراتيجية 65115
▁مذكرة 65109
▁(d 65107
▁предоставления 65100
▁Управление 65090
▁report, 65048
éc 65041
щая 65037
▁السادسة 65030
▁同 65023
▁السياسي 65021
之后 65002
▁роли 64999
▁المحلي 64993
▁1988 64989
▁dernières 64981
▁opportunities 64980
▁موضوع 64977
ется, 64964
жение 64957
ze 64955
▁لدعم 64950
取 64949
▁Right 64932
▁تف 64911
▁الحالية 64902
▁المخدرات 64893
▁documentation 64891
▁Entonces 64881
▁التالية 64871
能源 64864
/2010 64859
сом 64840
▁الأرض 64837
istas 64830
▁الداخلي 64807
ants. 64791
▁fuerza 64790
▁представители 64785
▁Reunión 64777
▁alguna 64775
▁services, 64763
▁consensus 64762
所载 64752
iti 64743
▁والاجتماعي 64740
身份 64728
▁這 64703
▁قوة 64699
方案。 64699
▁convention 64698
нем 64686
жения 64664
▁وفد 64631
▁periodic 64599
▁Ц 64596
▁بأنه 64579
▁59. 64575
▁الوارد 64563
▁formular 64554
▁женщины 64544
十年 64544
▁militaires 64542
▁energía 64539
▁DU 64535
色 64523
▁low 64519
▁cl 64515
▁охраны 64514
▁presentó 64511
境内 64511
▁2001. 64502
▁Эй 64500
▁вопросов, 64494
▁объя 64491
先生( 64468
▁表 64462
▁уголовного 64453
▁يجوز 64452
▁1) 64451
вля 64450
▁recommendation 64421
职 64412
▁суда 64411
▁came 64407
▁عنها 64406
低 64392
▁whose 64387
▁déc 64376
能力建设 64357
▁замечания 64351
住房 64348
▁Asimismo, 64343
▁faisant 64335
▁l'assistance 64323
▁دراسة 64318
▁TO 64305
▁niñas 64296
▁comité 64276
▁adoptado 64267
▁fa 64258
▁English 64246
▁higher 64240
▁seen 64233
▁年 64226
▁l'évaluation 64224
▁efficace 64220
▁لمنع 64215
▁одним 64212
▁9, 64210
▁з 64192
▁cos 64183
▁Europa 64173
الت 64166
▁elecciones 64157
近 64156
▁safety 64154
ци 64144
ight 64130
▁последствия 64117
▁الطلب 64108
▁padre 64095
▁read 64089
此类 64084
/49 64083
▁intercambio 64075
▁США, 64058
ences 64055
قص 64032
▁找到 64023
▁religion 64020
po 64001
▁export 63995
ран 63989
▁chef 63984
car 63982
حو 63979
تان 63970
▁правил 63958
▁الجمهورية 63958
dad 63932
▁قدرة 63927
ذر 63914
媒体 63900
▁Of 63872
▁соблюдения 63863
▁actividad 63861
▁مؤرخة 63854
▁результатов 63850
cido 63831
措施， 63823
▁Agency 63821
接 63815
▁objective 63813
▁alguien 63810
▁concerns 63807
aux, 63805
▁ciudadanos 63802
▁التحقيق 63798
ционные 63797
OP 63787
▁嗎 63786
▁78 63785
▁Conformément 63771
▁ait 63770
▁sentido 63768
▁contribuer 63766
▁пятьдесят 63760
فق 63756
▁настоящего 63750
ений 63734
，确保 63726
▁сокращения 63717
▁remains 63716
▁меры, 63707
▁factor 63706
▁ومنظمة 63705
▁Unido 63679
妇女的 63674
** 63673
▁ба 63666
ière 63643
▁должностей 63629
▁услуги 63628
▁مشاورات 63621
▁Привет 63620
انت 63619
▁offices 63609
政策和 63606
▁centro 63603
▁común 63598
▁принятие 63589
zo 63587
ющая 63587
▁aut 63585
▁Nos 63577
通过了 63577
▁tend 63576
hip 63572
щен 63560
ОС 63559
لب 63556
▁١٠ 63556
▁Ж 63555
设备 63550
竞争 63546
▁ref 63542
调 63540
,并 63536
▁Статья 63527
▁полной 63517
贫困 63517
â 63507
ms 63475
▁внимания 63475
▁extra 63470
托 63455
更多 63453
▁international, 63435
▁обеспечи 63428
减 63424
▁الإدارية 63419
▁رسمية 63414
ability 63412
初 63408
▁petit 63398
ê 63394
▁calcul 63394
рии 63393
▁195 63393
▁وعدم 63388
▁soon 63380
▁أوروبا 63359
▁secteurs 63355
立 63351
79 63346
宗教 63339
▁>>. 63334
▁Sustainable 63333
▁الجنس 63329
▁hours 63321
▁المو 63312
رق 63309
▁احتياجات 63294
▁случаев 63286
▁gente 63278
▁economía 63272
▁référence 63267
▁A/HRC 63257
▁test 63253
▁G. 63248
▁وبرنامج 63234
▁años, 63228
▁一定 63203
▁h) 63190
هج 63183
▁sabes 63174
▁general, 63164
▁today 63163
جت 63160
▁financier 63147
▁complement 63145
▁أر 63144
▁Où 63142
▁Cumbre 63139
ale. 63109
▁civils 63095
▁причи 63083
ственного 63082
▁содержится 63075
▁T' 63036
OL 63035
ска 63034
гла 63033
ING 63019
获 63018
，尤其是 63007
▁siguiente 63006
▁الإعلام 62990
▁нем 62950
ps 62948
▁maximum 62948
▁ПО 62944
▁2.1 62936
▁получить 62911
▁دولية 62908
，并在 62908
чения 62905
Ц 62899
وض 62898
▁ahí 62894
enn 62886
银行 62855
▁mère 62827
▁reçu 62825
手段 62820
пы 62816
A, 62795
劳动 62795
▁الجرائم 62792
▁qu'en 62768
-f 62761
产品 62733
▁s'il 62713
▁autoridad 62686
▁vamos 62667
▁arabe 62660
▁организациями 62642
▁وز 62642
▁يمكننا 62641
▁rend 62629
кие 62616
ties 62602
▁conferencias 62601
▁تأكيد 62595
▁Children 62569
▁полиции 62567
ll 62552
▁l'efficacité 62552
增 62544
▁الأفريقي 62537
]. 62531
▁العام، 62528
进入 62528
▁сообщения 62527
▁回 62523
там 62507
▁dou 62506
电 62480
的能力 62480
▁propiedad 62477
▁وظيفة 62474
▁señor 62472
▁establece 62467
ственной 62449
▁докладов 62449
нет 62438
▁etc. 62428
，是 62423
امل 62419
▁一切 62412
▁iniciativa 62405
antes. 62398
ibles 62388
▁pe 62371
▁fer 62368
ette 62363
▁يحدث 62357
较 62354
▁силы 62353
▁Верховного 62349
▁explotación 62339
лей 62332
щей 62321
民 62318
▁experience 62298
范围内 62286
▁61. 62285
▁seraient 62272
él 62271
▁alcanzar 62261
▁passe 62240
▁cycle 62239
شت 62229
ô 62226
mp 62225
▁gra 62224
41 62216
2013年 62212
▁categoría 62210
▁adressée 62201
▁outcome 62199
收集 62197
收 62196
▁Del 62173
官员 62171
▁discapacidad 62167
▁دورة 62158
eur 62152
▁الوكالة 62151
s; 62143
仅 62141
联邦 62138
▁Cons 62134
▁والج 62128
▁pasado 62123
▁University 62114
A. 62107
▁ter 62103
▁выражает 62096
▁правительством 62094
▁Or 62074
干事 62074
ful 62054
▁mother 62043
▁Ладно 62039
▁OK 62038
▁嗯 62032
▁exécutif 62007
▁families 61999
ски 61995
▁suivants 61995
》的 61991
▁ذ 61988
ены 61978
市 61967
▁линии 61964
ор 61960
:00 61944
粮食 61927
▁Было 61918
▁entend 61916
她 61908
ثر 61905
▁فعالة 61903
▁последствий 61901
▁hoy 61885
和发展 61882
▁不想 61880
▁Q 61877
▁eux 61874
med 61871
创造 61871
▁UNFPA 61868
适当的 61868
▁الخارجية 61867
щего 61866
▁Relaciones 61852
▁8, 61846
▁لتقديم 61842
▁Когда 61789
▁منح 61789
вить 61788
▁мест 61787
▁معدل 61777
рой 61776
ارت 61774
▁Justicia 61774
▁Research 61768
▁investig 61765
тельным 61763
▁лучше 61751
▁المياه 61746
bo 61741
▁那些 61741
▁ресурсов, 61721
▁قضايا 61721
▁escuelas 61719
特殊 61716
▁text 61712
▁heard 61698
ize 61692
▁France 61681
▁контроль 61672
▁之 61655
uk 61645
▁المتاحة 61645
▁vigilancia 61644
دية 61631
▁institution 61628
▁1- 61625
нения 61601
ضر 61597
▁члены 61588
▁труда 61582
▁sta 61581
情况。 61577
▁bases 61563
▁négociations 61562
▁الث 61551
▁d'A 61535
▁会议 61534
多边 61533
▁import 61524
صب 61522
通 61513
بار 61503
▁العهد 61501
▁informó 61495
3). 61492
▁ними 61484
fici 61483
▁menées 61481
▁والب 61481
▁осуществля 61479
▁приорите 61453
▁أخرى، 61444
▁/ 61431
▁vrai 61426
▁们 61421
▁nothing 61418
▁мер, 61417
t- 61413
▁examiner 61410
苏丹 61405
▁Questions 61399
▁пунктом 61396
لى 61393
▁يق 61348
▁Toutefois, 61302
▁пу 61300
解释 61300
▁Chair 61297
▁locaux 61297
▁futuro 61290
水平 61285
▁شكراً 61271
ّم 61268
美 61263
▁homme 61254
▁propre 61225
▁القوانين 61220
▁share 61219
▁تشجيع 61205
▁الحرب 61203
▁datée 61199
alis 61198
▁необходимые 61175
任命 61154
论 61146
> 61144
的问题。 61138
▁dej 61134
▁62. 61131
▁Joint 61126
▁показа 61126
ck 61122
▁органы 61122
▁avais 61121
▁آليات 61116
▁coming 61113
措施。 61113
▁aujourd'hui 61111
DP 61098
▁infrastructure 61094
远 61094
▁urgent 61079
▁minutes 61075
▁قامت 61069
▁priv 61066
▁ellas 61062
▁فر 61051
将在 61043
▁siguen 61039
增强 61010
相互 61010
▁consiguiente, 61009
▁prevé 61004
▁беженцев 60992
▁международными 60987
▁أصحاب 60970
，其中包括 60961
▁termes 60941
▁放 60938
▁tenido 60934
深 60928
▁ضوء 60922
▁hear 60917
▁للسكان 60917
▁важное 60904
▁مناطق 60904
31 60896
▁укреплению 60883
你 60877
/M 60874
unt 60870
▁posts 60869
▁throughout 60865
▁характер 60853
知 60852
承担 60851
▁« 60837
ене 60824
▁القوة 60821
▁substantive 60819
▁اخت 60817
▁ин 60815
ولا 60807
▁things 60800
▁jusqu'à 60781
▁tratar 60776
ann 60771
▁المر 60769
▁آلية 60766
▁difficultés 60763
▁hijo 60759
▁wo 60748
▁estaban 60747
▁انظر 60736
▁Trans 60717
署 60714
▁Col 60712
▁suit 60711
▁الظروف 60678
▁muerte 60660
▁nombreuses 60651
шие 60616
▁государств, 60601
▁Such 60598
▁لأغراض 60591
.9 60579
▁enable 60572
زا 60566
/2012 60562
▁Unit 60560
▁l'O 60557
领域的 60552
▁回来 60538
▁الوكالات 60536
从事 60528
贫穷 60520
▁sou 60517
▁бе 60506
▁والاست 60504
结论 60501
▁الوظائف 60497
▁Labour 60484
sion 60480
iente 60475
▁comprend 60475
49 60465
▁l'emploi 60463
▁camp 60459
cion 60442
▁EL 60442
避免 60442
وغ 60438
عرض 60426
▁القانوني 60425
▁ground 60422
вались 60420
▁rurales 60418
ени 60410
▁يمثل 60406
42 60404
在内的 60395
▁distintos 60376
北 60375
▁Dr. 60372
يو 60371
▁экономической 60371
▁一直 60363
▁الرابع 60359
▁J. 60352
r. 60351
即 60345
/68 60340
▁train 60333
▁ON 60330
кий 60329
amp 60325
▁осуществлять 60325
емой 60323
/R 60322
核武器 60322
▁卡 60317
▁Policy 60315
▁gas 60313
▁应 60289
数量 60286
▁début 60274
nos 60269
ضع 60268
▁Estás 60266
▁H.E. 60263
▁toma 60256
▁международные 60246
▁tráfico 60245
▁التالية: 60244
▁تو 60236
▁الجنسي 60230
а, 60226
▁الكونغو 60218
▁resource 60214
价值 60210
▁знаешь 60207
▁المناخ 60204
/61 60202
▁pesar 60196
奥 60191
▁familias 60190
务 60181
▁العادية 60176
合作。 60167
ect 60165
▁البرنامجية 60157
▁tratamiento 60149
쓪 60140
▁pen 60138
▁killed 60131
▁aime 60117
▁author 60111
بين 60101
▁)أ( 60097
▁гражданских 60090
▁преступности 60088
有效的 60088
EA 60085
▁١٢ 60082
alité 60080
▁l'un 60062
▁ещё 60056
▁права, 60054
▁demander 60049
空 60044
▁Viet 60028
▁Ви 60017
▁没事 60012
▁origen 60010
▁durée 59997
▁анализа 59995
下的 59991
▁preuve 59990
▁شبكة 59988
第二十 59977
شار 59961
组织、 59959
▁donne 59958
▁لست 59956
▁钱 59956
الم 59928
ational 59926
▁déterminer 59912
▁prix 59911
entes. 59909
ices 59898
صة 59894
▁"ت 59892
▁nosotros 59892
▁trabajos 59891
▁adopt 59890
▁improving 59880
▁взносов 59876
▁оказанию 59876
▁технической 59861
▁oficina 59859
▁UNEP 59854
普 59854
ides 59848
▁cer 59827
代 59813
выми 59812
▁noté 59812
▁pasa 59803
▁travailleurs 59800
▁causes 59793
▁displaced 59788
▁pouvoirs 59786
残疾人 59784
▁事情 59782
▁المملكة 59772
▁делать 59766
－ 59754
▁caractère 59753
▁الاتصال 59750
▁approval 59741
▁orientación 59734
뗚 59716
ule 59712
ОР 59700
▁membre 59698
ante, 59695
▁Genève 59691
有权 59687
NU 59686
mon 59684
▁Secretary 59684
▁العامة. 59684
▁нача 59683
▁2013. 59677
▁receive 59676
观察员 59675
▁contribución 59673
▁pes 59665
pr 59664
▁nacional, 59662
▁عم 59662
▁البيئية 59661
律师 59657
▁أنحاء 59655
▁التعذيب 59647
▁année 59642
▁civilian 59637
мой 59632
sent 59631
▁Her 59617
▁traité 59611
▁d'urgence 59610
▁مشكلة 59605
كة 59604
▁tenemos 59604
商 59603
和社会 59601
▁язы 59600
立即 59599
几 59593
CA 59583
▁بينما 59578
的《 59571
举办 59567
▁государство-участник 59564
▁fondo 59563
▁house 59546
质量 59528
▁انتشار 59527
tiques 59524
基于 59524
▁السياسة 59521
та. 59518
▁network 59516
▁considerable 59509
▁habit 59504
▁girl 59503
▁range 59495
▁FOR 59493
нием 59490
令 59488
详细 59485
ateurs 59480
▁мог 59474
cid 59473
▁conclusiones 59469
▁threat 59459
▁integration 59450
▁нарушения 59447
▁creo 59439
▁hab 59436
app 59431
чить 59425
▁القدرة 59425
▁examine 59412
▁views 59400
▁时间 59392
▁elaborar 59389
▁perd 59388
▁决定 59382
今后 59371
▁stop 59361
▁"C 59356
ников 59354
品 59353
▁educational 59352
▁двухгодичный 59352
том, 59335
室 59305
▁جرى 59297
▁发 59291
▁63. 59290
▁deb 59287
▁madre 59274
▁distribución 59269
▁seule 59265
顾问 59250
تك 59243
ُّ 59232
▁correspondiente 59221
如果 59220
▁قيد 59211
▁prefer 59209
方案和 59208
传播 59187
ult 59178
▁entonces 59170
▁Charter 59169
▁tur 59159
▁fi 59153
森林 59140
▁Mrs. 59128
▁заседания 59116
▁которыми 59109
▁system, 59096
▁formul 59095
塔 59094
▁judiciaire 59079
▁說 59074
ствовать 59070
iers 59065
海洋 59064
▁métodos 59061
▁difícil 59056
▁intereses 59055
▁def 59049
▁cop 59031
▁е 59027
▁التأكيد 59022
cy 59020
▁"S 59018
▁ожида 59017
▁离开 59016
▁Согласно 59013
▁стра 59008
▁أمريكا 59006
▁l'administration 59004
▁приветствует 58999
)和 58994
▁benefits 58985
的规定 58983
感到 58982
▁auteurs 58976
艾滋病毒/艾滋病 58976
▁التركيز 58968
▁зна 58966
职业 58961
▁المعنون 58956
▁места 58954
▁fr 58942
▁satisfacción 58940
核心 58940
▁أليس 58936
条例 58932
▁d'examiner 58929
▁ci-après 58927
▁سبب 58926
▁الموضوع 58923
团体 58918
▁industri 58902
▁Congo, 58899
▁равенства 58898
,000 58895
▁المؤتمرات 58894
▁положении 58893
台 58888
▁jurídico 58885
，应 58881
▁буду 58878
сты 58871
▁II, 58870
▁проведении 58866
▁这一 58860
-related 58856
▁week 58832
ИС 58826
▁broad 58821
طات 58817
▁obstacles 58812
作用。 58811
î 58792
▁includes 58789
▁способствовать 58782
▁تنمية 58774
▁education, 58772
▁observa 58771
▁بـ 58763
ن، 58750
▁incorpor 58750
▁che 58739
вод 58732
院 58727
ress 58725
▁相信 58720
от 58691
▁p. 58678
لاء 58677
ثة 58668
جة 58658
▁continuación 58649
▁Australia 58646
▁са 58645
▁junto 58642
حث 58636
▁72 58622
▁(2001) 58618
《联合国 58617
▁الإطار 58615
▁почему 58611
▁alia, 58600
▁strong 58596
，例如 58595
▁هيئات 58589
建议。 58583
最不发达国家 58581
▁вот 58578
-based 58561
ماء 58555
VI 58553
▁состав 58551
▁feel 58538
▁海 58529
机关 58529
▁важность 58519
▁اللاجئين 58516
▁المجال 58516
▁Selon 58506
▁-tu 58495
▁الدفاع 58482
▁документов 58472
来源 58469
▁cosas, 58455
▁FNUAP 58453
哈 58451
意见。 58451
▁Todos 58445
▁والدول 58418
▁информацией 58412
ression 58401
▁واﻻ 58396
/62 58384
▁последние 58377
نع 58374
▁преступления 58374
▁комиссии 58362
▁总 58362
ке. 58351
cle 58349
▁origin 58344
兰 58336
جد 58320
▁gaz 58311
▁consult 58307
out 58306
勒 58305
▁padres 58304
▁قرارها 58301
▁مبادئ 58285
▁aplic 58281
▁Page 58279
▁Val 58279
▁observer 58278
▁tratado 58272
▁высокого 58256
▁av 58250
ющей 58244
▁той 58244
▁posibles 58220
▁Бе 58218
▁último 58207
％ 58187
▁приложение 58181
éd 58174
/52 58168
هر 58166
/59 58163
▁تغير 58161
▁وبخاصة 58145
рей 58139
▁effects 58139
▁benefit 58137
زل 58136
▁dû 58131
▁高 58121
▁الاجتماعي 58120
▁توجد 58110
▁созданию 58094
inte 58076
▁программам 58076
▁pide 58055
▁program 58055
غل 58053
▁engagement 58051
片 58049
▁一点 58041
成立 58037
▁весьма 58036
cho 58032
▁المش 58019
▁Tom 58014
▁باسم 58003
يري 57998
▁900 57997
▁занима 57996
▁require 57991
-c 57978
ющихся 57978
▁chance 57978
▁认为 57978
cha 57976
相关的 57974
▁64. 57967
人口基金 57938
权力 57909
▁)ب( 57903
适用于 57894
▁التوصل 57891
▁près 57885
▁Sub 57880
们 57876
▁commis 57869
рных 57866
ارد 57862
▁Crime 57858
▁местах 57842
IV 57822
▁regiones 57803
97 57797
▁2- 57787
▁جيم 57773
付 57768
大量 57746
▁Introduction 57745
举措 57739
▁refiere 57735
两性平等 57731
▁Бо 57708
▁(2) 57707
▁internacionales, 57699
▁crucial 57696
▁Banco 57693
/١ 57689
▁сообщество 57688
▁Humanos, 57682
▁قتل 57681
▁conclu 57676
▁ثلاث 57674
▁motivos 57665
▁lesquelles 57651
▁conference 57646
▁Furthermore, 57642
▁وتم 57640
▁recommandation 57638
▁статьей 57636
؟ 57622
рами 57615
▁web 57604
瓦 57602
▁d'améliorer 57581
▁mass 57577
▁actualmente 57575
▁консультаций 57571
▁прежде 57571
ун 57569
рованных 57568
▁interne 57559
提交的 57552
▁prévoit 57543
▁integr 57530
▁Discrimination 57528
▁حلقة 57528
▁明白 57520
▁أق 57516
كان 57515
▁apply 57512
▁dép 57506
▁странами 57500
▁suivre 57492
CC 57485
▁السلم 57480
政 57464
▁investigation 57463
▁منظمات 57460
▁здравоохранения 57457
▁وإدارة 57453
▁benefici 57448
▁само 57440
▁difficult 57439
库 57435
▁Soy 57427
▁gens 57427
▁contexte 57425
▁الحوار 57419
ческую 57409
▁and/or 57409
▁ph 57400
感谢 57396
▁والا 57394
▁difusión 57389
▁الوضع 57387
▁formal 57384
▁1999. 57378
▁realización 57378
证据 57369
▁Ро 57363
inas 57360
▁cannot 57360
▁Сторон 57360
▁كفالة 57348
▁adoptée 57338
шим 57334
▁65. 57333
▁report. 57332
装 57328
▁dés 57323
ables, 57322
▁dead 57312
▁非常 57309
▁term 57307
▁commitments 57306
▁органа 57300
▁88 57299
▁целом 57287
▁рабочих 57285
▁recommandé 57283
pa 57279
▁indispensable 57277
uro 57273
▁disarmament 57269
▁وحماية 57266
▁распространения 57264
▁tengan 57263
▁основании 57256
土著 57251
▁fille 57249
▁торговле 57246
提 57239
▁anterior 57230
福利 57217
▁Си 57207
▁مقابل 57199
▁1.1 57197
▁national, 57190
▁vend 57185
▁Управления 57183
允许 57180
▁لمدة 57176
рам 57168
▁science 57165
▁сказать 57153
خت 57139
▁l'enseignement 57139
▁effectively 57138
цев 57137
开发计划署 57137
▁إسرائيل 57136
/67 57117
▁tuvo 57117
面临 57102
▁Deputy 57101
▁استمرار 57101
▁تضطلع 57092
▁ويجب 57090
▁布 57089
▁introduced 57083
▁التع 57076
▁l'attention 57064
▁van 57058
▁принимает 57043
▁التزام 57032
驻 57028
▁exig 57024
外国 57022
致 57019
▁وظائف 57010
▁قيام 57002
▁pruebas 56988
▁estimated 56987
▁发生 56987
▁لق 56985
/22 56959
▁العدالة 56956
ientes 56952
▁Gestión 56952
٠٠ 56950
льного 56940
▁продолжа 56940
▁communautés 56939
▁Agreement 56929
▁Dé 56928
属 56925
ving 56922
ческом 56918
▁adicionales 56908
▁général, 56907
其中 56907
вания, 56895
▁país, 56880
▁encargado 56850
▁представлен 56850
▁اﻻقتصادي 56841
▁име 56832
ете 56828
▁led 56825
▁الخطة 56788
idad. 56781
▁مبلغ 56772
▁مراكز 56765
рует 56758
▁الاستثمار 56751
▁из-за 56732
▁investigaciones 56725
▁أج 56724
irse 56717
▁China, 56712
▁Tal 56700
▁encontrar 56689
▁dispose 56676
号、 56665
▁version 56662
▁voie 56647
一般 56646
▁Elimination 56642
▁фак 56642
每年 56637
犯 56637
izar 56628
eux 56622
érer 56622
▁financiers 56619
▁vois 56615
▁approuvé 56609
▁criterios 56600
y- 56583
▁enc 56583
▁именно 56576
▁сил 56575
▁avis 56574
八 56568
ced 56567
▁legislative 56558
LE 56550
需 56548
经验 56541
▁sac 56540
架 56538
儿童的 56536
▁alcance 56534
мость 56532
▁l'auteur 56529
运作 56524
行为的 56521
▁guerre 56517
arios, 56509
▁constitue 56503
存 56501
▁vari 56497
gra 56492
现象 56479
iques, 56478
▁قوات 56478
ivo 56467
▁اسم 56466
▁للح 56460
▁traités 56459
▁подписа 56457
ción. 56447
▁territoires 56442
▁توفر 56427
▁recibido 56420
▁ongoing 56416
▁suma 56415
cul 56393
▁3- 56388
▁mercado 56379
▁тут 56374
rá 56366
gen 56359
▁одно 56321
，或 56321
▁принятых 56317
▁estime 56311
▁(م 56306
щее 56305
▁Organismo 56301
▁Под 56291
▁управление 56274
▁Миссии 56273
▁figurant 56269
▁housing 56260
强 56238
▁peaceful 56224
▁programmes, 56224
▁конкретные 56224
▁publication 56211
索马里 56208
در 56206
▁вер 56202
▁местных 56199
再次 56199
▁لاست 56185
▁dificultades 56178
▁كثير 56178
▁Iran 56177
▁territorios 56165
▁الفنية 56162
▁66. 56161
enta 56156
▁loc 56149
▁reason 56149
过渡 56147
▁constituye 56143
▁refugees 56138
生物 56138
tern 56132
▁Creo 56122
公众 56108
▁propres 56105
▁потребности 56100
сс 56095
зна 56093
▁puedes 56085
▁directly 56082
▁directement 56073
▁الحالي 56068
▁órgano 56062
及时 56057
民间社会 56056
ـر 56053
▁совещание 56052
▁Administrative 56038
▁asimismo 56038
问题， 56035
ron 56024
▁据 56022
▁加 56018
▁والق 56014
▁вопросы, 55999
维护 55989
转让 55989
▁stratégique 55985
▁мира, 55970
刑事 55970
▁Rights, 55963
▁enough 55961
▁لبرنامج 55936
▁думаю 55929
除 55916
izing 55911
▁llegar 55911
▁международное 55905
▁Африки 55903
وار 55894
▁States. 55889
▁DEL 55886
▁问 55886
▁financieras 55879
主管 55873
ность, 55872
▁Cela 55868
▁produit 55850
▁боль 55850
▁在这方面， 55848
سف 55847
▁revised 55836
▁loss 55834
▁想要 55830
tivo, 55826
▁пи 55824
▁prévues 55816
ку, 55808
▁قواعد 55803
▁functions 55801
▁qued 55773
▁نظر 55770
/2013 55751
▁Вместе 55751
一级 55749
▁incluye 55745
▁possible, 55738
راق 55736
▁أف 55723
из 55721
▁gobierno 55719
▁لحماية 55705
▁للقانون 55696
емого 55689
▁приложении 55688
/0 55683
▁96 55683
▁возможно, 55677
قط 55666
▁matières 55659
外， 55656
Ж 55655
▁hope 55649
▁tableau 55647
▁систему 55633
▁Yugoslavia 55632
/1996 55625
▁d'informations 55614
▁تل 55613
▁Ни 55608
пре 55600
ченных 55584
这类 55576
▁تنظر 55571
▁ресурсы 55564
▁١٥ 55560
▁modern 55555
▁194 55552
起诉 55538
▁Depuis 55534
▁others 55526
▁Sudán 55520
▁jug 55514
▁quieres 55512
▁transfert 55510
▁généraux 55507
/40 55502
审判 55499
▁jurídica 55498
▁mil 55498
▁partners 55496
？ 55496
ЕН 55485
▁سيد 55474
▁применение 55471
▁Convención, 55465
▁pens 55464
▁Charte 55456
▁也许 55456
جار 55449
▁Де 55429
ater 55427
▁Burkina 55416
▁maintenance 55403
ente. 55388
▁отношения 55387
/57 55385
▁تعيين 55381
tri 55380
▁fuentes 55378
▁тобой 55378
▁estamos 55371
做 55364
是， 55358
▁chapitre 55356
▁只有 55355
▁prohibición 55346
▁Pacific 55342
▁المشار 55335
ثل 55333
经济及社会理事会 55328
电子 55326
▁bad 55310
87 55309
▁بالفعل 55298
儿童基金会 55297
估计 55293
▁0. 55292
恩 55290
▁hospital 55287
依据 55287
地点 55287
▁frais 55262
▁rather 55262
▁subregional 55260
▁متابعة 55241
▁الصدد 55235
集 55234
aut 55224
ях 55217
qué 55212
بط 55209
▁закона 55209
▁señala 55202
武装冲突 55202
ения, 55191
▁呀 55190
危险 55187
▁critères 55172
▁miembro 55165
▁اللجنة، 55162
土著人民 55156
▁(пункт 55153
ges 55151
▁Конвенции, 55141
▁специальных 55137
▁eliminar 55130
ваемых 55129
▁guy 55120
▁pregunta 55119
▁заседание 55118
ры, 55115
▁debía 55113
ato 55110
влен 55108
单位 55108
▁الفئة 55107
▁سواء 55105
▁déclaré 55104
▁West 55102
▁قاعدة 55100
▁أثر 55099
国政府 55098
훐 55093
▁Br 55085
ola 55081
тия 55077
▁devait 55072
▁Somalia 55054
▁consolidation 55053
▁المنت 55050
）、 55049
▁revis 55046
▁donantes 55036
▁amplio 55026
фа 55016
▁mental 55009
▁félicite 55003
▁Control 55002
复 54989
▁فئة 54988
▁extent 54986
ذه 54981
IM 54980
▁特 54980
▁يؤدي 54976
▁exemple, 54972
جه 54971
解 54969
▁critical 54960
▁Раз 54958
申诉 54957
讲习班 54953
▁Min 54946
▁lot 54944
传统 54944
▁utilizar 54940
▁فإنه 54939
▁Tú 54933
▁بذل 54920
▁traitements 54919
▁защиту 54917
▁specialized 54916
行使 54916
▁chefs 54915
▁build 54914
像 54897
جي 54893
工业 54887
▁véhicules 54886
▁79 54877
▁opiniones 54871
form 54869
▁Советом 54859
▁抱歉 54850
基础 54844
▁качества 54841
▁interesados 54837
▁conséquences 54829
▁terreno 54822
和联合国 54819
现 54817
du 54816
的各项 54808
▁第二 54801
انات 54793
▁оказы 54792
inter 54791
▁administratives 54791
▁срок 54786
▁已 54786
ّد 54774
▁fac 54764
外交 54761
▁пяти 54754
▁Summit 54750
▁المسؤولية 54740
▁تج 54736
▁st 54733
▁فال 54726
▁Apoyo 54725
▁destin 54725
▁الشعب 54725
me, 54717
кое 54706
▁фонда 54704
طلب 54700
的" 54696
▁99 54673
tamente 54657
▁quien 54652
▁Gaza 54630
▁всеми 54625
с, 54616
▁coûts 54603
▁territorial 54598
▁بوصفها 54595
职位 54593
▁Tr 54592
▁emb 54586
▁restrictions 54586
声 54585
▁стать 54582
▁language 54578
ья 54574
0) 54570
▁поста 54570
▁Европейского 54567
▁última 54564
第6 54564
▁(говорит 54557
▁fair 54552
▁stay 54548
▁جمع 54541
▁fomentar 54538
▁исследования 54537
▁توافق 54536
▁Committee's 54532
▁proliferación 54530
е. 54528
نف 54518
▁ciudad 54513
ades 54511
然 54507
欧洲联盟 54481
mas 54477
▁السابق 54477
▁جنيف 54465
此种 54455
遭受 54454
▁المنصوص 54446
▁sensibilisation 54445
▁materiales 54439
▁проводить 54435
▁volver 54433
телей, 54430
▁commissions 54428
损害 54412
▁solicitudes 54410
▁resolver 54409
-p 54408
▁realizados 54394
▁проводи 54386
▁pag 54385
▁قضية 54383
ust 54381
ден 54380
▁liés 54376
▁lugares 54368
▁coup 54364
▁Convención. 54358
清单 54357
▁paid 54340
▁beneplácito 54338
щими 54324
▁проблема 54316
▁الأجل 54314
폐 54312
рова 54308
▁(par 54303
▁prioridades 54302
▁partnership 54294
▁guidance 54292
fin 54290
%. 54286
▁قدمت 54283
▁البحث 54281
▁d'app 54280
▁d'examen 54271
-10 54267
▁positions 54260
▁big 54249
民族 54248
▁suficiente 54241
▁along 54240
▁вооруженных 54233
ear 54232
▁exige 54229
▁دورته 54227
▁подготовку 54220
待 54211
▁وثيقة 54209
▁政府 54204
▁Может 54202
宪法 54192
▁اﻷخرى 54191
alization 54184
▁tortura 54183
alización 54181
▁الأفراد 54181
▁وبعد 54181
▁والش 54173
▁роста 54172
▁Хо 54164
▁فعالية 54161
▁Pakistan 54154
캪 54150
▁achieved 54145
▁Ха 54144
▁reun 54142
▁Па 54130
▁للمرأة 54128
▁possibilités 54121
网 54109
▁ребенка 54106
▁militaire 54104
万美元 54095
哥 54094
56 54083
ning 54083
掉 54083
▁plena 54078
▁cuyo 54067
▁"The 54063
▁المال 54055
▁秘书长 54054
▁Persons 54053
▁أود 54048
▁وعن 54042
▁Che 54037
им 54032
记 54031
▁abordar 54029
▁المجموعة 54029
▁half 54026
▁موا 54022
▁المدير 54017
▁Myanmar 54008
▁fire 54008
▁dev 53996
▁друг 53993
▁publics 53990
▁times 53986
▁сторон 53984
▁privado 53983
▁quién 53983
▁одна 53981
▁ونحن 53977
▁Quiero 53975
▁intergovernmental 53973
▁tri 53946
▁البالغ 53946
▁items 53937
的代表 53933
▁proceedings 53932
▁爸爸 53926
▁transit 53924
▁потому 53918
ateur 53914
▁CC 53908
▁ч 53907
▁normal 53900
▁trait 53899
▁actu 53898
▁تكنولوجيا 53888
▁instrumento 53879
▁67. 53878
▁الدولي. 53876
送 53874
核准 53873
▁combatir 53871
ено 53869
▁paix, 53869
▁bat 53864
(1) 53863
▁ألا 53863
▁dispone 53861
所涉 53855
tiv 53850
▁21, 53846
▁Ginebra 53840
▁форм 53838
▁را 53834
农村 53823
▁compétences 53818
▁тогда 53818
цию, 53814
▁ONU 53804
▁создать 53801
des 53794
▁общих 53786
eron 53782
▁الإنسان. 53781
▁dicha 53779
▁welcomed 53775
人和 53757
늻 53750
比例 53747
▁материалов 53746
▁enter 53744
▁cr 53738
自己 53734
ç 53728
回顾 53727
▁celebró 53726
▁country. 53719
▁أداء 53709
▁woman 53700
▁оценке 53691
▁adoptées 53678
▁crise 53657
▁qui, 53657
ality 53655
▁sud 53647
▁produ 53645
岛 53639
▁Закон 53636
кого 53624
▁ratification 53621
▁لك 53620
▁bal 53612
▁تعاون 53607
▁ENGLISH 53606
▁свободы 53602
نين 53598
"; 53596
▁руководящих 53588
чены 53576
人。 53564
▁priorité 53556
共 53551
议定书 53551
▁先 53531
ция, 53524
▁UNHCR 53518
éré 53515
▁courts 53515
▁l'Accord 53509
▁بهذا 53508
断 53506
▁Sommet 53502
RO 53494
▁بع 53493
▁يعني 53478
гра 53477
▁father 53475
名单 53472
自愿 53471
ший 53469
ST 53466
▁estim 53460
鲁 53450
ora 53448
▁prioridad 53447
▁معايير 53447
▁меж 53446
▁86 53432
▁принципы 53431
род 53427
▁determinación 53416
▁далее 53412
▁Haut 53411
太 53397
▁instalaciones 53394
发言。 53388
▁prisión 53381
，还 53378
able, 53375
▁intérieur 53342
▁emergency 53341
▁ولاية 53341
6). 53337
依照 53333
ider 53331
▁что-то 53324
▁رأي 53320
انا 53312
▁illegal 53306
▁organiz 53302
▁تدريب 53298
▁нау 53295
▁يطلب 53284
▁车 53283
se, 53281
▁ORIGINAL: 53280
▁VII 53273
▁совместно 53268
营 53266
▁menor 53265
▁делегации 53263
▁>>, 53259
▁начала 53255
▁unit 53240
▁70. 53238
▁состава 53235
▁Dependencia 53230
▁Comp 53222
▁l'année 53219
▁applied 53216
ismo 53211
▁cover 53204
ement. 53190
197 53187
▁啦 53185
▁الشرق 53176
ров. 53173
光 53162
离 53158
PA 53153
▁المعاملة 53147
ванием 53146
▁wanted 53143
▁Cuba, 53137
▁سبل 53135
▁докладчик 53133
▁Burundi 53121
▁للن 53121
▁عملا 53120
чное 53115
ям 53101
平民 53101
by 53098
▁schools 53092
▁х 53085
itos 53083
迅速 53083
ابات 53082
▁وكانت 53081
▁сро 53075
防 53073
▁ejemplo 53072
▁обеспечивать 53059
▁уда 53056
▁Quién 53051
4). 53050
▁расовой 53042
▁هؤلاء 53027
服务的 53018
▁(p 53014
▁национальные 53012
쇋 53011
对其 53000
▁maison 52998
▁CD 52997
▁identify 52990
▁الاتفاق 52990
▁97 52981
▁بج 52978
▁consulta 52956
▁起来 52943
▁составляет 52938
▁1998. 52936
▁Todo 52932
往 52930
来文 52924
▁Проект 52917
▁решении 52912
▁Millénaire 52906
▁prévenir 52906
主题 52906
▁мужчин 52902
标 52891
▁妈妈 52890
ков, 52887
千年发展目标 52885
pro 52881
▁لس 52881
9). 52876
▁everything 52870
▁الرئيسي 52865
▁مرحباً 52865
ственных 52864
▁indicadores 52854
罪行 52854
▁обмен 52852
▁Безопасности, 52835
理由 52834
高级 52834
▁Africa, 52827
女士 52823
▁move 52815
ـي 52809
▁formulación 52803
▁básicos 52799
لة، 52795
案文 52784
▁районах 52776
维持和平行动 52776
宣言》 52774
▁68. 52769
▁tipos 52765
▁обра 52764
▁أص 52763
كَ 52756
▁(V 52752
▁الأمريكية 52744
▁(J 52732
▁поэтому 52729
▁لـ 52721
▁casi 52711
▁2014, 52696
第3 52692
iles 52690
▁evaluar 52687
▁prevenir 52684
人们 52681
irá 52672
▁إيجاد 52662
▁Gran 52657
▁privé 52656
▁комиссара 52655
▁прогресса 52647
/53 52638
▁заявление 52636
▁предоста 52633
▁那里 52632
▁tribunaux 52630
▁وات 52623
▁Draft 52619
ü 52616
▁Foro 52611
▁резолюцией 52598
▁خطط 52598
▁心 52598
曾 52589
1日 52585
▁цель 52584
▁благодаря 52581
▁structures 52576
▁regulations 52575
供资 52572
▁Seguridad, 52568
ванию 52566
▁prolong 52556
▁شاملة 52553
▁jouer 52547
▁сред 52544
▁financiero 52538
▁Great 52534
▁VI. 52530
▁региона 52525
▁بحلول 52522
▁жела 52511
▁بهذه 52511
▁Optional 52510
вен 52509
▁approche 52499
▁obtenir 52485
C) 52480
▁organis 52473
成功 52473
开发署 52471
▁abuse 52463
▁balance 52452
▁主席 52449
▁أنّ 52442
▁10, 52437
▁tom 52430
愿 52425
▁باست 52423
▁1992, 52412
答复 52408
▁enfants, 52407
▁مق 52388
حص 52377
检查 52372
▁states 52364
▁حقاً 52364
和《 52359
）； 52353
нен 52351
据 52350
ace 52348
▁calls 52346
设 52346
▁учебных 52325
▁cuarto 52323
▁Servicio 52321
뛔 52302
ющими 52298
▁Штатов 52296
▁предоставля 52293
▁respecter 52292
влением 52288
▁vos 52288
▁circunstancias 52274
▁deberá 52264
的信息 52263
ail 52255
过程 52248
▁Salud 52243
▁87 52240
▁ام 52236
▁addressing 52233
▁d'avoir 52232
1997年 52229
▁الجميع 52229
阿拉伯 52228
黎巴嫩 52228
▁Dieu 52223
▁porter 52219
不是 52209
▁Árabe 52207
▁budgétaires 52205
▁Caribbean 52203
▁улучшения 52199
各级 52198
▁Bon 52192
▁Республике 52190
يش 52186
▁واﻹ 52178
▁voluntary 52171
lec 52170
▁denuncias 52165
步 52155
▁Esa 52146
rée 52139
▁information, 52131
▁заявления 52129
8). 52127
▁permet 52126
▁nuestros 52122
▁lutter 52120
▁пункты 52115
▁Prevention 52111
▁hard 52106
▁Kuwait 52097
超过 52082
шей 52081
▁insta 52081
▁paper 52080
▁النهج 52080
建设 52074
▁понима 52071
▁الواقع 52066
▁pénal 52065
reg 52062
三个 52060
▁任何 52048
ars 52041
тя 52036
▁(6 52030
▁cou 52024
▁Assistance 52021
▁fight 52018
▁المقترح 51995
عداد 51994
▁settlement 51993
▁слова 51988
▁égard 51980
▁rates 51970
▁случаях, 51969
▁准备 51969
▁اهتمام 51965
▁的话 51956
▁regard, 51954
▁укрепление 51952
▁causas 51950
▁года) 51947
ей, 51944
▁الثامنة 51939
▁практики 51936
▁الوحدة 51935
рь 51922
ню 51921
▁Pol 51919
研究所 51917
▁мной 51916
▁沒 51910
▁correc 51898
地区的 51892
▁فضلا 51891
▁дополнительных 51874
طي 51869
▁años. 51869
4- 51866
ناء 51866
▁cam 51853
▁بتنفيذ 51852
ula 51851
▁bilateral 51847
zar 51843
anos 51837
▁美国 51835
▁соответствующими 51834
致力于 51834
定的 51828
▁‫ 51826
服 51812
日内瓦 51810
▁présentation 51792
▁interests 51784
ié 51778
▁семей 51772
▁intention 51761
няя 51750
▁различные 51747
▁posición 51742
▁大家 51738
ال، 51734
▁你好 51733
日期 51733
/69 51729
▁Comité. 51726
击 51718
rig 51714
▁Organisation 51712
торы 51709
▁сравнению 51705
改变 51705
▁الاعتبار 51699
▁يعمل 51699
▁quiere 51694
▁sort 51679
▁оказание 51678
女性 51659
▁indic 51650
，与 51647
▁improved 51644
第五十 51637
▁países, 51636
▁audit 51635
▁لش 51633
▁d'assistance 51625
▁71 51622
▁Popular 51613
▁حياة 51609
▁69. 51606
▁wrong 51595
s) 51585
▁اعت 51585
▁fondamentaux 51576
▁l'absence 51568
的决定 51563
les, 51559
▁(2004) 51559
▁утвержден 51549
经常 51547
▁تتخذ 51544
▁وه 51538
▁использованием 51537
▁момент 51536
▁pol 51531
▁System 51517
▁真是 51514
ющее 51513
▁العاملة 51513
▁بالحقوق 51507
▁establishing 51505
бра 51502
▁habría 51502
▁تمثل 51501
▁seek 51499
▁siguientes: 51497
▁والمن 51494
ودة 51482
ان، 51481
▁отда 51469
他们的 51469
▁system. 51468
▁Кто 51468
▁تكن 51458
清 51453
dos 51451
▁членами 51451
▁النسبة 51443
itions 51440
телями 51437
▁puis 51435
▁احترام 51434
班 51430
org 51428
▁hijos 51419
▁(g) 51416
言 51416
▁отдельных 51415
▁submission 51408
▁مشتركة 51406
ack 51403
▁الفقرات 51403
▁哪里 51393
▁Nord 51385
▁occasion 51379
▁السودان 51363
▁continues 51362
▁Комитету 51358
▁press 51355
交易 51355
▁visto 51353
те, 51348
▁trabaj 51338
▁mine 51336
bil 51333
须 51333
▁分 51322
▁показателей 51321
▁reforzar 51317
▁paz, 51315
▁تخ 51315
▁Then 51311
▁costo 51310
商定 51307
▁والخدمات 51301
▁administra 51298
▁и/или 51298
拟 51293
чески 51286
▁lesquels 51281
▁comprendido 51277
na 51265
▁拉 51261
▁Etats 51258
▁гру 51256
▁للاست 51251
▁لمؤتمر 51249
▁14, 51238
▁Herzegovina 51233
/L. 51224
▁1373 51201
сла 51193
▁Kyoto 51190
▁اﻷول 51182
ственные 51181
▁дополнительные 51179
ij 51176
rer 51172
▁durant 51166
▁правила 51166
▁appeal 51164
同时 51164
▁而且 51160
▁conten 51159
▁правосудия 51159
供应 51155
▁الخارج 51149
▁تتضمن 51146
▁sanciones 51144
▁mener 51141
▁применя 51141
вшие 51140
▁секретариат 51136
▁tecnologías 51131
ورية 51123
▁حدود 51119
▁المناسبة 51117
oy 51099
▁المقر 51094
▁اذا 51093
▁hora 51087
▁каждого 51075
▁101 51073
шения 51071
▁практи 51069
▁стратеги 51068
▁chargée 51055
▁органами 51055
قب 51052
▁simple 51052
▁作为 51040
▁Banque 51036
▁bord 51036
▁collec 51036
▁coût 51033
▁отсутствие 51020
▁amenaza 51018
way 51016
▁years, 51004
别 51003
▁12, 50996
▁associated 50996
52 50990
▁políticos 50990
▁Та 50981
▁соответствующим 50972
سين 50966
▁مل 50965
专家组 50946
，以确保 50939
▁الشباب 50930
▁études 50926
▁humaines 50924
▁ways 50921
▁Mu 50919
▁depend 50919
▁mines 50910
▁connaissances 50898
▁它们 50898
▁поощрения 50893
▁финансовые 50890
▁d'évaluation 50883
▁tareas 50877
▁США. 50868
ка. 50867
▁доро 50866
▁بنسبة 50859
ху 50856
▁activities. 50850
▁quienes 50850
行动。 50846
官 50838
فات 50827
راع 50826
▁Ejecutivo 50825
▁régionale 50824
▁kill 50814
عر 50808
，但是 50804
▁Islamic 50799
▁hemos 50790
▁разре 50786
▁dejar 50785
▁意思 50776
▁обращения 50775
▁citizens 50764
▁对不起 50763
▁below 50761
▁содержания 50749
▁للس 50749
об 50744
，我 50741
ّي 50740
▁manque 50727
▁construcción 50712
▁port 50711
▁appliquer 50706
重视 50705
▁económicas 50704
fo 50703
▁Sudan 50703
▁offences 50702
▁القواعد 50699
▁inici 50692
▁الرجال 50691
пла 50690
▁Правительство 50690
▁connection 50689
程度 50680
us. 50679
▁dirig 50675
▁مناقشة 50669
мом 50661
@un.org 50659
▁cas, 50650
▁elements 50650
طار 50642
▁الجنسية 50640
莱 50635
▁processes 50627
old 50614
▁decid 50613
▁quelqu'un 50611
重要的 50599
▁массовой 50590
س، 50589
сси 50582
▁إع 50576
▁road 50575
▁bord1 50566
▁mod 50565
%, 50560
▁развитых 50557
原因 50541
▁rendu 50539
encia. 50538
令人 50537
人类 50535
ма, 50529
col 50524
▁основные 50522
▁économiques, 50521
▁государства, 50517
过去 50511
▁Quand 50506
▁Chief 50503
▁utiliz 50503
тив 50500
يون 50496
▁General. 50493
▁состоянию 50488
修改 50484
ضم 50483
▁mé 50469
密切 50464
▁oper 50453
▁подхода 50452
▁ووضع 50452
istes 50448
▁احت 50447
+ 50446
为了 50444
her 50443
捐款 50442
▁donateurs 50433
▁Mer 50416
▁попрежнему 50398
enci 50393
3- 50385
ur, 50384
▁organisé 50382
办 50365
奇 50363
▁territory 50361
ريف 50360
▁Although 50344
▁Coordination 50332
ائي 50324
国民 50319
资助 50319
MI 50318
少 50318
let 50317
杀 50316
ely 50312
mission 50309
7). 50308
▁engage 50308
лении 50305
▁внутренних 50298
ств 50294
راب 50284
▁principalmente 50278
▁الباب 50275
▁рабочей 50272
▁وتن 50269
▁المرحلة 50258
▁следующим 50255
▁سيدي 50247
▁step 50235
▁анализ 50235
▁supporting 50229
ili 50228
▁Universal 50223
▁الصادر 50213
▁والمت 50209
▁项目 50187
▁accomplis 50181
fs 50180
▁minas 50180
▁свобод 50180
▁check 50179
▁继续 50176
▁reg 50168
▁victim 50158
▁военных 50155
▁Ni 50153
▁المناسب 50144
▁什麼 50135
▁٢١ 50134
▁Republic, 50128
▁comments 50126
规定， 50125
▁pers 50124
▁negotiations 50122
FF 50109
ko 50109
▁приложения 50104
▁serve 50103
▁ظل 50089
学生 50080
▁أستطيع 50077
▁elabor 50071
▁ني 50068
▁drogas 50066
▁Ph 50061
-N 50059
▁puisse 50057
的努力 50051
▁across 50043
▁Бу 50042
▁instamment 50040
osa 50039
▁sesiones. 50039
的一些 50039
▁plenary 50034
▁trabajar 50027
▁قدرات 50014
一直 50003
▁ранее 50002
▁предлагает 49991
▁действий, 49987
设计 49987
▁قدر 49982
▁每 49970
▁palestinien 49957
ico, 49953
ско 49953
▁workshop 49948
▁العليا 49945
蒂 49943
▁ниже 49940
▁обо 49931
aires. 49928
▁públicos 49926
▁71. 49922
▁населения, 49908
▁Syrian 49906
▁средств, 49904
▁independencia 49902
less 49896
▁asociaciones 49896
▁المؤقتة 49895
▁turn 49894
can 49884
▁شعبة 49879
▁Ese 49875
▁spéciales 49870
емый 49860
▁تب 49860
▁считает, 49847
▁تنص 49839
АР 49836
)的 49834
▁pago 49816
▁sous- 49809
▁tenga 49809
根据《 49800
▁compensation 49798
▁confiance 49798
▁l'Office 49787
▁سياسة 49786
达成 49784
غير 49783
必要的 49779
▁женщин. 49778
▁esencial 49776
▁продук 49776
▁ту 49776
▁volonté 49771
▁нашей 49769
tions. 49754
▁cosa 49753
▁للا 49746
▁Pr 49745
式 49742
指 49738
▁inc 49724
▁Technical 49723
▁corruption 49705
ted, 49703
▁carry 49695
▁تؤكد 49692
▁start 49689
▁étrangères 49684
贩运 49683
▁بدور 49677
▁Dem 49668
▁proportion 49666
▁ذكر 49665
破坏 49665
▁acciones 49664
放 49662
ham 49651
钱 49651
▁follow 49648
▁l'occasion 49647
.11 49646
▁предупреждения 49643
▁Comercio 49642
▁утверждения 49639
▁странах, 49638
▁esté 49627
/54 49626
▁Palestine 49625
就是 49618
ole 49614
▁Recordando 49612
认识到 49608
▁Ассамблеей 49605
▁island 49603
▁diffusion 49601
▁месяцев 49597
▁تقريرا 49593
▁LOS 49587
▁Dónde 49573
▁исследований 49573
内的 49563
▁detailed 49557
的是， 49557
▁abus 49553
的情况下 49549
▁استعمال 49546
▁ЮНКТАД 49545
▁المشاكل 49542
▁главным 49540
맺 49536
лизации 49533
لة. 49527
▁следующих 49527
▁cro 49518
▁compens 49517
▁فت 49514
▁Ме 49513
▁Pe 49511
(见 49500
нь 49497
▁المجالات 49495
▁Ejecutiva 49491
▁logro 49490
198 49483
800 49483
▁اﻷنشطة 49474
▁objectif 49471
▁شهر 49471
年龄 49468
▁indicators 49467
▁выбросов 49459
▁安全理事会 49454
提案 49450
的信 49444
59 49442
▁quant 49441
▁services. 49431
▁بس 49429
ны. 49428
▁terrorism 49425
▁Cal 49418
▁البعثات 49418
筹备 49417
▁хочешь 49413
困难 49412
▁($ 49411
人员的 49405
▁appelle 49399
▁informe, 49399
▁ayud 49397
▁réseau 49393
▁rapide 49392
à 49386
▁моя 49379
▁operation 49369
una 49365
ادي 49363
▁التاسعة 49363
▁مرحلة 49363
▁environ 49358
▁quatrième 49356
ства. 49355
▁جلسة 49345
▁высшем 49343
▁entities 49342
▁went 49340
▁полного 49340
▁A/C.1 49339
▁Ali 49335
54 49333
▁المبلغ 49322
▁уровнях 49314
▁ﻹ 49304
ем, 49302
▁часто 49302
▁Ve 49296
▁passer 49293
▁profesional 49288
TO 49283
скому 49272
的， 49270
▁حدوث 49263
▁международному 49260
▁рассмотрению 49257
▁petits 49255
▁شركة 49255
▁achieving 49254
▁Asociación 49248
的重要 49240
▁Pos 49239
при 49236
▁forced 49235
▁fine 49231
▁luego 49231
▁باﻷ 49228
тый 49222
寻求 49219
ude 49201
▁podía 49198
▁повышению 49193
▁sit 49184
▁consecuencia 49179
指控 49178
علم 49176
▁consistent 49169
▁(E/CN.4 49167
▁然而， 49166
▁create 49161
▁此 49157
采取的 49157
▁государство 49156
▁Комитетом 49150
()، 49146
▁конферен 49146
▁неправительственных 49122
▁فرصة 49121
▁ومت 49120
▁guys 49117
▁нищеты 49117
▁联 49112
▁планирования 49108
▁People's 49107
▁Jo 49106
▁complaints 49101
تص 49091
▁две 49090
▁cri 49088
▁familiar 49088
▁нового 49088
七 49088
▁正 49084
▁participé 49079
她们 49076
шение 49075
▁H. 49072
▁Di 49070
显示 49070
▁Venezuela 49052
听 49049
▁scope 49039
▁программе 49034
作了 49032
▁إنتاج 49030
▁многие 49015
▁infraestructura 49012
▁marchés 49010
建议， 49005
▁Cuadro 48997
▁complete 48994
▁Mira 48982
▁riesgos 48976
▁دي 48974
▁"E 48970
▁s'agit 48968
平均 48953
▁"D 48951
▁сек 48950
83 48945
▁reconoce 48945
▁pension 48944
▁公 48944
▁منا 48940
▁Third 48939
▁транспортных 48936
пер 48933
▁retour 48933
▁النص 48931
▁правительств 48927
▁وأعرب 48918
ATION 48910
▁أنتِ 48894
▁inversión 48890
▁организаций, 48887
89 48886
▁Давай 48872
▁bueno 48871
▁профессиональной 48864
ándose 48858
▁اي 48846
▁transición 48845
▁dólares, 48841
▁الدوري 48831
▁Voy 48830
ونة 48829
▁включить 48829
▁li 48817
▁يتضمن 48816
▁Here 48810
▁émissions 48808
▁بطريقة 48806
▁направленных 48801
300 48794
тые 48793
第四 48789
▁d'Ivoire 48768
▁sécurité. 48762
▁majority 48761
죋 48761
所需 48759
▁لﻷمم 48755
私营部门 48755
专 48752
▁сельских 48750
监狱 48747
IP 48745
▁comités 48742
▁textes 48733
лин 48726
▁North 48725
▁союза 48719
▁activities, 48716
师 48702
▁concept 48693
OU 48687
▁сведения 48685
▁forest 48680
副 48680
适应 48679
cep 48662
elo 48656
le. 48646
▁celebración 48645
▁time, 48643
源 48637
kh 48636
ным, 48634
▁وجمهورية 48632
▁Après 48629
▁помочь 48626
发现 48625
▁Ind 48621
底 48621
计算 48619
▁hincapié 48615
we 48613
able. 48611
▁developments 48603
目 48593
orte 48586
▁Climate 48586
▁purposes 48581
▁dirección 48571
шен 48563
▁البحرية 48561
▁حرية 48561
▁orador 48551
тых 48550
之后， 48547
▁各 48545
▁العقد 48542
▁جد 48534
召开 48516
▁الشركات 48509
▁priorités 48505
▁although 48504
▁side 48500
تهم 48496
▁aliment 48491
▁المخصصة 48489
▁行 48487
кон 48486
居民 48485
%) 48484
وفي 48480
▁проекту 48477
▁cab 48469
▁considerar 48469
▁والمؤسسات 48466
اص 48465
тивных 48464
▁liber 48464
▁adap 48456
合法 48455
/1995 48454
خط 48453
▁dès 48448
双方 48448
▁designed 48447
igh 48444
▁72. 48443
▁наименее 48435
▁необходимых 48430
▁short 48429
制裁 48429
早 48429
IA 48428
▁violence, 48421
▁Cultural 48416
▁Kar 48415
تنا 48409
▁conseils 48405
▁cursos 48399
性质 48399
▁регионе 48397
▁happened 48396
，向 48384
▁capacity-building 48378
弹 48372
的行为 48370
▁Ok 48357
▁associations 48354
▁缔约国 48354
▁existentes 48341
高级别 48341
▁politiques, 48340
▁Bel 48338
▁inversiones 48338
▁несмотря 48337
▁1980 48336
▁cierto 48332
▁финансовой 48327
▁Countries 48324
▁أنني 48323
▁éxito 48318
▁مقدمة 48318
▁النفقات 48315
▁Proyecto 48311
щ 48294
▁لع 48290
ique. 48287
▁ask 48277
▁ситуации 48274
▁resid 48273
▁Japan 48272
便 48267
复杂 48264
▁operacionales 48258
▁巴 48256
▁social. 48243
▁africaine 48237
цен 48235
▁كا 48231
邀请 48228
▁c'est 48226
tation 48224
▁الرقابة 48221
▁Sé 48220
▁المحاكم 48206
▁помощи, 48204
▁Ro 48192
▁définition 48191
ارا 48188
▁全 48185
ode 48180
▁bou 48162
▁تعد 48161
ith 48155
éra 48144
▁إدراج 48136
▁allí 48117
服务。 48113
模式 48113
▁например, 48111
%的 48105
anci 48104
82 48078
▁brut 48075
▁гендерного 48071
▁contar 48068
假 48064
tive, 48063
第15 48059
▁приняла 48053
▁informé 48024
PR 48018
残疾 48009
▁único 48007
▁пред 48000
▁l'intérieur 47995
▁sufficient 47990
ener 47989
，如果 47989
▁known 47988
▁стандар 47987
чная 47986
▁monitor 47976
有所 47974
▁مجرد 47966
▁efectivo 47951
▁pose 47949
▁appar 47943
▁claims 47940
ory 47939
▁Ouais 47939
▁thème 47938
▁financi 47927
▁каждой 47926
▁بلغ 47925
▁преступ 47923
▁وتحسين 47915
了一个 47908
项目的 47904
▁كوريا 47887
of 47885
غا 47876
SP 47875
▁Sección 47868
▁وأضاف 47868
▁avoid 47857
▁консульта 47850
所述 47841
лению 47836
▁(A/HRC 47832
▁AL 47832
洛 47832
各个 47830
▁Kh 47827
▁registro 47824
▁nadie 47815
▁полу 47809
▁слишком 47808
▁familles 47802
▁شر 47797
▁فوق 47797
伦 47794
如下： 47792
▁independiente 47780
han 47778
▁estructura 47774
▁الآراء 47774
▁внутреннего 47773
ards 47770
感 47755
▁принципа 47750
▁desea 47747
тельство 47746
▁Nam 47731
واء 47729
▁Protección 47725
▁ACNUR 47722
▁عناصر 47719
▁Пере 47717
▁cifras 47716
▁73. 47713
램 47703
omb 47695
▁After 47682
切实 47677
▁Rep 47672
▁margin 47671
▁continuing 47668
▁الأقل 47661
hi 47658
▁تحليل 47658
▁entendu 47653
▁политической 47646
▁parts 47641
▁المجتمعات 47641
后续行动 47641
▁администра 47630
▁المصلحة 47623
▁core 47621
▁миссии 47621
未来 47621
ativ 47617
ждения 47608
рить 47607
▁مختلفة 47600
圣 47597
注 47593
并不 47582
ياء 47572
▁وخ 47571
▁Environmental 47561
▁Штаты 47554
▁создании 47554
▁بط 47553
▁Personal 47552
حدث 47549
▁выда 47543
▁desarrollar 47538
▁сделал 47537
▁ЮНИСЕФ 47535
▁斯 47528
orn 47527
▁entr 47524
▁run 47524
）， 47521
▁шта 47514
▁distintas 47510
▁сюда 47501
▁الأخيرة 47501
▁بتقديم 47500
移徙 47480
tage 47476
▁переговоров 47465
修正 47464
发表 47464
▁Administration 47459
ще 47458
▁unas 47456
▁لهم 47452
▁d'entre 47446
ancia 47441
▁class 47437
▁observó 47437
▁char 47429
▁имеющих 47428
▁центра 47425
▁faite 47408
▁code 47407
▁fe 47406
▁чер 47403
▁بدء 47395
-h 47394
▁invite 47391
▁ди 47388
esti 47387
报告中 47382
▁orient 47371
▁HCR 47362
oles 47361
▁نيويورك 47361
▁entités 47360
cas 47352
лены 47350
▁масштабов 47340
▁especializados 47339
▁transferencia 47338
الات 47333
常 47333
▁palabra 47331
▁السنوية 47326
▁guard 47325
енные 47322
▁perspectiva 47322
▁للتعاون 47314
▁اليونيسيف 47311
照 47311
▁гуманитарной 47308
▁ويُ 47300
酌情 47300
▁propia 47291
▁обслуживание 47290
▁process. 47281
▁years. 47270
▁резолюцию 47267
▁annuel 47261
▁sitio 47261
▁3.1 47256
▁buen 47254
циям 47250
вшихся 47244
▁mejores 47238
rom 47236
▁Canada, 47233
1年 47232
anda 47226
▁economic, 47222
(S 47221
▁تواصل 47219
عادة 47216
加拿大 47210
▁arrive 47206
▁данной 47205
▁89 47200
▁institu 47194
ité. 47193
ría 47193
▁أبي 47193
▁المذكورة 47185
▁juicio 47184
▁года; 47182
命 47179
▁методов 47177
▁children. 47176
效 47170
▁involving 47163
▁Op 47162
▁l'espace 47162
/29 47157
rit 47156
▁presencia 47155
▁مستويات 47153
▁повышение 47146
▁وزيادة 47146
▁гаранти 47140
诉 47126
和技术 47121
tiva, 47118
чению 47118
具 47117
▁программу 47111
▁الدستور 47110
优先事项 47110
▁вра 47109
▁المكان 47106
▁realizado 47101
▁работы, 47100
itar 47095
тивный 47088
系统的 47086
/55 47077
非正式 47074
▁signed 47062
▁task 47061
▁учиты 47052
▁наблюда 47050
▁peligro 47042
▁cerca 47039
.7 47035
рий 47031
百 47021
▁الدراسة 47020
▁(П 47013
▁mañana 47005
▁الطبيعية 47001
▁избира 47000
▁сообщества 47000
▁youth 46993
▁哈 46991
▁nucléaire 46990
的一项 46989
▁функции 46983
▁directamente 46982
介绍了 46977
/L.6 46970
▁объеме 46967
▁العنصري 46966
▁заключается 46958
提及 46951
人权委员会 46949
тить 46948
▁люди 46944
▁подход 46943
▁ظروف 46938
▁E/C.12 46929
行动的 46928
▁apporter 46919
▁ряда 46919
▁явля 46919
▁الطريق 46918
▁periódico 46915
▁جزر 46915
▁efectiva 46913
▁Конвенции. 46910
صف 46902
▁encouraged 46896
▁escala 46896
▁1997. 46893
anza 46889
ОМ 46887
▁perspective 46884
▁d'affectation 46883
ّن 46880
tt 46878
ваны 46878
руется 46878
▁administr 46878
▁"P 46872
，从 46872
▁المخاطر 46870
▁ضحايا 46869
▁زال 46859
▁إضافة 46857
▁responsabilités 46854
▁четыре 46854
▁الدولية. 46851
▁текст 46850
▁Закона 46831
▁prié 46825
atory 46824
▁источников 46804
▁razones 46802
ables. 46800
▁(W 46798
组成 46787
▁spécifiques 46784
يلي 46782
mento 46781
▁Journal 46780
▁séances 46778
▁والخمسين 46778
тивные 46773
▁出来 46773
тро 46765
▁mari 46760
нам 46756
训练 46751
▁报告 46750
变化 46749
▁يلزم 46745
▁передачи 46740
▁Совету 46737
ction 46735
чено 46730
▁النطاق 46729
нной 46727
▁disaster 46722
▁nor 46720
▁لﻻ 46719
тра 46716
▁голо 46716
▁Ку 46714
▁教 46713
▁لتحسين 46708
▁направленные 46705
▁CON 46702
▁проведению 46700
▁Forces 46697
▁الروسي 46695
查明 46693
▁показатель 46692
支 46692
ister 46686
ها؛ 46685
▁faible 46680
▁forum 46680
第五 46678
▁Commission. 46677
▁methods 46676
▁تبادل 46667
ár 46666
▁Population 46666
▁الفلسطينية 46653
▁إست 46652
▁والعشرين 46649
▁raised 46642
▁dispos 46641
▁поддерживает 46641
▁كامل 46637
▁технологий 46634
▁السامية 46634
▁Members 46633
死亡 46633
ar. 46625
以上 46621
عيد 46620
▁L'A 46609
▁المشورة 46605
▁confirm 46604
▁présence 46602
/ال 46592
▁iv) 46590
▁maintain 46586
精神 46564
▁covered 46563
▁ordinario 46563
兵 46562
▁sab 46559
iter 46554
мых 46553
▁данного 46543
▁hechos 46535
▁существующих 46534
ños 46530
▁التخطيط 46526
▁مدة 46526
以来， 46526
▁получа 46525
зия 46521
▁exploitation 46515
▁التصدي 46514
▁المتخذة 46512
▁третьей 46510
-vous 46507
▁-moi 46507
▁établir 46507
▁reached 46503
▁الدين 46501
▁places 46497
▁harmon 46494
حات 46490
ump 46487
▁respective 46482
ارب 46473
▁travail, 46473
▁делу 46460
▁تقرر 46460
него 46459
▁подготовлен 46456
▁والف 46455
мые 46449
▁بحيث 46447
▁حظر 46442
▁новой 46441
▁11, 46439
▁crimin 46439
рованные 46432
▁& 46422
▁subs 46421
▁باستخدام 46410
ющиеся 46406
тивного 46404
рии, 46402
▁libertades 46402
▁طريقة 46400
▁hubiera 46399
шать 46385
▁measure 46383
▁قبيل 46382
▁cur 46377
▁пять 46377
▁Community 46373
▁Ham 46371
▁обеспокоенность 46365
和经济 46364
ــا 46362
▁dónde 46360
▁Liberia 46357
▁norm 46356
▁part, 46354
▁federal 46351
/27 46344
▁hum 46338
▁١٣ 46332
▁районе 46330
机构、 46329
▁السنوي 46324
ческому 46318
▁للد 46314
▁玩 46308
▁региональном 46307
▁conocer 46306
▁показатели 46301
▁назна 46292
不得 46292
▁Sabes 46289
ций, 46282
▁Expertos 46279
▁التكنولوجيا 46278
▁déployés 46275
▁этапе 46274
дить 46268
▁來 46267
的任务 46267
▁institutions, 46264
支持。 46262
lin 46257
▁destrucción 46254
▁civil, 46250
判决 46238
的政策 46234
▁ailleurs, 46228
2014年 46227
0,000 46226
/1994 46222
▁接 46211
ждение 46194
мет 46193
古巴 46192
▁juge 46190
步骤 46173
▁جملة 46162
▁любой 46158
▁transports 46155
▁وخاصة 46153
▁بوجه 46145
不会 46141
▁و/أو 46135
▁señal 46133
▁технического 46131
情况下 46123
▁والك 46122
▁外 46122
▁har 46118
▁hor 46118
رى 46108
▁faudrait 46106
▁الأحكام 46090
▁تعلم 46079
▁مسؤولية 46072
▁movement 46067
кая 46064
打 46062
▁стратегий 46056
层 46052
▁femmes. 46051
▁السابعة 46050
рованы 46047
▁target 46044
▁women. 46044
▁Any 46026
▁looking 46022
▁ذلك. 46017
▁rester 46009
بية 46008
vé 46002
▁74. 45996
▁Ассамблеи, 45996
ert 45994
▁prepare 45992
▁الكوارث 45988
价 45975
400 45969
▁фонд 45965
概念 45963
▁mentioned 45959
▁Тем 45955
▁القائم 45955
▁оказа 45954
至少 45951
▁اﻻتحاد 45940
нами 45937
▁инициативы 45929
▁электро 45927
▁75. 45926
fic 45909
▁وبال 45908
▁R] 45907
▁Guatemala 45906
▁(В 45905
▁اع 45897
▁鉴于 45892
▁сдела 45879
▁اللجوء 45876
▁بروتوكول 45873
首脑会议 45873
换 45869
拟议 45863
先 45852
нение 45851
▁удовлетворением 45847
لاف 45846
▁الشعبية 45845
体系 45845
▁multi 45842
▁Prie 45838
▁interrog 45831
▁الإعلان 45829
每个 45824
▁effectiveness 45821
▁tratos 45821
▁1986 45820
▁sites 45809
▁UNITED 45805
▁crédit 45800
▁Islámica 45797
▁supply 45793
▁للمساعدة 45783
▁dic 45781
▁مو 45774
▁انتهاكات 45768
的资料 45766
▁consiste 45764
包 45761
▁وأشار 45758
卢旺达 45757
телем 45756
-H 45754
▁بق 45753
▁examinó 45751
-м 45749
▁essentiel 45749
▁Because 45742
▁France, 45737
▁几 45733
▁external 45732
LA 45730
▁follows: 45716
▁وتوفير 45713
▁norma 45706
▁safe 45703
▁والبلدان 45699
▁conocimiento 45697
▁goals 45689
▁достижению 45684
ager 45680
▁التحضيرية 45676
▁humain 45668
▁предусматри 45657
▁d'h 45654
▁требования 45654
▁options 45652
53 45651
▁распространение 45651
▁внутри 45649
▁Señor 45648
m, 45645
▁explo 45644
▁pros 45639
▁很多 45627
اند 45622
举行了 45617
▁المق 45614
▁minorías 45613
▁اﻷسلحة 45610
▁analyse 45608
▁المكاتب 45606
▁señalar 45601
▁siguiente: 45601
▁تكفل 45589
语言 45588
▁acte 45585
▁c. 45581
捐助 45581
▁necesaria 45579
刚果民主共和国 45571
▁предлага 45569
▁موجز 45566
ак 45563
▁particularmente 45559
▁1996. 45555
载 45555
▁propio 45544
▁никаких 45544
▁concretas 45539
▁这儿 45537
敦促 45517
▁طرف 45512
’ 45506
▁تعرض 45495
▁accountability 45494
实质性 45494
вила 45491
льный 45489
▁Policía 45488
▁المدنيين 45480
▁76. 45479
货物 45475
▁الجنوب 45470
▁بص 45468
лан 45464
研讨会 45455
▁permit 45453
حية 45448
ese 45443
▁النار 45442
▁хотела 45440
600 45439
▁rapport, 45439
▁reportedly 45437
дно 45434
▁AC 45432
▁cuya 45430
▁назад 45428
告 45428
养 45424
，必须 45416
▁respuestas 45414
磋商 45413
▁nuit 45411
den 45407
▁Hi 45403
▁بالا 45398
▁ترى 45395
▁Training 45393
与发展 45391
▁وعلاوة 45390
▁relationship 45378
▁deberán 45373
化的 45372
▁indemnización 45371
▁practical 45368
▁إصلاح 45368
报告， 45367
▁УВКБ 45366
▁makes 45363
стов 45360
▁centrale 45360
тие 45357
▁celebrado 45352
три 45351
▁Document 45351
ят 45348
管辖 45348
сте 45347
▁Конференция 45346
اج 45345
▁МООН 45335
▁إدماج 45335
▁дома 45334
▁تستطيع 45326
ثي 45317
راج 45309
▁Marco 45308
(c) 45303
▁بدون 45302
▁Moreover, 45301
尼亚 45300
▁anteriores 45294
▁家 45290
рок 45286
▁сто 45286
▁(in 45282
▁beyond 45280
造 45279
▁اﻷساسية 45278
▁favoriser 45277
▁Tienes 45274
▁publiques 45265
▁Elles 45264
▁requires 45261
▁дней 45251
5年 45250
▁clearly 45248
易 45244
▁3) 45243
▁Indigenous 45243
▁الالتزامات 45240
▁مبدأ 45237
▁وزير 45237
▁وين 45230
▁آسف 45223
leg 45221
发出 45215
▁семьи 45210
lu 45206
▁الخط 45198
▁Status 45184
▁CNUCED 45182
▁pan 45182
以前 45176
站 45175
▁министров 45168
▁activity 45165
▁Rappelant 45154
应用 45148
▁humains 45147
▁отмечает 45141
▁المعاهدة 45140
▁Oriente 45138
▁Uh 45137
▁существует 45133
▁extend 45127
▁форме 45125
▁estén 45124
води 45116
▁проблем, 45110
▁Sp 45107
▁77. 45103
ta. 45099
▁Cas 45098
▁التحديات 45098
▁направления 45086
▁terres 45082
获取 45080
▁récemment 45078
ir, 45074
▁الدخل 45073
emp 45071
▁Ou 45067
▁l'échelle 45066
u. 45064
▁معينة 45058
备 45056
▁мандата 45052
▁Projet 45051
▁though 45049
▁trato 45040
ционный 45034
▁absence 45032
▁supérieur 45030
وال 45029
▁собствен 45027
صول 45025
▁judges 45021
ène 44985
▁1995. 44984
▁、 44984
▁اﻷول/ديسمبر 44981
sa 44980
的目标 44979
▁serv 44977
▁Eh 44968
▁propone 44966
АТ 44958
▁للص 44955
▁pequeños 44954
льно 44949
▁فعال 44949
▁parvenir 44927
▁Exteriores 44917
者和 44916
▁arrested 44915
▁Council. 44914
起草 44911
▁hoc 44910
▁armados 44909
▁consecuencia, 44905
or, 44902
▁single 44900
▁تغيير 44900
ture 44897
▁level, 44891
▁concluded 44888
▁model 44888
▁أساسية 44880
▁предусматривает 44879
谈 44878
فظ 44874
▁respec 44866
▁longer 44865
▁trying 44858
▁пози 44854
▁resulting 44852
вающих 44851
دول 44850
ieran 44845
▁110 44842
▁menace 44841
▁специальной 44838
▁الاختياري 44834
▁alleged 44833
▁предоставление 44830
ظمة 44820
▁fiscal 44818
接触 44813
▁обеспечении 44807
▁Desarme 44806
▁realiz 44800
▁Суда 44797
▁рассматри 44794
▁beneficios 44791
▁industrial 44790
▁喝 44787
▁Pres 44786
issent 44783
ченные 44782
▁confianza 44782
延长 44780
▁الإعاقة 44778
▁第一 44778
▁законодательства 44777
▁created 44771
▁appreciation 44769
mi 44763
降低 44753
▁Mission, 44730
欧 44728
دى 44720
▁моей 44716
▁الأسرة 44713
▁ترك 44713
▁boy 44712
▁المستقبل 44710
特别是 44701
▁الأمنية 44690
▁нее 44689
▁Afghanistan 44681
千 44677
▁recently 44675
low 44670
▁рассмотрении 44670
▁منه 44668
主义 44668
▁preocup 44658
▁служб 44653
▁欢迎 44648
▁S' 44642
▁мире 44642
imp 44641
tie 44635
▁Porque 44634
▁partenariat 44632
/s 44625
ators 44625
▁إصدار 44623
▁realidad 44621
▁traditional 44616
流动 44614
/PV 44613
▁constituent 44609
باء 44603
port 44602
ine, 44601
日益 44601
▁defensa 44595
▁series 44591
вед 44590
▁المتوقع 44590
ـد 44589
▁النزاع 44587
زة 44584
▁saw 44584
▁scientific 44580
▁choses 44579
▁creation 44573
▁تعديل 44573
▁١٤ 44568
▁Leone 44562
iciones 44561
uss 44561
телям 44560
▁وهناك 44559
▁construc 44555
hed 44552
▁professional 44546
▁住 44546
▁تط 44545
acy 44544
法治 44540
▁categorías 44531
▁estudi 44530
▁br 44526
▁aff 44525
▁обяза 44523
▁аспек 44521
▁أعرب 44519
▁populaire 44501
▁applications 44499
▁ميدان 44495
▁وبالإضافة 44488
▁manner 44484
启动 44483
▁(CEDAW/C 44481
▁Otros 44479
▁consequences 44478
▁اﻻن 44477
治理 44476
▁themselves 44474
▁islamique 44472
▁connaître 44460
▁(198 44459
的各种 44456
▁изменений 44453
▁intended 44450
шее 44444
▁الأداء 44443
▁internacionales. 44441
物质 44441
▁Азии 44440
▁jus 44430
▁diplom 44427
▁prostitution 44427
数目 44425
▁مراجعة 44421
нного 44419
▁قررت 44417
راد 44413
▁Jack 44413
ulation 44412
▁الهادئ 44412
▁группе 44411
不可 44410
62 44406
▁особое 44404
▁сме 44400
▁l'intégration 44399
▁publié 44397
▁ll 44396
▁collective 44391
▁Секретариат 44390
▁attack 44388
▁Международный 44388
▁Ella 44384
▁cuotas 44383
▁состоянии 44383
▁CEE 44381
▁Promotion 44380
▁suivantes 44375
的工作。 44374
的社会 44366
▁ville 44352
▁amend 44349
执行《 44344
▁الميدان 44343
죕 44334
▁соста 44332
▁político 44329
▁debates 44326
шего 44325
▁garantías 44325
▁mauvais 44322
▁rob 44321
▁إد 44319
▁والمع 44316
▁discrimination, 44314
▁معا 44314
у, 44313
▁обмена 44308
58 44304
▁requisitos 44304
▁indicateurs 44299
▁٠٠٠ 44296
fa 44292
▁fourni 44290
▁gusta 44286
规范 44282
▁ففي 44280
例 44278
-7 44277
▁шестьдесят 44276
▁أوه 44275
▁ю 44267
ge, 44266
▁Где 44255
▁توجيه 44254
▁характера 44248
▁الرصد 44242
▁trust 44241
▁redes 44240
▁بينها 44240
数字 44240
▁совета 44234
yer 44233
▁estabilidad 44233
▁إل 44231
57 44229
▁ограничен 44226
▁arrest 44224
▁201 44221
/21 44219
нуть 44219
与联合国 44219
火 44217
▁resources, 44215
事实 44211
▁représent 44207
极 44205
▁قلت 44204
▁لصالح 44197
▁секторе 44194
-b 44189
▁presenta 44189
راف 44188
印度 44187
чными 44184
公开 44183
▁الطوارئ 44179
▁Tous 44176
jan 44175
▁revisión 44167
▁بمن 44167
того 44163
▁موقع 44163
/2014 44159
رة، 44150
▁совещании 44143
▁المل 44129
▁reserv 44124
▁сотрудничеству 44121
▁Pide 44114
▁Asistencia 44113
▁المنشأة 44110
▁образования, 44109
▁مرفق 44104
▁توسيع 44100
▁amigo 44098
▁humanitaria 44095
▁success 44094
▁الكيميائية 44086
▁eficaces 44080
▁Африке 44079
效率 44078
▁declar 44073
▁عديدة 44072
价格 44072
▁ЮНФПА 44065
▁tax 44063
▁véhicule 44050
▁raisons 44046
▁responsibilities 44045
ours 44040
▁реаль 44032
国、 44027
的作用 44026
▁объек 44018
تى 44016
▁норм 44012
▁deleg 43997
武装 43993
يط 43988
▁ис 43987
▁dollars, 43986
▁المدارس 43985
فية 43976
▁وحقوق 43973
▁llev 43964
▁أعلى 43962
▁مدير 43957
留 43957
ومة 43955
系 43955
▁точ 43954
▁embargo 43951
▁креди 43947
лением 43945
▁البيان 43944
▁invité 43940
▁reglamento 43937
▁إذن 43933
▁formuladas 43928
▁inclusión 43922
▁妈 43921
的经济 43921
▁garanties 43920
▁Nuclear 43917
ّا 43914
▁improvement 43908
▁зо 43903
▁Iraq, 43899
余 43893
قرار 43891
▁女 43889
限 43882
▁circumstances 43878
▁特别 43876
▁entry 43874
▁factores 43871
▁importa 43871
▁chacun 43863
▁IS 43844
▁cra 43836
▁رغم 43836
mb 43835
半 43835
▁قدره 43833
反映 43828
▁للعمل 43823
▁reflected 43822
/Add. 43817
▁debt 43816
▁производи 43816
特定 43815
▁Kenya 43814
▁интеграции 43803
▁progres 43802
▁أخبر 43802
▁علمتني 43802
mes, 43801
▁بو 43795
▁عالم 43785
▁настоящей 43784
▁l'objectif 43773
▁internos 43764
▁female 43762
关 43761
тно 43760
▁выполнять 43758
▁long-term 43757
CH 43747
订正 43744
大多数 43743
有限 43740
将继续 43739
▁Программа 43738
▁podemos 43735
▁goods 43731
▁decide 43702
▁Экономического 43692
▁экономических 43688
дов, 43682
ali 43671
вай 43666
▁сумму 43665
▁запре 43662
▁regul 43659
▁вос 43650
却 43650
▁avances 43645
▁للمادة 43644
ome 43639
اح 43636
ОД 43635
▁السﻻم 43633
▁ولل 43632
▁CP 43629
▁بجميع 43627
▁وهذه 43624
▁اقت 43622
▁هدف 43621
化学品 43619
▁تجري 43613
▁своим 43611
▁государственного 43610
▁أخرى. 43606
▁تستخدم 43603
▁soir 43601
-R 43600
뗘 43593
▁4.1 43592
▁someone 43590
信托基金 43590
▁艾 43588
▁publications 43587
▁механизмы 43586
▁"R 43582
▁озабоченность 43581
olog 43572
、联合国 43572
▁significa 43571
▁обязанности 43567
arg 43566
▁النظم 43562
▁ordinaire 43553
▁donn 43552
ذكر 43551
▁retard 43541
生效 43541
▁(resolución 43533
▁٣١ 43531
▁minorités 43525
▁اعتمدت 43524
▁Просто 43521
чет 43516
▁92 43513
▁сессии. 43509
دة، 43508
▁entorno 43504
▁India, 43503
▁законодательство 43501
▁почти 43500
▁سكان 43498
▁culturales 43494
▁Imp 43493
贸发会议 43491
▁٣٠ 43485
▁الهند 43475
数额 43471
男女 43470
▁sang 43469
▁لمجلس 43468
辩论 43468
– 43465
5). 43464
▁catégorie 43464
▁réaliser 43464
▁исполнение 43462
▁قالت 43461
▁01 43460
▁criteria 43450
▁tempor 43447
▁regions 43446
▁五 43446
▁cont 43440
▁formulation 43434
▁jurisdiction 43431
▁وسل 43425
▁идет 43422
▁воздействия 43420
m. 43418
ليل 43407
▁过来 43404
вил 43398
▁Caribe 43391
раз 43388
▁محل 43388
is. 43385
ant. 43384
十分 43380
分别 43379
筹资 43378
▁algún 43376
▁Siège 43374
（见 43369
-19 43368
тен 43363
▁得到 43361
▁cabe 43360
ями 43357
▁mujer, 43354
执行局 43350
▁tus 43343
▁82 43342
一切 43342
课程 43339
▁summary 43331
▁médico 43330
▁декларации 43323
ining 43322
▁кра 43322
▁一次 43318
但 43309
▁mujeres, 43306
治疗 43304
▁практику 43302
▁entrada 43301
▁女人 43298
▁شئ 43291
▁القطرية 43286
套 43278
▁81 43275
▁му 43272
▁учреждениями 43267
▁سوى 43265
▁94 43260
▁mises 43257
▁supervis 43252
▁minor 43250
.org 43245
▁salud, 43245
щую 43244
▁recomendó 43244
▁economías 43232
联络 43231
▁Él 43221
▁议程项目 43220
▁полез 43218
عى 43215
حك 43212
▁comerciales 43208
▁written 43206
ures, 43204
▁achievement 43204
▁preparar 43204
日本 43199
▁государственной 43198
▁placed 43186
▁функций 43183
▁prie 43179
▁solici 43166
ño 43160
▁保 43159
理解 43159
利益攸关方 43156
ities, 43153
▁опера 43152
保险 43151
داء 43149
▁puissent 43143
▁stock 43142
▁rent 43137
▁serán 43137
▁else 43136
▁equipos 43136
▁delivery 43130
▁clairement 43125
▁مث 43124
▁التوصية 43115
▁العمل، 43113
▁найти 43111
▁países. 43109
▁تضع 43109
▁٢٠ 43109
▁93 43108
▁them. 43108
▁particulière 43103
▁أدلى 43095
▁المحيط 43094
aise 43092
山 43084
▁offer 43082
ом 43081
▁Sy 43067
▁priorities 43062
▁-t 43059
▁choix 43057
▁consign 43052
▁content 43051
▁disponible 43050
wn 43047
▁French 43042
▁صياغة 43041
▁83 43038
▁резолюции, 43028
▁النووي 43020
▁تعتبر 43019
▁MA 43008
▁d'établir 43007
▁送 43007
▁Таким 43002
▁NO 43001
▁round 43001
▁тру 43000
▁Bangladesh 42999
▁урегулирования 42985
РА 42984
▁ورد 42978
▁statistics 42976
第六 42976
tados 42972
▁Head 42972
▁закры 42965
▁ووالدي 42956
▁migration 42953
▁consul 42946
▁reconstruction 42943
▁l'énergie 42941
▁الوطنية، 42936
ويات 42935
▁ва 42935
وعية 42934
批 42930
торов 42926
压 42919
▁والذي 42918
▁pri 42916
▁Officer 42912
▁personas, 42912
▁لإدارة 42909
人权理事会 42909
1996年 42902
عو 42901
▁十 42895
enda 42891
▁نموا 42887
▁العم 42886
▁أشهر 42884
▁العضوية 42879
▁направлен 42873
▁procéder 42872
▁المسؤولين 42865
拒绝 42860
▁(200 42859
▁modalités 42858
ek 42857
onne 42855
▁danger 42853
▁tient 42850
球 42849
افة 42847
/WP 42846
ход 42846
▁arri 42844
号决议， 42844
abilité 42842
热 42838
▁ci 42832
▁مواد 42824
▁تقدير 42821
شف 42820
▁poblaciones 42816
▁Sch 42815
خدم 42813
和执行 42811
اس 42810
▁Cu 42810
▁деятельностью 42808
цией, 42801
ство, 42799
▁Add 42799
ــر 42797
▁1987 42797
▁резолюций 42797
▁عضو 42794
▁Muy 42791
▁complex 42786
▁pleno 42783
▁الألغام 42778
▁estadísticas 42771
عمل 42764
▁obten 42764
通信 42764
结 42763
тивной 42762
▁бра 42762
▁нео 42762
▁الصحي 42762
▁يشير 42757
▁Disarmament 42754
袭击 42754
▁المباشر 42750
▁запро 42747
tico 42742
▁element 42737
▁التد 42736
▁efficiency 42734
毒 42730
▁From 42726
的新 42725
issant 42722
▁Energy 42721
▁quincuagésimo 42718
第4 42718
▁(резолюция 42717
▁Консультативный 42714
▁trouve 42713
▁السلع 42713
▁最后 42713
通报 42713
▁colabor 42709
ём 42708
▁interes 42700
▁بالن 42695
▁الصادرة 42692
▁bra 42687
ión, 42685
/56 42683
▁collection 42680
▁تواجه 42674
▁vues 42670
本身 42668
ña 42665
рах 42661
▁مهام 42660
▁совещаний 42655
▁واسع 42652
▁expenditure 42650
▁месте 42644
控 42642
ور، 42640
illes 42636
мов 42633
-D 42632
▁Development, 42631
▁заключения 42631
▁sexuelle 42626
采取行动 42622
▁comercial 42614
▁оценку 42612
▁públicas 42608
▁безопасности. 42607
▁والتدريب 42598
▁tierras 42592
▁cond 42591
▁rest 42591
问 42591
act 42586
وبة 42580
CO 42577
jas 42577
▁conseguir 42575
▁основы 42574
▁١٩٩٤ 42573
▁deuda 42569
▁بالش 42565
▁talking 42564
▁Además 42556
网站 42553
C, 42551
▁useful 42548
▁internationale, 42543
▁transform 42538
щения 42537
نان 42536
▁любых 42536
▁أوجه 42529
▁inicial 42527
▁движения 42525
▁santé, 42524
▁слож 42523
▁environnement 42522
tera 42511
▁العاملين 42511
▁西 42511
-m 42509
▁humanitaires 42508
▁المناقشة 42508
▁Ан 42507
▁Северной 42506
▁Hello 42503
▁включа 42503
▁находится 42502
▁специалистов 42499
1个 42496
▁страна 42496
第5 42496
son 42491
▁involvement 42486
▁تيسير 42486
▁defined 42484
▁الوزراء 42480
▁adicional 42478
▁incidences 42476
▁aprobada 42475
科索沃 42475
▁voluntad 42473
▁неу 42466
▁الوسطى 42466
▁两个 42460
及其他 42460
▁Maybe 42458
▁uh 42458
DC 42456
▁intérêts 42456
房 42450
z, 42449
▁réalisés 42447
▁Roma 42443
▁Committee. 42440
▁tendrá 42440
рованной 42438
不足 42438
▁plein 42430
反应 42430
▁以为 42429
▁إحدى 42425
дам 42422
rog 42408
▁composición 42402
▁четырех 42402
ario, 42400
程 42399
▁تؤدي 42397
▁interpre 42395
▁الهجرة 42389
成本 42387
▁annexe 42386
▁grands 42385
▁инвести 42384
▁الالتزام 42383
▁المُ 42380
тивным 42375
▁Russie 42369
▁Northern 42363
▁almost 42360
▁الختامية 42358
▁Mesa 42354
퓂 42354
3年 42346
▁представлены 42345
会议， 42345
▁champ 42344
▁remained 42342
▁الانت 42336
▁adjoint 42331
▁Transport 42329
合理 42329
سط 42327
ميل 42326
▁сле 42326
▁installations 42321
▁itself 42316
▁accep 42312
▁enquêtes 42310
▁unique 42309
小组委员会 42309
▁sound 42308
▁مال 42306
ساعد 42302
▁لمن 42289
上诉 42289
▁стран. 42288
有必要 42286
ديد 42285
▁должность 42280
▁described 42278
nes 42276
▁манда 42276
وقع 42274
▁liaison 42273
▁神 42270
جن 42268
▁лица, 42266
▁asign 42265
ker 42262
▁الفرع 42262
▁(ii) 42260
▁تقول 42259
▁80. 42254
▁قوانين 42254
/SR 42245
双边 42245
اه 42244
▁definition 42242
▁الحكومي 42236
▁أصبح 42233
遭到 42233
вающие 42232
▁образование 42231
فيا 42230
党 42223
cio 42216
▁contenido 42216
▁деятельности. 42214
▁inv 42213
ناً 42203
▁officieuses 42193
▁Has 42192
▁basada 42188
▁самым 42187
▁устойчивому 42187
▁можешь 42184
▁(ب 42178
▁l'économie 42178
▁er 42174
▁milieu 42169
ure, 42167
▁государств-членов 42165
▁وإذا 42162
变 42162
▁производ 42158
E. 42156
▁administratif 42156
▁موعد 42148
▁ممثلي 42145
▁Technology 42140
▁كاف 42133
维也纳 42132
▁разме 42131
▁كافة 42126
▁cantidad 42122
▁sectors 42121
算 42120
▁(CE 42118
▁criminalité 42118
▁Letter 42115
▁tenant 42111
▁наказания 42103
▁أخذ 42102
yl 42099
▁late 42095
DA 42093
▁أمن 42091
▁demasiado 42088
كين 42087
载于 42079
▁соответствующей 42078
▁compétence 42077
▁FAO 42076
▁Salvador 42076
51 42075
▁المدرجة 42074
上文 42074
▁constituyen 42072
▁transmis 42071
质 42070
▁alternative 42067
▁дет 42066
▁пыток 42065
С, 42063
▁الدور 42062
▁temporary 42057
最终 42053
族 42052
▁высоко 42048
▁events 42040
▁agricultural 42039
▁مقدم 42034
زام 42029
▁introdu 42027
沙 42023
▁положениями 42017
▁طلبت 42016
▁ago 42014
▁опас 42013
ا. 42012
▁диалога 42006
▁народа 42004
▁apartado 42002
▁speak 42002
▁(201 42001
▁المساهمة 41989
▁plano 41980
▁Coordinación 41974
职责 41973
▁dign 41969
▁حساب 41967
▁مسا 41966
▁operating 41955
▁протокола 41953
أس 41952
▁роди 41950
▁Supreme 41946
▁suggested 41945
▁tierra 41945
▁changement 41942
▁委员会还 41941
▁لص 41940
▁voix 41930
▁المخصص 41930
▁Operaciones 41929
卫星 41927
▁cit 41925
yn 41920
тивное 41915
▁ready 41915
编 41915
▁القضية 41904
▁electoral 41902
▁отношений 41900
ورد 41898
▁السوق 41898
协作 41892
▁الأفريقية 41888
▁country, 41880
▁successful 41880
▁Indonesia 41877
▁stabilité 41877
SI 41876
СТ 41873
▁comprendre 41873
▁alone 41863
щению 41861
▁2014. 41854
▁过去 41850
▁克 41849
тка 41842
▁Ra 41842
▁succès 41840
第13 41840
▁пригла 41839
▁Nations. 41832
▁L'é 41827
▁например 41827
▁tiendra 41826
▁duty 41818
.. 41817
▁try 41817
▁Frank 41816
▁добиться 41799
وقف 41797
未能 41793
ved 41791
юсь 41791
▁قيمة 41791
6年 41789
▁климата 41788
诺 41787
700 41782
▁travers 41782
▁chimiques 41777
▁обучения 41774
▁word 41773
▁preciso 41769
▁considéré 41767
▁прямо 41764
▁claro 41759
▁بالغ 41755
▁الحقيقة 41754
主任 41750
▁dec 41748
▁يح 41748
▁dio 41741
▁78. 41739
落 41736
▁suivant 41734
أت 41731
ios, 41726
▁对于 41726
يتها 41725
▁Bas 41724
▁Solo 41724
ترك 41723
▁والاتصالات 41723
▁расширение 41714
▁fondée 41713
▁l'amélioration 41709
定义 41708
غو 41707
男子 41705
來 41703
▁участием 41702
▁توزيع 41698
▁وسائل 41695
▁الخارجي 41690
/51 41688
▁المبادرات 41685
▁Rusia 41684
▁grado 41683
▁لذلك 41682
▁84 41681
▁изда 41681
erai 41674
▁ссылаясь 41672
▁Irán 41669
▁presta 41663
▁near 41662
ПР 41660
▁z 41658
жных 41657
▁reach 41656
▁auto 41654
▁évaluation 41650
▁allowed 41649
▁advice 41648
van 41636
▁оружия, 41630
亿美元 41629
ПП 41604
▁Norte 41597
▁4- 41590
▁luz 41589
▁plus, 41585
▁1985 41584
▁Milenio 41584
▁(U 41583
▁separ 41583
▁жен 41583
▁الضروري 41581
，由 41568
▁cat 41564
▁принима 41563
▁rapidement 41562
项目。 41562
▁Chine 41561
▁документы 41553
差 41552
سات 41546
笔 41546
▁morning 41541
емым 41539
рю 41539
因为 41538
▁true 41536
▁liens 41535
кла 41534
▁السن 41532
▁governance 41530
传 41525
▁Eres 41519
▁الاقتصاد 41518
往往 41514
▁meilleure 41513
ific 41511
▁Hab 41501
▁average 41500
▁emergencia 41498
▁takes 41490
管理和 41489
▁جعل 41488
h, 41485
/47 41484
影响。 41484
▁然而 41483
SS 41482
▁remember 41473
▁trouvé 41471
▁شامل 41469
▁programmes. 41463
2.2 41460
▁ped 41460
▁HIV/AIDS 41459
▁جوانب 41453
▁getting 41448
▁impos 41440
ging 41432
▁ودعم 41430
▁eau 41427
вили 41426
主权 41420
▁d'Amérique 41417
▁увеличение 41415
▁могла 41410
▁asociación 41409
▁quel 41409
▁semble 41400
▁соглашений 41400
▁drogues 41396
▁مه 41396
iza 41384
▁recuperación 41384
▁auraient 41383
▁пол 41377
▁Recalling 41371
▁friend 41367
▁élections 41359
▁presence 41357
▁سر 41357
▁efficaces 41356
▁دفع 41356
arm 41355
жением 41353
▁Niño 41349
▁evalu 41342
дер 41337
▁сам 41337
▁conclusión 41334
طع 41333
▁секретариата 41322
▁l'Institut 41321
▁próximo 41316
非洲联盟 41316
сса 41315
▁Island 41314
▁г-на 41313
▁permitir 41312
▁رائع 41312
▁beginning 41309
▁celebrar 41307
▁Ukraine 41305
▁Се 41300
▁الإنساني 41299
▁Uruguay 41297
▁determine 41297
▁trial 41296
▁reservas 41295
خا 41285
▁четвертой 41285
tur 41284
▁أفريقيا، 41277
Й 41275
69 41271
ush 41269
第12 41266
▁Nota 41263
(2) 41260
▁sabe 41259
rou 41254
▁lit 41254
▁ligne 41251
预期 41251
циях 41248
▁бан 41246
▁должностных 41246
▁كر 41242
▁stage 41239
▁assess 41236
▁toutefois 41229
的儿童 41225
、《 41223
ريب 41212
▁affect 41211
틔 41211
▁Du 41210
ИК 41206
▁Guinea 41205
▁Ambiente 41204
▁pouvait 41204
▁注意到 41204
عة، 41201
▁délai 41200
▁Социального 41189
▁назначения 41189
▁lost 41186
▁libertés 41185
▁正在 41179
▁какой 41166
▁القرن 41161
▁91 41138
样 41138
障碍 41136
▁permanentes 41135
，通过 41132
干 41128
▁CO 41127
处于 41122
▁os 41115
▁station 41115
▁новый 41115
льное 41110
▁Guatemala, 41110
▁государствами 41109
▁состоит 41106
▁والمساعدة 41103
▁adopte 41099
▁vehicle 41099
▁lives 41097
▁possibility 41093
▁institucional 41089
▁использо 41088
▁البوسنة 41081
▁Постоянного 41077
▁Comunidad 41072
▁التالي 41067
科威特 41067
▁Requests 41065
▁судебных 41064
▁صنع 41059
裁决 41057
▁الموقع 41054
(199 41053
▁responsabilidades 41051
▁الصكوك 41048
▁seven 41044
▁بدأ 41039
▁velar 41037
▁proporcion 41036
▁élément 41036
▁definición 41032
▁ép 41031
▁تحتاج 41024
▁للبيئة 41024
▁destinés 41016
ender 41001
▁وليس 41001
毒品 41000
▁по- 40992
▁oui 40991
▁нарушений 40989
▁jurídicos 40984
웤 40983
▁وتشمل 40978
▁стороны, 40977
活 40974
▁الفرص 40971
ЕР 40970
▁поя 40970
将其 40968
▁أمانة 40966
▁79. 40964
▁поправ 40961
▁счита 40958
▁استراتيجيات 40954
▁للق 40954
▁3cH202020 40948
▁A/52 40947
▁الوحيد 40944
▁примерно 40941
tical 40940
▁l'imp 40936
▁الانتشار 40930
▁présentés 40929
的资源 40929
▁لمنظمة 40927
▁mejora 40926
▁horas, 40922
▁بوصفه 40921
▁предлагается 40920
DE 40918
▁рассматривать 40918
缔约方会议 40916
▁charges 40915
▁double 40915
met 40911
▁ло 40905
▁وث 40904
▁Colombia 40903
▁débats 40903
▁около 40901
伤 40899
▁plutôt 40898
▁E/CN.4 40897
▁stability 40897
▁факт, 40896
▁موظف 40894
波 40886
▁border 40885
容 40885
▁занятости 40884
▁materials 40880
▁المعاهدات 40880
▁Sus 40874
便利 40870
▁terrain 40869
.2.1 40865
واصل 40865
tó 40857
▁tarde 40857
▁wait 40857
西班牙 40856
过程中 40854
▁بدأت 40849
▁tête 40843
，他们 40836
▁بوضع 40834
▁المشمولة 40832
▁ради 40831
راض 40825
爱 40821
жден 40820
都是 40818
▁Beijing 40817
▁Financial 40816
▁enf 40811
▁préoccupation 40807
▁المتقدمة 40806
机构间 40803
▁ordre 40801
▁cut 40800
61 40793
▁كال 40788
▁发现 40788
，则 40778
象 40767
стре 40765
▁emissions 40762
▁inclusive 40753
▁difficile 40750
最高 40747
/D 40741
9年 40741
ays 40741
尽 40732
▁إيران 40726
ink 40723
▁étrangers 40720
▁لج 40716
iment 40707
初步 40700
码 40699
所列 40688
▁مهمة 40685
▁chargés 40681
▁怎么样 40677
▁Compte 40676
▁ограничения 40672
» 40671
вленных 40667
▁justice, 40662
▁expression 40661
8年 40657
▁спо 40649
ically 40646
▁Those 40643
▁ممكن 40642
▁представлять 40641
▁d'application 40637
ela 40636
▁votación 40635
和管理 40633
ред 40632
bu 40630
дите 40630
▁élevé 40628
▁由 40622
▁والبرامج 40618
رها 40615
▁précéd 40615
▁Департамент 40615
▁فعلت 40613
por 40612
▁COP 40609
▁published 40605
审议了 40604
▁discussed 40599
▁situ 40599
▁citoyens 40598
▁vital 40597
▁completed 40596
当前 40595
рован 40593
望 40587
轮 40584
▁rés 40578
1995年 40574
▁acord 40573
▁Jefe 40572
▁сообща 40570
▁买 40567
ванных 40565
▁كون 40565
▁высказа 40562
-F 40557
▁Take 40555
▁d'enfants 40555
▁предоставлении 40555
cidos 40553
参 40547
技能 40547
▁догово 40546
▁الكاريبي 40537
▁implications 40536
дь 40531
▁XXI 40529
les. 40525
，这种 40525
НИ 40512
▁обы 40500
▁сокращение 40495
▁иностран 40492
يران 40489
▁сети 40486
▁بالح 40478
▁Ten 40477
eraient 40476
▁1994. 40476
▁existen 40466
▁democratic 40465
▁пар 40457
▁prueba 40453
▁координа 40450
دير 40447
▁gave 40447
нах 40445
▁bre 40440
tores 40431
▁integral 40431
▁Presupuesto 40429
itation 40422
▁ambos 40418
密 40411
▁Experts 40409
▁sait 40409
icos, 40407
▁welcomes 40405
▁هامة 40402
▁doctor 40401
▁дальнейшего 40395
▁непосредственно 40393
载有 40393
▁предполага 40392
▁NGOs 40390
▁Two 40389
▁Ки 40386
▁المعهد 40384
4年 40381
▁products 40381
▁pequeñas 40378
▁l'accent 40374
بق 40372
▁GEF 40371
▁Universidad 40371
▁cré 40371
吉 40369
ходи 40368
▁сер 40368
▁тради 40368
子女 40363
▁Gender 40362
▁四 40355
▁двадцать 40354
ضاف 40347
或其他 40347
▁)ج( 40346
▁préoccupé 40335
▁facteurs 40334
▁informar 40332
▁250 40331
▁stakeholders 40331
▁viven 40328
zca 40326
pé 40325
ques, 40313
▁d'ar 40308
满 40305
▁l'évolution 40297
▁политики, 40294
▁formulées 40290
▁السﻻح 40284
▁وتقييم 40282
ра. 40280
原子能机构 40277
失 40264
بيان 40257
▁стандартов 40251
▁относятся 40250
▁sociétés 40244
▁يزيد 40243
▁Следует 40235
an. 40233
▁生活 40233
▁David 40230
▁palestin 40229
▁感觉 40228
мым 40227
▁allant 40225
맺볒 40209
▁donor 40203
▁escuela 40194
▁исключением 40194
يج 40191
▁взносы 40188
to. 40186
▁لمعالجة 40184
▁Framework 40177
建立一个 40171
贡献 40167
▁interventions 40161
有可能 40158
isse 40155
▁общи 40151
мого 40149
ech 40147
▁первого 40147
▁cases, 40146
▁"T 40145
▁thank 40145
▁Project 40141
▁mano 40140
▁Also 40135
▁вопросами 40134
▁function 40132
▁month 40132
▁13, 40121
▁sum 40115
ly. 40103
мый 40102
▁dispositif 40096
▁Nairobi 40093
▁donnée 40093
▁terre 40090
卫 40089
air 40088
逮捕 40087
▁Irlanda 40086
▁intención 40076
▁النامية، 40075
ting, 40074
▁Российской 40068
▁atteindre 40067
塞 40067
▁ينص 40063
ked 40061
-K 40060
▁планов 40058
待遇 40058
的情况。 40055
▁discuss 40050
▁或 40050
шая 40048
rez 40047
▁ofrecer 40041
▁تلاحظ 40038
▁coordin 40035
▁sw 40033
委员会主席 40030
ward 40025
▁extraordinario 40022
▁Middle 40010
▁приняты 40007
▁Ann 40006
▁lugar, 40001
▁MINU 40000
▁دال 39999
.8 39995
▁судебного 39994
婚 39986
▁اﻹنمائي 39983
▁modifications 39980
---- 39977
▁permite 39977
вался 39976
▁modifier 39972
▁زالت 39968
▁Aplicación 39966
са, 39963
▁Royaume-Uni 39961
ix 39958
学习 39951
▁l'eau 39950
▁enfant 39947
ёт 39945
▁A/50 39942
▁институ 39942
了《 39942
▁включает 39931
▁можем 39927
▁目前 39927
▁Mes 39922
▁Plus 39914
▁الدراسية 39914
▁d'ac 39912
▁volontaires 39905
vel 39902
▁question. 39902
字 39898
12月31日 39895
▁encargados 39890
儿童权利 39889
▁общественной 39879
▁bienestar 39878
中国 39873
▁classe 39864
امية 39862
▁واللجنة 39858
▁жертв 39856
▁Ram 39854
▁اتفاقات 39851
taciones 39845
ким 39844
▁العناصر 39842
▁Му 39835
▁воз 39834
▁allegations 39833
▁отчет 39827
▁مناسبة 39827
核查 39827
▁challenge 39816
▁يبلغ 39813
讲 39810
▁queda 39809
准 39809
▁отра 39803
▁Пре 39797
▁defin 39793
▁основной 39792
▁trou 39789
ـــة 39784
▁signature 39784
▁تعتقد 39765
▁يعتبر 39759
▁كافية 39758
投票 39758
▁أك 39754
▁Nombre 39752
▁اقتراح 39746
▁estimé 39739
▁village 39739
▁profesionales 39738
▁recognition 39738
退 39736
غر 39734
▁важно 39719
▁государству-участнику 39715
▁preparado 39714
▁Paul 39713
▁nacional. 39711
▁وانت 39708
тан 39702
▁amendments 39699
▁تسوية 39696
▁إﻻ 39688
▁التشريعات 39688
▁ومنطقة 39680
ток 39674
ـن 39674
▁المانحة 39673
▁السفر 39672
▁vac 39670
▁اﻵن 39669
）号决议 39666
7- 39664
油 39663
68 39660
щему 39656
▁Prevención 39654
طلع 39651
▁وشر 39650
▁Mr 39649
▁(XX 39648
Ш 39646
▁риска 39645
▁add 39642
▁وسوف 39642
▁نائب 39638
▁asunto 39632
lace 39630
6- 39628
▁units 39627
▁областях 39624
▁составе 39623
▁Кон 39620
▁السبب 39620
▁الرسالة 39617
▁funcion 39611
▁15, 39604
▁atender 39604
ante. 39599
▁للمجلس 39594
▁Michael 39592
▁l'UNICEF 39586
引 39586
▁Tiene 39585
▁достижение 39584
▁كانوا 39583
ـل 39582
▁Conf 39581
▁встреча 39579
▁130 39576
▁собра 39576
▁camino 39574
A) 39572
▁Paris 39571
▁ailleurs 39568
▁responder 39567
▁العلمية 39567
▁равно 39562
▁fort 39561
推 39558
▁cru 39547
▁jurisdicción 39545
ющимся 39544
кра 39536
▁Лю 39536
▁conducto 39535
▁ориенти 39527
▁الآثار 39526
ре, 39524
сов, 39522
тный 39522
▁students 39519
曼 39518
晚 39516
▁daños 39514
▁treaties 39511
▁статисти 39510
▁حركة 39510
主持 39509
حاد 39506
▁نظرا 39500
▁Estas 39499
▁educación, 39494
ished 39493
▁s'acquitter 39486
рите 39485
▁信 39482
▁جريمة 39477
▁Ла 39473
▁культурных 39471
通常 39471
▁сохраня 39469
▁desastres 39467
▁parties, 39463
▁قسم 39462
▁Kenya, 39461
▁لات 39461
ad, 39457
ME 39455
▁route 39454
قية 39452
▁partenariats 39451
▁adecuada 39446
风 39443
/Add.1, 39442
▁conduc 39440
▁im 39429
求 39427
形式的 39426
剂 39425
▁mêmes 39421
ney 39419
▁incluyen 39416
▁穿 39411
▁hell 39403
лия 39397
▁Headquarters 39393
وث 39392
采取了 39384
▁plante 39381
▁правительству 39376
.30 39375
▁其 39374
entre 39373
▁population, 39371
▁"С 39370
▁organisée 39369
▁vient 39368
▁motivo 39363
валось 39361
▁Nunca 39358
▁leadership 39353
▁работ 39353
颁布 39353
▁решению 39352
▁acc 39350
▁d'ad 39344
▁rehabilitación 39344
段)。 39342
▁constante 39339
▁بالمرأة 39337
或者 39337
oma 39334
▁нару 39333
▁pages 39328
▁conferences 39327
▁page 39324
▁прожи 39320
▁vérification 39316
▁١٩ 39303
▁технических 39302
各自 39301
▁التج 39293
▁лицо 39292
цу 39291
▁Avec 39289
▁deep 39289
性别平等 39289
▁1982 39288
г, 39283
团结 39279
▁للموظفين 39273
ним 39272
公正 39271
本组织 39271
▁vise 39270
▁surtout 39269
疾病 39268
КА 39267
▁Women's 39263
▁ويع 39262
▁integrado 39261
▁لكفالة 39260
利比里亚 39260
▁предотвращения 39256
▁médias 39242
-T 39240
miento 39240
▁разоружения 39238
▁пунктах 39234
▁portée 39222
erv 39217
▁propose 39217
▁Вам 39214
▁infantil 39213
▁встречи 39212
▁écrit 39210
sif 39209
▁den 39209
▁voulez 39205
▁Monitoring 39204
▁assez 39200
OD 39198
su 39197
和区域 39196
ды, 39192
iennes 39191
▁Exp 39191
▁تأثير 39189
▁contract 39186
▁gén 39186
▁work. 39186
▁задержа 39185
▁máximo 39181
▁Subcomisión 39174
сли 39173
▁مصادر 39172
▁travailler 39171
▁типа 39171
部门的 39170
▁Er 39156
▁группой 39152
▁العودة 39149
ème 39148
▁detained 39148
▁культуры 39146
安全和 39145
▁Ob 39142
▁челове 39140
▁مراقبة 39140
▁Land 39137
▁заинтересованных 39136
▁fu 39134
▁кру 39132
▁oficiosas 39129
▁launched 39126
▁ميزانية 39121
▁سل 39115
▁搞 39112
tez 39109
tim 39101
▁Have 39088
▁عنه 39083
▁intégré 39080
▁الوﻻيات 39080
▁спи 39079
▁hacen 39078
ities. 39076
▁الآخر 39076
▁فرض 39074
▁visite 39073
▁экономи 39072
建 39072
▁وأُ 39070
▁группу 39069
/B 39068
▁entidad 39056
▁أطفال 39056
▁其中 39055
▁inglés): 39053
录 39046
▁وقف 39041
形 39040
▁d'État 39038
娜 39038
▁ans, 39037
▁إنجاز 39033
▁内 39029
▁какие 39028
III 39023
▁قط 39021
ency 39020
▁осно 39020
▁Bangladesh, 39016
▁美 39012
▁المثال، 39011
▁serio 39008
▁decision-making 39004
▁suministro 39004
▁Israel, 39000
表明， 38999
▁existencia 38997
▁приняли 38997
▁пунктов 38988
▁auxquels 38986
▁مساعد 38986
▁اعتمد 38985
bas 38984
▁tasas 38974
▁llamamiento 38967
参加了 38966
▁подготовка 38965
付款 38965
▁violent 38964
▁UNESCO 38963
▁الحادية 38963
▁armés 38960
▁因此 38958
▁hom 38957
ОН 38951
▁mention 38951
▁extranjeros 38950
▁предупреждению 38949
森 38946
▁التن 38944
▁Salle 38943
▁1991, 38934
▁Thanks 38933
▁inclus 38931
▁сорок 38931
▁intitulée 38930
之一 38929
▁preguntas 38927
执法 38922
▁والمست 38921
▁claramente 38916
бой 38909
▁mundiales 38906
▁Sociales 38902
وء 38900
▁заклю 38900
▁www.un.org/ 38892
▁嗨 38890
▁страны. 38887
▁langue 38882
▁sexagésimo 38882
▁Представитель 38880
▁возможно 38876
تُ 38872
▁أحب 38869
▁اﻻجتماعية 38866
全部 38864
▁(1999) 38859
7年 38857
▁Rica 38857
数据库 38855
▁n'y 38852
函 38850
▁التجاري 38849
mit 38845
▁النهائي 38845
▁توصي 38845
▁message 38839
▁reserva 38835
▁Мар 38829
▁Reg 38827
▁VIH 38826
▁conjunta 38823
OC 38822
▁обществен 38822
the 38818
▁Económica 38817
▁возрасте 38815
titude 38812
▁операции 38812
▁каждый 38807
▁representación 38806
▁أصبحت 38806
现行 38802
▁أست 38796
رائ 38795
▁motiv 38795
▁l'issue 38792
믡 38787
▁определен 38786
▁appropri 38784
造成的 38783
比较 38782
▁المشاورات 38780
▁га 38779
off 38774
▁Timor 38771
边界 38770
▁inclusion 38769
cida 38764
▁reflect 38752
▁81. 38749
▁2008-2009 38743
▁действие 38741
▁educ 38740
▁capítulo 38739
▁такая 38739
(؛ 38732
▁lower 38730
用途 38727
▁Western 38725
▁التطورات 38724
▁Actividades 38723
▁Mor 38721
▁صلة 38720
▁وتح 38719
▁etapa 38714
▁вне 38714
▁rapid 38709
▁Primer 38706
▁شيئاً 38704
▁semana 38703
▁propriété 38702
趋势 38701
▁extended 38699
▁الثقة 38699
▁process, 38697
ية؛ 38695
▁المفاوضات 38680
▁studies 38678
▁水 38678
在该 38674
▁únicamente 38670
وﻻ 38667
CIÓN 38659
▁económicos 38658
▁reasons 38657
▁conseil 38655
ives 38651
▁amor 38649
群 38649
5- 38648
▁Бюро 38648
▁commune 38644
▁Ambassador 38639
▁رد 38634
▁البحار 38633
▁данных, 38625
一年 38625
▁mitad 38620
▁предусмотрен 38615
▁focused 38611
▁relief 38608
ists 38607
валась 38598
▁задач 38595
▁(résolution 38594
▁16, 38589
▁siège 38585
▁acteurs 38580
▁963 38571
返回 38569
▁actually 38561
▁posibilidades 38561
▁indique 38557
▁(f 38556
▁sociales, 38554
和第 38553
▁بات 38552
▁практике 38550
▁والتع 38550
)( 38546
вало 38546
▁incom 38544
诉讼 38543
▁والمجتمع 38541
▁L. 38540
▁продолжает 38534
▁collabor 38533
既 38532
▁噢 38530
▁técnicas 38526
▁建议 38525
▁成 38524
自己的 38523
▁demanda 38521
权的 38517
转移 38517
ЕС 38513
ev 38510
▁прод 38510
▁discrimin 38499
▁VIII 38496
alo 38494
▁الموا 38492
▁extraordinaire 38491
▁полити 38491
▁Racial 38487
▁техни 38484
力量 38483
▁incident 38482
▁недавно 38473
▁último, 38469
▁Australia, 38467
不仅 38467
▁осуществляется 38466
发展的 38466
▁applicables 38461
ائية 38460
▁按照 38458
▁rang 38450
历史 38450
cimiento 38447
▁Ри 38445
▁ميثاق 38444
▁الامتثال 38442
ئية 38439
▁high-level 38437
▁recettes 38437
努力， 38436
▁المهم 38434
чь 38433
▁نفسه 38427
▁Ter 38426
▁refugee 38425
▁Network 38423
-- 38422
lor 38415
زمة 38409
▁количество 38408
▁(по 38407
rie 38405
▁ду 38403
创 38401
▁зале 38400
▁Ser 38394
гов 38393
abilidad 38384
▁estima 38384
▁الميدانية 38384
▁требует 38382
ENT 38380
▁لوضع 38378
▁générales 38374
▁・ 38374
占领 38371
▁followed 38370
▁voyage 38369
页 38362
▁этими 38360
▁введ 38356
▁Г-жа 38355
▁Теперь 38349
▁volume 38346
▁19, 38334
▁разработать 38333
▁وغ 38332
جيل 38328
▁Рас 38328
▁смер 38327
ril 38325
▁حجم 38325
▁naturales 38320
▁realmente 38320
▁Mod 38318
▁وأنه 38313
ناع 38307
▁признательность 38307
▁آراء 38307
▁regime 38305
飞机 38304
▁étude 38298
▁d'aide 38297
▁lieux 38294
ily 38292
ваемые 38281
▁Asian 38272
▁упомяну 38266
▁名字 38264
▁Tur 38262
的情况下， 38258
▁rápido 38253
▁billion 38251
▁presse 38250
▁infractions 38245
埃 38245
▁Ay 38244
▁تدعو 38236
▁original 38231
▁الثلاث 38229
ism 38226
icas, 38223
▁Peter 38221
▁Japón 38213
▁задачи 38213
▁ومو 38213
▁catégories 38206
▁دع 38205
▁Islas 38204
▁Tenemos 38189
▁Mexico 38188
▁相 38188
▁Israël 38179
书面 38179
▁salir 38177
▁العسكري 38177
更好地 38177
▁Lanka 38175
▁没错 38170
▁provoc 38166
▁рав 38166
▁имеющихся 38163
фе 38151
ينة 38151
▁不用 38149
▁AP 38146
▁وو 38143
生命 38137
▁Конечно 38135
▁региональные 38130
كلم 38127
▁presid 38127
争取 38127
馆 38127
▁argent 38125
о, 38123
▁الرسمي 38121
久 38120
类似 38116
▁2005، 38114
▁augmentation 38113
▁82. 38109
▁flow 38108
账户 38102
▁entire 38101
▁ste 38101
▁pasar 38093
▁للأمين 38091
▁оконча 38083
ents, 38071
▁destinados 38070
О, 38065
чную 38062
▁людьми 38061
▁proced 38059
▁خمسة 38054
艾滋病 38049
▁прода 38042
▁دورات 38030
这样 38028
▁18, 38025
▁电话 38024
▁Staff 38022
▁disabilities 38022
▁которому 38021
▁فع 38021
▁связанной 38020
▁之前 38017
▁快点 38016
▁الأونكتاد 38013
jar 38011
▁الأهمية 38009
▁Администра 38006
▁честь 38003
▁combin 38001
▁والتكنولوجيا 37998
▁уби 37997
oud 37992
▁المتخصصة 37982
▁Pública 37975
技术合作 37975
솪뫏맺 37972
ics 37970
▁принятые 37969
▁contain 37967
▁posterior 37966
▁تساعد 37965
土耳其 37963
▁fall 37960
▁خمس 37958
ares 37956
谨 37949
▁l'exploitation 37942
▁ведь 37934
▁directa 37932
▁ثمة 37930
▁técnico 37925
▁تبلغ 37919
▁quelle 37918
▁Несмотря 37918
▁يخص 37918
▁minute 37914
▁illicit 37913
集体 37912
▁caused 37910
▁المستقلة 37910
座 37897
▁statistique 37886
▁cultura 37883
安保 37876
▁١٦ 37875
▁الصلة، 37874
▁Tras 37873
▁اﻹدارة 37873
▁وسأكون 37873
另 37864
▁заключение 37863
اءات 37862
▁Cuestiones 37857
▁Фонда 37855
ظل 37852
▁petite 37851
▁предоставить 37849
▁是不是 37849
▁approximately 37848
▁contrac 37848
▁союз 37845
▁Resources 37843
亚洲 37843
▁fourniture 37842
/CP 37840
▁ill 37838
▁това 37836
ствую 37832
▁Ве 37828
ificación 37827
▁عما 37827
▁conduite 37825
tica 37824
▁Afganistán 37822
▁стражей 37822
▁majorité 37819
▁поч 37819
▁男人 37818
船 37817
▁веществ 37810
权利的 37809
▁dep 37805
▁высо 37803
▁والعدالة 37801
▁logement 37800
▁candidat 37798
▁establecidos 37797
از 37796
出席 37796
▁privée 37794
注意到， 37793
▁التص 37789
▁repar 37788
白 37788
▁يعد 37786
▁siga 37783
ными, 37775
▁ensuite 37773
▁180 37771
只有 37766
▁контрак 37765
▁2008، 37762
▁acoge 37752
▁associ 37751
▁requer 37748
▁المستويات 37745
rent 37737
▁naturelles 37736
重建 37733
▁Argentina 37731
▁تخفيض 37730
那 37725
▁83. 37724
▁أربعة 37722
本报告 37722
жной 37720
▁Discriminación 37713
▁(K 37711
▁A/59 37711
▁historia 37705
▁despite 37704
▁ومست 37704
▁يش 37701
▁девочек 37692
▁140 37691
▁لابد 37682
▁nacionales, 37674
▁éliminer 37671
▁فل 37670
▁wife 37666
▁вес 37666
▁سيكون 37665
▁أش 37658
▁investissements 37657
尽管 37655
▁competentes 37652
▁1990, 37650
▁الحر 37639
枪 37639
бор 37635
▁بقرار 37634
▁A/58 37631
▁достаточно 37631
▁ordin 37630
▁итогам 37630
▁actuales 37624
рон 37620
jos 37616
▁adecu 37616
▁базы 37616
▁Africana 37614
▁(الم 37613
gue 37612
▁опублико 37611
▁périodique 37606
▁العمال 37605
▁يعرف 37605
▁工作组 37597
▁حقا 37596
5% 37595
▁revenu 37593
▁command 37592
他的 37592
▁мониторинга 37591
自然 37591
英 37587
▁Gra 37577
▁2009، 37574
▁эксплуатации 37574
▁Comisión, 37573
▁форма 37573
zcan 37572
▁groups, 37570
▁Food 37566
ost 37564
▁celui-ci 37562
▁Конвенция 37560
▁باﻻ 37551
▁محا 37551
不应 37547
▁única 37546
▁rou 37540
▁Educación 37535
▁2010، 37533
▁تماما 37530
▁ideas 37525
▁الصين 37525
▁prob 37524
▁negative 37522
协定》 37519
▁واستخدام 37514
▁有些 37514
▁provenant 37503
▁expresó 37498
▁enfermedades 37495
▁انخفاض 37495
▁Dirección 37493
▁энергии 37493
▁perform 37490
层面 37488
рованного 37484
▁Ge 37483
▁country's 37483
هاء 37481
▁особо 37479
指定 37478
▁Canadá 37476
▁Rica, 37475
▁لد 37470
cre 37469
▁contr 37469
▁الأولوية 37467
▁اللجان 37467
▁mercados 37460
▁Tableau 37459
▁dealing 37459
▁правда 37457
▁предприятия 37456
▁B, 37455
▁جزء 37455
▁ترحب 37447
▁тому, 37443
▁просила 37442
▁(статья 37432
▁Corea 37432
▁deliberaciones 37432
▁районов 37428
借 37427
اً، 37423
81 37415
▁mayores 37414
/G 37402
▁بالق 37402
▁早 37399
▁позволяет 37397
▁Ba 37395
▁للطاقة 37395
▁electronic 37394
ct 37393
▁обсужда 37391
arios. 37381
ва, 37381
▁ment 37381
▁ديسمبر 37381
▁disc 37378
▁marchandises 37375
框架内 37370
يفة 37369
▁крайней 37362
▁reciente 37361
جع 37359
▁separate 37354
预计 37354
شد 37352
▁consolidación 37350
▁profit 37342
▁campaign 37340
▁ري 37339
▁acep 37338
▁большинство 37331
▁mío 37330
▁Nor 37329
ﱠ 37329
E, 37328
▁просьбой 37328
▁Georgia 37326
rées 37323
/F 37321
▁yourself 37318
▁организации, 37314
▁(И 37313
▁记得 37311
▁Wait 37307
▁اﻷم 37303
顿 37303
▁отделения 37302
ной, 37301
外地 37297
仲裁 37296
مار 37295
▁l'alinéa 37291
▁Южной 37291
▁elected 37287
▁companies 37285
▁l'obligation 37283
▁Interior 37282
▁подо 37278
▁加强 37278
▁finance 37273
▁государства-члены 37271
▁سيادة 37268
且 37268
▁Po 37267
▁guarantee 37267
▁genre 37264
后的 37259
▁государствам 37249
维持和平 37247
▁mariage 37246
▁víctima 37245
▁восстановления 37238
▁activamente 37235
▁instances 37234
▁corps 37233
▁отметил, 37229
▁نش 37227
挑战。 37220
ов 37219
▁"م 37218
cis 37215
▁ello, 37212
▁обви 37208
▁Fifth 37207
▁Lettre 37202
ТА 37201
▁approaches 37200
▁indicate 37199
▁охваты 37185
▁القاعدة 37184
чением 37183
чении 37182
▁contacto 37180
▁расследования 37180
▁LAS 37173
废物 37172
号文件 37168
ственным 37164
第9 37160
тором 37157
▁الأمور 37156
▁最好 37156
▁vision 37155
，这是 37145
▁DP 37143
-20 37141
▁أسلحة 37141
▁diversité 37137
АС 37134
▁langues 37133
▁跑 37133
▁ordenación 37132
▁дей 37132
▁rappelle 37129
سق 37128
▁ru 37119
▁lancé 37117
▁التقليدية 37116
停止 37115
▁Nigeria 37108
▁قر 37108
▁Saint 37107
▁получи 37105
▁prochaine 37104
▁دليل 37102
▁(Н 37097
▁остается 37091
▁EU 37090
лизация 37085
▁AU 37083
▁حكومية 37079
▁waste 37078
▁propósito 37077
هور 37075
▁инвестиций 37074
oir 37070
▁зада 37070
▁grounds 37069
▁الإنترنت 37067
快 37065
▁competent 37064
▁اللاتينية 37064
▁الترتيبات 37058
▁إذاً 37056
▁senior 37055
▁الانتخابات 37054
▁Affairs, 37050
▁level. 37048
▁التصديق 37048
▁vol. 37047
خب 37044
▁gouvernance 37041
▁Hong 37036
ö 37028
стер 37028
▁Change 37023
药 37021
检察官 37013
enne 37008
▁circonstances 37007
▁Korea 37002
▁гуманитарного 37000
花 37000
▁تصبح 36999
▁最后， 36999
▁Mil 36998
▁Те 36997
▁действительно 36996
在联合国 36993
▁луч 36990
usement 36988
ساء 36988
▁протяжении 36987
▁prés 36985
▁vit 36985
▁секретаря, 36984
▁district 36979
▁الاهتمام 36978
▁шести 36976
▁expresión 36972
▁Только 36969
国际合作 36969
导 36969
▁可是 36968
tors 36967
▁idiomas 36967
▁truc 36962
▁Aquí 36960
▁facultatif 36958
ليم 36952
ياد 36951
愿意 36948
▁общин 36946
指南 36944
эн 36943
АН 36934
▁جا 36925
▁النهوض 36924
BI 36919
▁بأي 36918
▁technologie 36916
平 36915
û 36913
▁alimentaire 36913
▁matrimonio 36913
额外 36913
▁allez 36910
称， 36906
▁ولت 36905
明显 36905
▁Ин 36900
▁Latina 36897
工资 36896
▁consumo 36895
中央 36894
▁Estos 36892
▁supuesto 36891
▁XX 36890
▁уча 36887
▁第三 36885
科特迪瓦 36878
▁структуры 36873
▁مؤسسة 36873
▁compared 36872
اع 36871
مس 36870
▁） 36870
▁предмет 36869
▁للج 36868
oph 36864
▁CRC/C 36862
▁honour 36861
▁parole 36857
▁niños. 36856
▁period, 36856
▁elections 36855
▁yeah 36854
▁sentido, 36853
九 36849
▁участвовать 36848
，促进 36848
▁signal 36846
替代 36846
/COP 36840
▁А. 36839
与会者 36839
▁وضعت 36836
гре 36835
▁conmigo 36834
▁información, 36833
技术援助 36833
▁кандида 36832
▁комиссия 36826
▁crédits 36821
▁كثيرا 36821
▁позволит 36817
▁бу 36813
▁modelo 36808
▁AN 36802
▁organizations. 36799
▁مشاكل 36798
▁tirer 36796
▁pare 36793
▁مبادرة 36793
▁estratégico 36790
▁١٩٩٥ 36787
巴西 36787
助理 36786
mun 36783
▁представление 36780
▁Ber 36779
▁конститу 36777
▁Ministerial 36776
▁Recursos 36771
фици 36769
عبة 36766
▁efficient 36763
шу 36762
▁فكرة 36762
чном 36758
▁reconnaissance 36756
▁اﻵ 36755
قرر 36749
▁Don 36748
▁numéro 36739
▁أمور 36737
▁جيدة 36737
▁(habla 36736
▁quer 36730
зации 36728
▁investigations 36726
▁проблемам 36723
▁fils 36721
▁COM 36720
▁offici 36720
进展。 36712
)] 36711
▁сессии, 36707
▁assets 36704
▁84. 36698
▁важную 36698
▁rehabilitation 36697
▁seguridad, 36695
▁١٩٩٦ 36692
▁назы 36686
▁lleg 36685
▁obs 36685
▁sale 36682
▁traiter 36682
طا 36679
▁Некоторые 36678
▁côté 36672
ذب 36671
请秘书长 36667
▁peur 36660
▁отпра 36658
▁conn 36657
▁adopter 36653
▁التفتيش 36652
k, 36650
тным 36650
▁мнению 36650
引起 36650
▁travaille 36649
▁فيروس 36648
▁Reglamento 36644
▁decir, 36644
▁١٩٨ 36644
тая 36638
投入 36637
▁personnel, 36634
tel 36633
dic 36630
▁peines 36626
Í 36625
▁والتعليم 36624
▁Oye 36620
▁PMA 36620
▁essentiellement 36618
▁registration 36617
▁受 36612
发展和 36608
нять 36604
影响的 36603
▁السا 36601
的工作人员 36601
▁сумма 36600
▁accident 36597
▁développer 36595
▁выполнению 36591
iner 36590
▁реформы 36586
▁CERD/C 36580
▁Trust 36578
tric 36576
вана 36576
▁التزامات 36569
墨西哥 36569
ственная 36568
▁2008年 36567
▁valeurs 36563
▁evaluaciones 36562
开放 36559
▁advance 36556
vas 36555
ОТ 36554
▁stressed 36554
▁Government, 36551
▁Will 36542
فاع 36538
▁المرأة، 36534
دون 36533
▁настоящем 36532
▁министерства 36529
▁подтвержда 36528
▁法 36527
▁intérêt 36524
▁警察 36523
▁payment 36518
▁independence 36517
▁судебной 36513
▁Соединенные 36508
▁الأوروبية 36507
同样 36507
teenth 36503
ty, 36503
▁(أ 36503
▁started 36503
▁shown 36502
▁воздействие 36502
责任。 36498
家庭暴力 36497
▁قانونية 36488
发展中国家的 36487
PL 36486
▁الواجب 36482
г. 36481
▁Uganda 36481
切 36480
▁resto 36479
▁جرائم 36479
▁envi 36478
▁уст 36476
▁أيام 36471
▁(2006) 36469
▁٢٢ 36467
▁condu 36462
▁Департамента 36461
▁entrepris 36457
▁health, 36456
▁перевоз 36455
▁пору 36453
▁generally 36450
8- 36448
عاون 36443
▁تَ 36441
▁посвящен 36440
▁example 36438
另一 36438
▁clean 36437
▁أماكن 36437
воз 36435
▁notific 36433
▁прекра 36433
▁الطريقة 36433
= 36432
▁eficiencia 36431
ève 36427
▁dije 36427
s: 36425
▁utiliser 36420
▁أعلاه 36419
▁أه 36419
也是 36415
▁أنواع 36414
销 36413
▁Sede 36411
▁birth 36410
▁reglament 36410
вому 36409
влении 36406
货 36406
▁mandatos 36391
▁migrantes 36387
шает 36379
害 36378
▁eng 36368
▁определение 36365
ИН 36363
▁生 36362
▁дать 36353
تها. 36352
▁Ombudsman 36350
▁éste 36347
▁immediately 36346
▁areas. 36340
权。 36337
▁мнение 36333
社 36331
/NGO 36330
▁Adjunto 36329
▁équitable 36329
▁находящихся 36328
▁internationales, 36322
▁поме 36322
▁задача 36318
▁afirma 36317
▁Fuerza 36315
▁تمييز 36312
طف 36309
▁上帝 36304
▁juges 36297
▁проис 36287
▁pauvres 36284
▁figurent 36283
▁الشركاء 36281
▁comisión 36280
▁d'enseignement 36279
▁هام 36278
▁company 36272
▁encuentran 36267
▁importants 36261
▁LE 36252
▁consultative 36249
ie) 36240
▁Fin 36239
▁tomó 36238
▁répartition 36233
▁القر 36230
▁زوج 36230
一系列 36230
的执行情况 36226
▁علم 36225
▁Международная 36224
▁العدد 36224
▁доля 36223
▁отметить, 36223
▁réseaux 36221
▁Vienna 36220
▁acto 36216
▁شكرا 36216
لف 36213
/CO 36212
▁прогресс 36212
后续 36206
▁вести 36205
tain 36204
▁break 36197
▁درجة 36191
▁黑 36190
لال 36188
▁держа 36179
▁الطبع 36179
▁immediate 36178
▁respecto. 36177
▁بار 36177
▁مؤخرا 36175
▁recevoir 36173
▁функционирования 36170
шению 36167
щем 36167
▁(تكلم 36163
▁appartenant 36162
▁petición 36162
▁membership 36161
▁cHFFFFFF 36160
▁fix 36160
▁autant 36159
▁humanitario 36159
▁праву 36156
九届会议 36152
▁不错 36150
▁l'Europe 36147
▁программ, 36142
▁relieve 36139
▁проекты 36135
▁(10 36131
▁использованию 36130
▁متعددة 36124
▁jour, 36118
▁الشاملة 36117
uras 36109
▁كثيرة 36109
ket 36107
审议。 36102
▁stand 36100
▁хо 36099
▁jusqu' 36098
▁والميزانية 36098
▁вопросах 36096
▁meilleur 36095
واب 36093
委 36093
▁الأجانب 36092
▁fourth 36091
▁нескольких 36090
ancia, 36087
▁полномочий 36087
▁Jamahiriya 36085
▁المعدات 36084
▁population. 36083
خبر 36080
▁القطري 36080
▁cul 36079
▁mec 36077
▁بالنيابة 36075
▁judiciales 36074
▁5- 36073
▁détenus 36066
▁offence 36066
▁likely 36065
▁لر 36060
.12 36057
ميز 36056
▁diversidad 36056
▁trabajo, 36055
▁écoles 36053
بيع 36052
▁конце 36048
ники 36040
▁17, 36040
▁principalement 36040
▁N' 36039
▁exhaus 36038
▁programme, 36036
指示 36036
▁理事会 36033
т. 36032
▁stocks 36032
▁بمبلغ 36027
▁ودون 36026
▁如何 36026
adamente 36024
▁شا 36023
▁Family 36021
▁Sistema 36017
▁باب 36013
▁ведения 36011
▁مفوضية 36010
▁apoy 36002
▁micro 36002
▁год, 36001
俄罗斯联邦 36001
▁Bal 36000
▁VII. 35999
▁重申 35996
▁punishment 35995
情况的 35991
▁espère 35990
▁للمؤتمر 35988
▁提 35986
▁desechos 35984
▁bio 35983
脆弱 35983
ذي 35982
▁immédiatement 35978
▁closely 35976
▁participated 35976
▁примени 35974
▁PR 35971
▁s’ 35966
▁توقف 35966
国籍 35963
▁alta 35960
▁indirec 35960
▁economy 35959
▁growing 35959
▁отказа 35957
▁secondary 35956
示 35956
cing 35955
八届会议 35955
▁pobres 35954
▁mineurs 35952
▁осуществлением 35952
▁intéress 35945
▁sentence 35939
▁définir 35935
▁palabras 35935
кры 35932
资源的 35928
国际组织 35925
▁host 35924
▁prochain 35924
▁الإشارة 35924
▁ouvert 35923
arte 35918
وعة 35915
▁star 35915
▁draw 35912
▁deliber 35911
▁occupied 35905
900 35896
▁определя 35894
اك 35887
▁www. 35886
▁setting 35881
▁والر 35881
ération 35879
▁globale 35879
▁جامعة 35878
▁والثقافية 35878
▁числу 35877
▁A/61 35874
▁улучшению 35874
的权利。 35874
▁выполнение 35872
▁Many 35869
贝 35868
▁ampliar 35860
▁renov 35855
▁prestaciones 35854
▁voulais 35849
▁وان 35849
▁mm 35844
زز 35840
制止 35838
▁بالد 35837
чей 35835
▁election 35834
▁commencé 35829
总体 35829
ген 35827
▁ж 35825
▁Fue 35822
▁duración 35820
▁enquête 35820
外部 35820
▁月 35816
▁публи 35814
▁Eliminación 35813
iar 35810
▁порядка 35810
▁creado 35808
و. 35806
▁Chile 35804
▁impedir 35804
▁органов, 35800
▁١٨ 35798
▁2006، 35794
；以及 35792
ний, 35791
▁ЮНЕП 35790
▁самом 35790
▁minority 35789
▁vivienda 35784
▁moral 35783
▁ES 35781
спо 35779
▁procès 35777
▁有点 35776
▁сотрудника 35773
▁desempeñar 35771
▁violences 35770
wa 35767
▁llam 35766
▁consenso 35764
▁رئيسية 35760
东帝汶 35759
▁Strategy 35756
▁отмеча 35753
▁الجوانب 35751
▁Sir 35745
▁الفعل 35745
▁وصول 35745
▁التأ 35744
▁одну 35740
▁случае, 35739
▁20, 35737
▁Dar 35732
خي 35730
дни 35729
▁method 35726
▁apoya 35724
زع 35722
归 35718
▁leading 35714
中东 35714
▁потом 35712
▁2006年 35707
▁طلبات 35707
述 35707
فضل 35706
▁recovery 35705
▁المبذولة 35703
▁105 35700
▁financer 35700
ably 35698
▁учитывать 35698
mal 35696
▁起 35694
的政治 35694
▁أساسا 35693
ريك 35687
▁secours 35686
▁fra 35684
▁الموافقة 35683
▁Salut 35682
▁suiv 35682
▁Поскольку 35679
▁S'agissant 35677
tos, 35676
▁стали 35675
ological 35674
的行动 35672
▁VIH/SIDA 35667
▁planned 35667
льным 35665
▁направлении 35665
тное 35663
▁die 35663
▁Тебе 35663
hor 35660
▁等等 35656
排 35656
▁اﻷمانة 35655
ticos 35649
▁welcome 35645
▁наши 35636
持久 35634
▁region. 35631
▁abierta 35626
▁Ireland 35624
на. 35623
сон 35622
▁identific 35622
的联合国 35622
▁l'éducation, 35618
▁visées 35618
▁valores 35617
▁oriental 35616
认识 35615
▁ability 35614
▁Секретариата 35614
地雷 35612
alisation 35606
▁собира 35605
▁ри 35603
▁instance 35601
▁appelé 35599
▁non-prolifération 35596
▁низ 35596
ﻻم 35596
▁المشروعة 35593
增进 35591
cri 35587
▁work, 35587
▁وتس 35587
▁factors 35585
них 35584
▁включать 35581
虐待 35580
▁undertake 35577
▁對 35576
▁l'une 35574
▁أفغانستان 35573
▁اعتبار 35573
▁الموضوعية 35568
▁survey 35566
▁المهاجرين 35566
▁немного 35565
ís 35564
▁تمت 35560
▁celebrará 35559
第7 35557
▁escolar 35556
▁inci 35554
▁préparatoire 35554
▁والإن 35553
▁отношение 35549
▁الغربية 35549
▁рост 35547
▁"M 35546
▁paso 35545
▁включения 35545
енное 35544
▁85. 35544
▁aproximadamente 35543
▁mainly 35541
▁siete 35534
一届会议 35534
情报 35534
▁firm 35531
▁naturaleza 35529
▁本报告 35526
▁fin, 35525
▁причем 35523
▁Communauté 35519
▁imposed 35518
▁Генеральному 35517
▁فإنها 35517
全体 35517
▁(و) 35516
▁ampli 35515
▁Необходимо 35515
估计数 35515
ريس 35514
مم 35513
▁(8 35512
▁Portugal, 35506
▁statistical 35503
▁autores 35499
▁2010-2011 35498
▁More 35498
зов 35494
▁highest 35490
▁момента 35490
[...]
